{
  "concept": 4145,
  "yo": 10930,
  "eliminated": 5892,
  "##py": 7685,
  "perpetual": 18870,
  "##cor": 27108,
  "technological": 10660,
  "avoidance": 24685,
  "bouncing": 16361,
  "##umber": 29440,
  "automatic": 6882,
  "##jou": 23099,
  "[unused856]": 861,
  "fife": 20537,
  "##resses": 25932,
  "##mony": 22847,
  "crested": 25413,
  "subterranean": 28811,
  "##ir": 4313,
  "##\u1019": 29973,
  "reddy": 18998,
  "bahadur": 21715,
  "##ingly": 15787,
  "cows": 17188,
  "argent": 23157,
  "lennon": 14294,
  "apologies": 25380,
  "[unused721]": 726,
  "intercontinental": 18725,
  "femme": 26893,
  "marino": 17185,
  "##lston": 21540,
  "##gos": 12333,
  "\u0bb3": 1393,
  "wild": 3748,
  "##ridge": 9438,
  "mets": 15253,
  "##stra": 20528,
  "believer": 24591,
  "storms": 12642,
  "teaser": 27071,
  "malaysia": 6027,
  "propeller": 15692,
  "calculated": 10174,
  "cho": 16480,
  "sawmill": 24744,
  "yuan": 11237,
  "dispersed": 15484,
  "ama": 25933,
  "proportional": 14267,
  "##dgets": 28682,
  "dessert": 18064,
  "briefs": 28760,
  "orgasm": 13892,
  "employment": 6107,
  "##tner": 18885,
  "\u2606": 1621,
  "apache": 15895,
  "04": 5840,
  "woken": 22795,
  "touring": 6828,
  "##down": 7698,
  "landscaping": 28404,
  "judah": 23022,
  "witch": 6965,
  "\u2044": 1535,
  "##rn": 6826,
  "##powered": 27267,
  "impact": 4254,
  "##\u0f56": 29967,
  "marble": 7720,
  "bass": 3321,
  "breeding": 8119,
  "yen": 18371,
  "this": 2023,
  "##osis": 12650,
  "squealed": 26175,
  "m\u00b2": 7030,
  "yawned": 27626,
  "usable": 24013,
  "slant": 27474,
  "muriel": 27616,
  "1643": 25534,
  "mccall": 25790,
  "inherent": 16112,
  "fencing": 15962,
  "[unused195]": 200,
  "winners": 4791,
  "[unused422]": 427,
  "velocity": 10146,
  "crowe": 25657,
  "subsidiaries": 20178,
  "[unused341]": 346,
  "tired": 5458,
  "pointless": 23100,
  "berth": 17064,
  "tobago": 17247,
  "carson": 9806,
  "kidnapped": 11364,
  "sperm": 18047,
  "crowds": 12783,
  "##iman": 18505,
  "unlock": 19829,
  "\u1103": 1457,
  "narayan": 24331,
  "breakfast": 6350,
  "compound": 7328,
  "\u044c": 1207,
  "##\u00ac": 29655,
  "morrow": 19084,
  "##nc": 12273,
  "tighter": 12347,
  "norton": 10770,
  "consuming": 15077,
  "destiny": 10461,
  "ti": 14841,
  "royal": 2548,
  "##icing": 23553,
  "##clops": 28659,
  "##hope": 26441,
  "dowager": 20508,
  "wit": 15966,
  "{": 1063,
  "jasmine": 14032,
  "tradition": 4535,
  "just": 2074,
  "notification": 26828,
  "noun": 15156,
  "\u6728": 1875,
  "hostages": 19323,
  "cohen": 9946,
  "almighty": 26668,
  "wes": 14008,
  "generalized": 18960,
  "floated": 13715,
  "spaceship": 25516,
  "##kka": 15714,
  "feature": 3444,
  "##kawa": 13069,
  "waterway": 23668,
  "1981": 3261,
  "##yala": 28617,
  "[unused378]": 383,
  "horse": 3586,
  "belonged": 6272,
  "carmine": 18791,
  "evan": 9340,
  "[unused450]": 455,
  "[unused582]": 587,
  "excavations": 14018,
  "##hot": 12326,
  "##wing": 9328,
  "baltimore": 6222,
  "troops": 3629,
  "cords": 24551,
  "rajasthan": 16815,
  "favourite": 8837,
  "bonuses": 29563,
  "failed": 3478,
  "layered": 21323,
  "arrays": 27448,
  "##itzer": 19253,
  "distal": 29333,
  "##\u06c1": 29845,
  "pacific": 3534,
  "euroleague": 26093,
  "inflated": 29561,
  "meiji": 23214,
  "glucose": 18423,
  "[unused687]": 692,
  "collingwood": 20044,
  "searing": 25764,
  "balanced": 12042,
  "\u207f": 1546,
  "genealogical": 29606,
  "sweeping": 12720,
  "easton": 21636,
  "##wc": 16526,
  "1644": 23477,
  "navajo": 22440,
  "##storm": 19718,
  "##raphy": 26228,
  "##kot": 23342,
  "foreigner": 29524,
  "\u53e4": 1789,
  "surplus": 15726,
  "caring": 11922,
  "persian": 4723,
  "[unused486]": 491,
  "##duk": 28351,
  "characterization": 23191,
  "passageway": 27336,
  "mahal": 27913,
  "##dc": 16409,
  "conjunction": 9595,
  "beast": 6841,
  "preferred": 6871,
  "cuckoo": 29010,
  "extent": 6698,
  "shortened": 12641,
  "tomb": 8136,
  "honoured": 15546,
  "laughs": 11680,
  "similarly": 6660,
  "[unused634]": 639,
  "choreographed": 23317,
  "fictitious": 23577,
  "chemist": 15535,
  "brute": 26128,
  "struck": 4930,
  "battles": 7465,
  "ness": 23384,
  "##idad": 27893,
  "promotes": 14067,
  "pillows": 17860,
  "##ros": 7352,
  "restaurants": 7884,
  "translated": 5421,
  "dietrich": 22567,
  "1912": 4878,
  "enraged": 18835,
  "kicked": 6476,
  "overthrow": 16857,
  "ponytail": 18865,
  "##miya": 29312,
  "important": 2590,
  "kassel": 27884,
  "twitter": 10474,
  "strauss": 16423,
  "charted": 12568,
  "tenants": 14665,
  "sources": 4216,
  "1991": 2889,
  "##rval": 26585,
  "vow": 19076,
  "clusters": 12906,
  "##\u02bc": 29712,
  "1975": 3339,
  "##quette": 29416,
  "robbie": 12289,
  "comeback": 12845,
  "hate": 5223,
  "thermal": 9829,
  "##\u0438\u044f": 23483,
  "soloist": 16504,
  "applicant": 23761,
  "dev": 16475,
  "periodicals": 21855,
  "##ved": 7178,
  "##sion": 10992,
  "concepts": 8474,
  "drowned": 12805,
  "jessica": 8201,
  "judicial": 8268,
  "proved": 4928,
  "rib": 19395,
  "legion": 8009,
  "dominant": 7444,
  "##\u30c6": 30239,
  "seem": 4025,
  "[unused525]": 530,
  "1905": 5497,
  "##\u305f": 30187,
  "sure": 2469,
  "conflict": 4736,
  "##so": 6499,
  "virtually": 8990,
  "legislator": 22964,
  "[unused523]": 528,
  "\u5929": 1811,
  "dundee": 14252,
  "sexual": 4424,
  "yourselves": 25035,
  "delaware": 8452,
  "understand": 3305,
  "coil": 17085,
  "bucks": 14189,
  "recreation": 8640,
  "stint": 12116,
  "rhythm": 6348,
  "routine": 9410,
  "plc": 15492,
  "inverness": 22937,
  "valleys": 12467,
  "278": 24709,
  "maxim": 20446,
  "jamaican": 17851,
  "apostle": 20121,
  "mccormick": 23213,
  "##son": 3385,
  "hebrew": 6836,
  "forgotten": 6404,
  "desperately": 9652,
  "bobbed": 29579,
  "##ntine": 26730,
  "groin": 20092,
  "##rna": 12789,
  "gas": 3806,
  "sanskrit": 11353,
  "somerville": 27209,
  "clermont": 27956,
  "interstate": 7553,
  "ground": 2598,
  "catcher": 13795,
  "nations": 3741,
  "[unused217]": 222,
  "containing": 4820,
  "thirties": 26313,
  "490": 22288,
  "karin": 24537,
  "unspecified": 25851,
  "deployed": 7333,
  "tate": 9902,
  "panama": 8515,
  "##gnan": 28207,
  "##ue": 5657,
  "reckless": 18555,
  "imagine": 5674,
  "125": 8732,
  "bowen": 16208,
  "##clave": 23650,
  "mor": 22822,
  "originates": 16896,
  "equipped": 6055,
  "laureate": 17656,
  "brit": 28101,
  "tread": 29449,
  "amazingly": 29350,
  "##oire": 26250,
  "negative": 4997,
  "against": 2114,
  "springs": 6076,
  "malley": 25271,
  "\uff08": 1987,
  "##\u221a": 30127,
  "1886": 6929,
  "nj": 19193,
  "computer": 3274,
  "\u03be": 1168,
  "gorilla": 23526,
  "planners": 27155,
  "##ciful": 26336,
  "marker": 12115,
  "##ulla": 22187,
  "perceived": 8690,
  "##fixed": 23901,
  "insects": 9728,
  "breach": 12510,
  "larsen": 20094,
  "open": 2330,
  "wand": 23967,
  "##ostal": 29381,
  "huffington": 26149,
  "cloak": 11965,
  "regions": 4655,
  "ravens": 17272,
  "##wt": 26677,
  "stirring": 18385,
  "##uman": 19042,
  "advocacy": 12288,
  "regarding": 4953,
  "butte": 25024,
  "116": 12904,
  "[unused660]": 665,
  "deployment": 10813,
  "##mics": 22924,
  "truths": 23019,
  "signals": 7755,
  "##eles": 26741,
  "behaved": 26979,
  "analytical": 17826,
  "considers": 10592,
  "enhancement": 22415,
  "##5": 2629,
  "player": 2447,
  "corresponds": 14788,
  "ludwig": 10302,
  "employer": 11194,
  "spokane": 21878,
  "##ske": 17140,
  "holloway": 20977,
  "apparatus": 14709,
  "vivo": 24269,
  "exhibited": 8176,
  "##\u05e7": 29810,
  "overly": 15241,
  "mass": 3742,
  "elements": 3787,
  "##uen": 24997,
  "shrinking": 28375,
  "exterior": 8829,
  "victims": 5694,
  "##trix": 29184,
  "thorpe": 20249,
  "\u30bf": 1709,
  "behavior": 5248,
  "##ink": 19839,
  "verse": 7893,
  "mathew": 25436,
  "needed": 2734,
  "mckenna": 21749,
  "experimenting": 23781,
  "surely": 7543,
  "##orus": 21694,
  "##ages": 13923,
  "mocked": 24195,
  "##kor": 21815,
  "nouns": 19211,
  "##sky": 5874,
  "##\u209a": 30097,
  "##\u20ac": 30102,
  "##war": 9028,
  "[unused807]": 812,
  "maru": 26280,
  "pasha": 14292,
  "##\u00b5": 29659,
  "##lok": 29027,
  "arbitrary": 15275,
  "putting": 5128,
  "sykes": 23531,
  "inspectors": 28421,
  "##ope": 17635,
  "corn": 9781,
  "harvesting": 21534,
  "##titles": 27430,
  "platoon": 13799,
  "##\u09af": 29907,
  "picture": 3861,
  "peptide": 25117,
  "[unused909]": 914,
  "turkmenistan": 25432,
  "44": 4008,
  "lectured": 19206,
  "sterling": 10933,
  "artworks": 22000,
  "76": 6146,
  "jaguars": 24017,
  "##\u03bf\u03c2": 15297,
  "disadvantaged": 27322,
  "renovations": 15576,
  "[unused675]": 680,
  "warrior": 6750,
  "##bau": 27773,
  "sergio": 13983,
  "student": 3076,
  "shu": 18454,
  "cupping": 25076,
  "229": 22777,
  "excess": 9987,
  "antagonist": 17379,
  "mate": 6775,
  "##\u30e2": 30253,
  "sleeper": 24372,
  "trolls": 27980,
  "rigged": 25216,
  "spectra": 29237,
  "underneath": 7650,
  "noel": 10716,
  "revelations": 22191,
  "hawke": 24882,
  "for": 2005,
  "rashid": 22080,
  "bolivia": 11645,
  "suarez": 22551,
  "and": 1998,
  "icy": 13580,
  "grounded": 16764,
  "gale": 14554,
  "pod": 17491,
  "##ak": 4817,
  "gil": 13097,
  "beta": 8247,
  "training": 2731,
  "xl": 28712,
  "arterial": 25543,
  "barry": 6287,
  "##lam": 10278,
  "token": 19204,
  "donate": 21357,
  "[unused916]": 921,
  "##aton": 22436,
  "gotten": 5407,
  "\u8eca": 1954,
  "replaces": 20736,
  "achievement": 6344,
  "gaa": 19930,
  "respond": 6869,
  "bancroft": 29351,
  "kills": 8563,
  "##ditional": 27064,
  "passive": 13135,
  "nodded": 3368,
  "scorpion": 22015,
  "snow": 4586,
  "comprising": 9605,
  "boogie": 21495,
  "staged": 9813,
  "pendant": 23152,
  "moroccan": 17494,
  "feral": 18993,
  "dental": 11394,
  "copy": 6100,
  "##gal": 9692,
  "thereof": 21739,
  "##ove": 21818,
  "[unused215]": 220,
  "196": 20035,
  "detector": 19034,
  "account": 4070,
  "competitor": 12692,
  "introduction": 4955,
  "endorsed": 11763,
  "johan": 13093,
  "replication": 21647,
  "bacterium": 24024,
  "obligations": 14422,
  "splashed": 22055,
  "guarding": 17019,
  "hms": 7220,
  "##\u826f": 30464,
  "shoving": 15866,
  "tunnels": 10633,
  "tapping": 15135,
  "##\u2026": 30064,
  "emerson": 12628,
  "cooling": 11520,
  "weak": 5410,
  "pasta": 24857,
  "tormented": 29026,
  "shillings": 29332,
  "emerging": 8361,
  "whites": 12461,
  "##\u25cf": 30146,
  "plume": 26888,
  "pickering": 27078,
  "carlson": 22226,
  "panthers": 12915,
  "relocation": 18344,
  "fleeting": 25085,
  "##\u306d": 30196,
  "rustling": 29188,
  "##\u2075": 30074,
  "sous": 27411,
  "##ander": 12243,
  "disqualification": 27782,
  "earnest": 17300,
  "claudia": 13479,
  "creativity": 14842,
  "##vron": 28588,
  "difficulty": 7669,
  "##rates": 20370,
  "murray": 6264,
  "tragic": 13800,
  "brewing": 16005,
  "alfred": 6152,
  "niccolo": 27033,
  "concerning": 7175,
  "registering": 25719,
  "##ilis": 24411,
  "##orn": 9691,
  "##llet": 22592,
  "claiming": 6815,
  "formula": 5675,
  "jedi": 27273,
  "viscount": 12182,
  "racer": 14878,
  "kawasaki": 27324,
  "yvonne": 21684,
  "206": 18744,
  "counted": 8897,
  "##\u2248": 30133,
  "\"": 1000,
  "##\uff01": 30512,
  "blackpool": 17444,
  "ns": 24978,
  "arbor": 19679,
  "##lewood": 26580,
  "reinforced": 11013,
  "natalie": 10829,
  "campeonato": 17675,
  "implications": 13494,
  "guitarists": 28523,
  "regard": 7634,
  "1884": 6988,
  "thailand": 6504,
  "hitchcock": 19625,
  "##aring": 22397,
  "[unused417]": 422,
  "ransom": 16540,
  "\u539f": 1787,
  "javier": 13824,
  "jars": 25067,
  "##\u062a": 29817,
  "##\u3051": 30180,
  "##pd": 17299,
  "lizzie": 15860,
  "shaken": 16697,
  "roy": 6060,
  "municipal": 4546,
  "fabricated": 24212,
  "erased": 23516,
  "croft": 28983,
  "walkers": 22559,
  "estonia": 10692,
  "beside": 3875,
  "shorts": 9132,
  "##centric": 22461,
  "alain": 15654,
  "sentenced": 7331,
  "consolidated": 10495,
  "multimedia": 14959,
  "\u00f7": 1099,
  "\u884c": 1945,
  "unlimited": 14668,
  "relief": 4335,
  "atlantis": 16637,
  "\u1019": 1437,
  "chimed": 27460,
  "34th": 20460,
  "wiggled": 26750,
  "cerambycidae": 13168,
  "##gler": 17420,
  "##shi": 6182,
  "##eter": 15141,
  "depths": 11143,
  "monterrey": 26843,
  "chili": 20238,
  "harmonic": 19452,
  "sato": 20251,
  "ladder": 10535,
  "priests": 8656,
  "\u0274": 1124,
  "##rance": 21621,
  "##\u0289": 29697,
  "confluence": 13693,
  "undergone": 17215,
  "olaf": 20514,
  "zev": 27909,
  "briggs": 15487,
  "yielded": 17544,
  "sega": 16562,
  "elmer": 21464,
  "##po": 6873,
  "##group": 17058,
  "demo": 9703,
  "ortega": 25859,
  "##iani": 25443,
  "maclean": 22528,
  "recycling": 17874,
  "forcefully": 23097,
  "bombed": 18897,
  "alma": 11346,
  "variant": 8349,
  "rosary": 28291,
  "roadside": 25131,
  "1965": 3551,
  "commercial": 3293,
  "wheeler": 12819,
  "fireplace": 13788,
  "\u0563": 1221,
  "1855": 8492,
  "skirt": 9764,
  "##arm": 27292,
  "requiem": 21199,
  "gym": 9726,
  "agreed": 3530,
  "##\u0153": 29674,
  "holds": 4324,
  "#": 1001,
  "kris": 19031,
  ",": 1010,
  "##ners": 16912,
  "##jured": 26949,
  "accelerate": 23306,
  "edge": 3341,
  "luzon": 21622,
  "[unused990]": 995,
  "ghz": 29066,
  "housed": 7431,
  "improving": 9229,
  "##icides": 22698,
  "##uda": 14066,
  "robot": 8957,
  "charlie": 4918,
  "##cam": 28727,
  "gingerly": 26961,
  "[unused323]": 328,
  "reforming": 29455,
  "transplant": 22291,
  "##yana": 16811,
  "03": 6021,
  "observations": 9420,
  "surpassed": 15602,
  "ewing": 24023,
  "dickinson": 17590,
  "hollow": 8892,
  "walt": 10598,
  "disadvantage": 20502,
  "cruelty": 18186,
  "perez": 10730,
  "torpedo": 9862,
  "dunes": 17746,
  "\u0582": 1238,
  "\u305b": 1659,
  "katy": 17870,
  "vivian": 13801,
  "penultimate": 25512,
  "##\u0432": 25529,
  "places": 3182,
  "sobs": 21503,
  "significance": 7784,
  "crystal": 6121,
  "##sal": 12002,
  "newark": 12948,
  "1882": 7131,
  "##\u02e1": 29716,
  "\u6b62": 1887,
  "taxpayer": 26980,
  "hare": 14263,
  "[unused554]": 559,
  "judgement": 16646,
  "##pu": 14289,
  "[unused674]": 679,
  "helmet": 10412,
  "patricia": 10717,
  "##\u057e": 29782,
  "electrically": 29103,
  "confession": 12633,
  "additional": 3176,
  "tottenham": 18127,
  "und": 6151,
  "mccann": 28641,
  "brazilian": 6142,
  "salt": 5474,
  "appetite": 18923,
  "actions": 4506,
  "commemoration": 22377,
  "oslo": 9977,
  "milk": 6501,
  "utilizing": 16911,
  "approve": 14300,
  "juice": 10869,
  "plucked": 20780,
  "drive": 3298,
  "scandinavian": 17660,
  "jay": 6108,
  "kraft": 26680,
  "##eli": 20806,
  "diaspora": 18239,
  "in": 1999,
  "##\u1167": 30010,
  "arts": 2840,
  "148": 16459,
  "[unused845]": 850,
  "##nzo": 25650,
  "cautious": 17145,
  "rally": 8320,
  "cages": 27157,
  "zoom": 24095,
  "clean": 4550,
  "schubert": 24645,
  "halftime": 22589,
  "neighbour": 20065,
  "courtyard": 10119,
  "spurred": 22464,
  "##dl": 19422,
  "trailers": 21389,
  "##rium": 18802,
  "##ile": 9463,
  "##\u0621": 29815,
  "jasper": 14791,
  "once": 2320,
  "##\u0e40": 29959,
  "##burn": 8022,
  "shirt": 3797,
  "##amen": 27245,
  "sixteen": 7032,
  "potatoes": 14629,
  "##ggy": 22772,
  "absorbed": 9063,
  "stability": 9211,
  "la": 2474,
  "counting": 10320,
  "##eus": 10600,
  "cues": 23391,
  "15": 2321,
  "leather": 5898,
  "cheer": 15138,
  "criticized": 6367,
  "permanently": 8642,
  "az": 17207,
  "1751": 24440,
  "champ": 24782,
  "seneca": 21224,
  "##istic": 6553,
  "sur": 7505,
  "nur": 27617,
  "steered": 23424,
  "ballard": 21896,
  "items": 5167,
  "radioactive": 17669,
  "cafeteria": 16673,
  "angels": 7048,
  "ceramic": 14692,
  "##lette": 27901,
  "bladed": 27402,
  "##iot": 25185,
  "graphs": 19287,
  "##lete": 25890,
  "aa": 9779,
  "corvette": 22687,
  "\u571f": 1801,
  "lobes": 24423,
  "fulton": 17049,
  "beatrice": 14807,
  "huddled": 20258,
  "[unused732]": 737,
  "adventures": 7357,
  "295": 21679,
  "false": 6270,
  "terrorists": 15554,
  "chiba": 27368,
  "medley": 13863,
  "breadth": 25291,
  "motorcycles": 18580,
  "passage": 6019,
  "calculus": 19276,
  "headwaters": 25345,
  "##ned": 7228,
  "##wald": 11191,
  "\u5408": 1792,
  "options": 7047,
  "grenades": 21914,
  "landowners": 20152,
  "firms": 9786,
  "executing": 23448,
  "[unused657]": 662,
  "\u5065": 1768,
  "forgetting": 17693,
  "labelled": 18251,
  "aid": 4681,
  "immediate": 6234,
  "diagram": 16403,
  "##tl": 19646,
  "gay": 5637,
  "durga": 28746,
  "##ropolis": 23248,
  "music": 2189,
  "##unas": 23904,
  "assumption": 11213,
  "allegheny": 21192,
  "emanuel": 21135,
  "shuffling": 24770,
  "approx": 22480,
  "[unused508]": 513,
  "invaded": 10836,
  "[unused394]": 399,
  "##\u0645": 22192,
  "paranoia": 27890,
  "tunisia": 13437,
  "cornell": 10921,
  "topics": 7832,
  "lombardy": 27728,
  "wealth": 7177,
  "##\u0638": 29829,
  "ejected": 22607,
  "knee": 6181,
  "##ari": 8486,
  "leicestershire": 20034,
  "supplier": 17024,
  "##uder": 29190,
  "implying": 20242,
  "silvio": 28107,
  "denominations": 17384,
  "justin": 6796,
  "field": 2492,
  "flip": 11238,
  "tenth": 7891,
  "wii": 16568,
  "philosophical": 9569,
  "pools": 12679,
  "recovered": 6757,
  "980": 25195,
  "points": 2685,
  "roaming": 24430,
  "look": 2298,
  "##arns": 23549,
  "armory": 24139,
  "plants": 4264,
  "zeppelin": 22116,
  "tanner": 12780,
  "brown": 2829,
  "parapet": 27372,
  "frankish": 26165,
  "constantly": 7887,
  "coincidence": 16507,
  "portland": 6734,
  "insist": 18292,
  "stil": 25931,
  "##hiko": 22204,
  "conrad": 10931,
  "authority": 3691,
  "ko": 12849,
  "malice": 28238,
  "crashing": 12894,
  "122": 13092,
  "pueblo": 18273,
  "\u0647": 1297,
  "simone": 14072,
  "##shot": 19040,
  "##rke": 25074,
  "pam": 14089,
  "whiskey": 13803,
  "scholarship": 6566,
  "vase": 18781,
  "quicker": 19059,
  "islamabad": 26905,
  "##kr": 21638,
  "proceedings": 8931,
  "pigeons": 27567,
  "sacrifice": 8688,
  "curtains": 14694,
  "optimistic": 21931,
  "##\u0458": 29761,
  "seychelles": 27438,
  "\u0290": 1136,
  "pillars": 13766,
  "mere": 8210,
  "1941": 3874,
  "[unused80]": 81,
  "[unused861]": 866,
  "turrets": 21088,
  "[unused743]": 748,
  "thames": 11076,
  "opium": 21075,
  "cardinals": 9310,
  "fisted": 28273,
  "##field": 3790,
  "##\u1d9c": 30046,
  "150": 5018,
  "calendar": 8094,
  "kemp": 20441,
  "24th": 13386,
  "owner": 3954,
  "inline": 23881,
  "portions": 8810,
  "blockade": 15823,
  "##umb": 25438,
  "appoint": 16823,
  "accusation": 19238,
  "misses": 22182,
  "corrupted": 27279,
  "whale": 13156,
  "##por": 17822,
  "dry": 4318,
  "li": 5622,
  "reworked": 27575,
  "##stein": 8602,
  "##_": 29638,
  "brains": 14332,
  "subsequent": 4745,
  "##walker": 26965,
  "gilles": 21717,
  "hoop": 27669,
  "talented": 10904,
  "ec": 14925,
  "samba": 29086,
  "jong": 18528,
  "52nd": 26898,
  "[unused574]": 579,
  "[unused812]": 817,
  "405": 23988,
  "accomplishments": 17571,
  "\u52a0": 1779,
  "crypt": 19888,
  "rats": 11432,
  "proxy": 24540,
  "thoughts": 4301,
  "##rave": 22401,
  "establishing": 7411,
  "chester": 8812,
  "raf": 7148,
  "nils": 27282,
  "freedom": 4071,
  "cultivated": 13237,
  "heidelberg": 16793,
  "\u2212": 1597,
  "especially": 2926,
  "\u028e": 1135,
  "hose": 21290,
  "platinum": 8899,
  "garment": 19002,
  "##uca": 18100,
  "1745": 21809,
  "\u5317": 1781,
  "\u0635": 1284,
  "emmanuel": 14459,
  "##\u0923": 29858,
  "214": 19936,
  "mandatory": 10915,
  "felipe": 17095,
  "futuristic": 28971,
  "\u062e": 1277,
  "desmond": 16192,
  "paying": 7079,
  "wryly": 28325,
  "specialty": 12233,
  "offerings": 14927,
  "78": 6275,
  "callie": 20072,
  "involves": 7336,
  "kidnap": 22590,
  "theaters": 12370,
  "alfredo": 19423,
  "rousseau": 26868,
  "##more": 5974,
  "infinite": 10709,
  "aramaic": 28934,
  "gma": 20917,
  "equestrian": 19191,
  "bully": 20716,
  "##\u092d": 29866,
  "cast": 3459,
  "dolores": 21544,
  "iec": 24940,
  "severity": 18976,
  "\u592b": 1813,
  "[unused891]": 896,
  "harmed": 25596,
  "haydn": 25595,
  "holder": 9111,
  "nee": 7663,
  "191": 19871,
  "##stand": 21515,
  "follow": 3582,
  "counties": 5721,
  "ngo": 17895,
  "comedies": 22092,
  "debuting": 24469,
  "156": 16734,
  "stretching": 10917,
  "suffered": 4265,
  "clip": 12528,
  "1842": 10008,
  "conditioned": 22442,
  "inflicted": 17303,
  "dong": 11947,
  "##ured": 12165,
  "haired": 10681,
  "eritrea": 26040,
  "engineered": 13685,
  "developing": 4975,
  "flatly": 24295,
  "emphasis": 7902,
  "[unused368]": 373,
  "##ctors": 24817,
  "##asi": 21369,
  "##bson": 27355,
  "handful": 9210,
  "219": 20636,
  "##ider": 18688,
  "64": 4185,
  "##sitor": 28307,
  "mandy": 18193,
  "[unused813]": 818,
  "lakes": 6597,
  "##ik": 5480,
  "anxiously": 23403,
  "deposits": 10042,
  "wah": 22894,
  "cycling": 9670,
  "thyroid": 29610,
  "roi": 25223,
  "weasel": 29268,
  "werewolf": 12797,
  "##pani": 26569,
  "hampton": 11615,
  "##bright": 26614,
  "nevada": 7756,
  "indicated": 5393,
  "brat": 28557,
  "##tell": 23567,
  "municipalities": 7602,
  "profiles": 17879,
  "##bay": 15907,
  "alphabet": 12440,
  "1708": 27337,
  "paramount": 11734,
  "##zer": 6290,
  "empress": 10248,
  "rejecting": 21936,
  "fought": 4061,
  "often": 2411,
  "##\u1d35": 30029,
  "##\u53f2": 30316,
  "frustration": 9135,
  "##graphy": 12565,
  "##van": 6212,
  "mining": 5471,
  "mori": 22993,
  "##eses": 23072,
  "assured": 8916,
  "[unused728]": 733,
  "##\u6bd4": 30416,
  "##um": 2819,
  "##yce": 29297,
  "182": 17691,
  "unreasonable": 29205,
  "twenty": 3174,
  "\u0927": 1326,
  "tq": 28816,
  "##vb": 26493,
  "reggae": 15662,
  "liturgical": 19246,
  "##cea": 21456,
  "flynn": 13259,
  "pastures": 24813,
  "salts": 23480,
  "discs": 15303,
  "1961": 3777,
  "suppression": 16341,
  "influential": 6383,
  "obtaining": 11381,
  "controller": 11486,
  "indonesian": 9003,
  "comedic": 21699,
  "1768": 19793,
  "marc": 7871,
  "##antes": 24985,
  "##orum": 20527,
  "forget": 5293,
  "pub": 9047,
  "arriving": 7194,
  "##ema": 14545,
  "pleasantly": 27726,
  "investigating": 11538,
  "##ople": 27469,
  "pennsylvania": 3552,
  "outlaw": 19104,
  "books": 2808,
  "outcomes": 13105,
  "valuable": 7070,
  "55th": 29075,
  "gender": 5907,
  "soda": 14904,
  "untitled": 24819,
  "##beau": 26401,
  "event": 2724,
  "canton": 8770,
  "exemption": 19621,
  "refueling": 23026,
  "adjustment": 19037,
  "card": 4003,
  "bluff": 14441,
  "young": 2402,
  "permitting": 24523,
  "earned": 3687,
  "[unused824]": 829,
  "ecumenical": 23540,
  "315": 22904,
  "great": 2307,
  "1957": 3890,
  "wee": 16776,
  "limestone": 9771,
  "##hua": 14691,
  "talked": 5720,
  "sarcastically": 23800,
  "articulated": 20742,
  "patterns": 7060,
  "actively": 8851,
  "pmid": 20117,
  "scripture": 18919,
  "wells": 7051,
  "exits": 16639,
  "nipple": 14298,
  "cuffs": 24347,
  "bender": 25386,
  "fortification": 23050,
  "##bal": 10264,
  "descended": 9287,
  "kylie": 9008,
  "convicts": 24948,
  "152": 15017,
  "songwriters": 20602,
  "feud": 13552,
  "keepers": 24018,
  "##taro": 28160,
  "erect": 14908,
  "rookie": 8305,
  "dice": 18740,
  "energy": 2943,
  "equivalence": 27841,
  "baseline": 26163,
  "creamy": 24519,
  "habits": 14243,
  "crafted": 19275,
  "zombie": 11798,
  "county": 2221,
  "heron": 22914,
  "1807": 13206,
  "core": 4563,
  "jug": 26536,
  "focuses": 7679,
  "##\u0ba9": 29923,
  "resultant": 28573,
  "strongest": 10473,
  "teaching": 4252,
  "reply": 7514,
  "##\u0627\u0646": 18511,
  "novels": 6002,
  "\u03b1": 1155,
  "bala": 21451,
  "watch": 3422,
  "bother": 8572,
  "praise": 8489,
  "patrons": 13497,
  "mozart": 13177,
  "##chu": 20760,
  "romanized": 7651,
  "contributors": 16884,
  "unrelated": 15142,
  "vulnerable": 8211,
  "[unused107]": 112,
  "geelong": 18664,
  "sediments": 20476,
  "##\u9673": 30498,
  "##fer": 7512,
  "everybody": 7955,
  "##nated": 23854,
  "ada": 15262,
  "hopeful": 17772,
  "\u0924": 1323,
  "harry": 4302,
  "piece": 3538,
  "holocaust": 11513,
  "walks": 7365,
  "horrific": 23512,
  "annoying": 15703,
  "gustavo": 24801,
  "noelle": 22336,
  "secession": 22965,
  "uk": 2866,
  "variously": 17611,
  "surrender": 7806,
  "premise": 18458,
  "calcium": 13853,
  "pavement": 14271,
  "paints": 23262,
  "##\u0bc8": 29935,
  "traces": 10279,
  "electrode": 28688,
  "symbols": 9255,
  "drafting": 21168,
  "holding": 3173,
  "pulls": 8005,
  "insistence": 20616,
  "amar": 23204,
  "colonial": 5336,
  "nordic": 13649,
  "warring": 28509,
  "tangent": 27250,
  "voss": 24878,
  "sequential": 25582,
  "toxin": 29090,
  "##aks": 29243,
  "purcell": 26429,
  "be": 2022,
  "sitcom": 13130,
  "debut": 2834,
  "dripped": 22526,
  "##mour": 20360,
  "wardrobe": 17828,
  "\u0936": 1336,
  "fixture": 15083,
  "\u02b2": 1141,
  "##1": 2487,
  "apical": 29197,
  "##!": 29612,
  "1863": 6899,
  "91": 6205,
  "##rain": 21166,
  "##nga": 13807,
  "rubs": 28860,
  "targeted": 9416,
  "rescue": 5343,
  "unearthed": 27422,
  "baked": 17776,
  "hee": 18235,
  "inputs": 20407,
  "##ress": 8303,
  "citadel": 15364,
  "iteration": 27758,
  "##hesion": 21471,
  "[unused69]": 70,
  "disappearance": 13406,
  "##notes": 20564,
  "##lage": 20679,
  "##tera": 14621,
  "\u5dde": 1836,
  "crimes": 6997,
  "diploma": 9827,
  "##lles": 20434,
  "2010": 2230,
  "[unused231]": 236,
  "##\u3059": 30184,
  "juvenile": 11799,
  "bee": 10506,
  "searching": 6575,
  "\u0632": 1281,
  "suite": 7621,
  "stares": 14020,
  "curl": 15390,
  "emperor": 3750,
  "solution": 5576,
  "addressing": 12786,
  "whoa": 23281,
  "##iff": 13355,
  "1656": 28434,
  "##\u767a": 30440,
  "flaws": 21407,
  "##mans": 15154,
  "expenses": 11727,
  "popcorn": 24593,
  "melee": 27868,
  "complete": 3143,
  "protection": 3860,
  "cas": 25222,
  "northwards": 27592,
  "wouldn": 2876,
  "##hop": 18471,
  "inaccurate": 24949,
  "##vert": 16874,
  "winnipeg": 11093,
  "[unused601]": 606,
  "##\u706b": 30432,
  "##oit": 28100,
  "house": 2160,
  "[unused573]": 578,
  "suburban": 9282,
  "estates": 8707,
  "##rya": 20444,
  "hesitantly": 24626,
  "clicking": 22042,
  "vickers": 18571,
  "ethnicity": 18240,
  "detached": 12230,
  "foyer": 16683,
  "federally": 20892,
  "handcuffs": 28338,
  "mckay": 16225,
  "\u8857": 1946,
  "greenberg": 24190,
  "[unused99]": 104,
  "disclosure": 19380,
  "vijay": 17027,
  "[unused413]": 418,
  "vivid": 14954,
  "ymca": 26866,
  "259": 25191,
  "286": 24921,
  "www": 7479,
  "mindanao": 23669,
  "beatles": 11555,
  "sector": 4753,
  "lang": 11374,
  "guillermo": 21070,
  "[unused681]": 686,
  "##ctum": 27272,
  "[unused964]": 969,
  "sections": 5433,
  "hopped": 17230,
  "drivers": 6853,
  "neglect": 19046,
  "[unused388]": 393,
  "dusk": 18406,
  "glory": 8294,
  "\u116f": 1479,
  "frankenstein": 22478,
  "370": 16444,
  "41": 4601,
  "h": 1044,
  "solomon": 9168,
  "holmes": 9106,
  "##\u11b8": 30024,
  "wire": 7318,
  "##\u8a9e": 30476,
  "demetrius": 28367,
  "edgar": 9586,
  "sciences": 4163,
  "prick": 24858,
  "##stock": 14758,
  "executives": 12706,
  "keller": 16155,
  "goal": 3125,
  "##zzle": 17644,
  "secondly": 16378,
  "gods": 5932,
  "##erated": 16848,
  "constructions": 21913,
  "coldly": 24745,
  "twelfth": 11313,
  "\u2026": 1529,
  "greenhouse": 16635,
  "##\u1d30": 30028,
  "1809": 12861,
  "appealing": 16004,
  "adventurous": 29118,
  "manitoba": 10512,
  "pi": 14255,
  "ed": 3968,
  "brethren": 17937,
  "swap": 19948,
  "saskatoon": 25447,
  "[unused428]": 433,
  "granada": 16553,
  "handled": 8971,
  "removes": 20362,
  "sunny": 11559,
  "ramsay": 19460,
  "owed": 12232,
  "operative": 12160,
  "learnt": 20215,
  "##dini": 26039,
  "degradation": 16627,
  "2016": 2355,
  "intimidated": 28028,
  "##set": 13462,
  "measuring": 9854,
  "freshman": 10452,
  "joaquin": 16877,
  "washing": 12699,
  "chronicle": 9519,
  "portrait": 6533,
  "##dner": 28001,
  "hearings": 19153,
  "ignores": 26663,
  "##dd": 14141,
  "##hend": 22342,
  "##mology": 20570,
  "barangay": 20937,
  "life": 2166,
  "jordan": 5207,
  "##\u03b1": 14608,
  "decimal": 26066,
  "knesset": 27899,
  "dynasties": 23014,
  "stricken": 16654,
  "[unused177]": 182,
  "powered": 6113,
  "incredible": 9788,
  "comfortably": 18579,
  "dime": 27211,
  "payments": 10504,
  "commitment": 8426,
  "##do": 3527,
  "to": 2000,
  "johannesburg": 15976,
  "loser": 10916,
  "98": 5818,
  "\u06af": 1305,
  "reasoning": 13384,
  "##chuk": 26516,
  "shadowy": 22801,
  "3": 1017,
  "oval": 9242,
  "liturgy": 21176,
  "gu": 19739,
  "35": 3486,
  "months": 2706,
  "cells": 4442,
  "\u2079": 1543,
  "composing": 16572,
  "##yoshi": 19196,
  "retained": 6025,
  "booth": 9065,
  "1742": 25704,
  "block": 3796,
  "##\u092f": 29868,
  "follows": 4076,
  "loaned": 13190,
  "pharmaceuticals": 24797,
  "refining": 28596,
  "structure": 3252,
  "savanna": 22323,
  "budge": 24981,
  "advertising": 6475,
  "sheep": 8351,
  "decommissioned": 14394,
  "uneasy": 15491,
  "deserts": 28858,
  "[unused829]": 834,
  "reprised": 22598,
  "tops": 13284,
  "##jack": 17364,
  "[unused454]": 459,
  "ties": 7208,
  "tomas": 12675,
  "delivers": 18058,
  "pinto": 25066,
  "alleging": 23294,
  "cheerfully": 27403,
  "proportions": 19173,
  "##thus": 19877,
  "hassan": 13222,
  "ware": 16283,
  "1879": 7449,
  "##bia": 11607,
  "flap": 20916,
  "br": 7987,
  "ip": 12997,
  "##\u2ea9": 30158,
  "derelict": 28839,
  "attack": 2886,
  "mcgill": 17919,
  "[unused70]": 71,
  "sixties": 22651,
  "##loid": 27710,
  "persuade": 13984,
  "reputation": 5891,
  "transmitter": 11659,
  "lo": 8840,
  "resulted": 4504,
  "gregory": 7296,
  "16": 2385,
  "dragons": 8626,
  "##tus": 5809,
  "##\u00a8": 29651,
  "dietary": 23444,
  "hunan": 27374,
  "pushes": 13956,
  "sebastien": 28328,
  "waited": 4741,
  "revenues": 12594,
  "##not": 17048,
  "boxer": 10423,
  "molecular": 8382,
  "ina": 27118,
  "relieved": 7653,
  "foreman": 18031,
  "grab": 6723,
  "resistant": 13070,
  "running": 2770,
  "bombers": 10544,
  "##eno": 16515,
  "\u3080": 1679,
  "farrell": 16248,
  "impulse": 14982,
  "1756": 22370,
  "camel": 19130,
  "##dable": 20782,
  "nuts": 12264,
  "##berman": 23991,
  "blonde": 9081,
  "minimum": 6263,
  "athlete": 8258,
  "weir": 16658,
  "sworn": 10741,
  "[unused100]": 105,
  "##uli": 15859,
  "northernmost": 22037,
  "##gled": 11533,
  "cease": 13236,
  "joyah": 27098,
  "consist": 8676,
  "confess": 18766,
  "asteroid": 12175,
  "rebellious": 22614,
  "hooves": 28399,
  "245": 21005,
  "deng": 26957,
  "words": 2616,
  "frontman": 21597,
  "8th": 5893,
  "polymer": 17782,
  "regina": 12512,
  "confederate": 8055,
  "drink": 4392,
  "brian": 4422,
  "\u10e3": 1454,
  "negro": 12593,
  "separating": 14443,
  "urges": 23876,
  "##culus": 28703,
  "##edo": 26010,
  "sang": 6369,
  "stroke": 6909,
  "flies": 10029,
  "tipping": 25486,
  "1747": 24522,
  "##uter": 19901,
  "others": 2500,
  "sheen": 20682,
  "sarawak": 21546,
  "wounded": 5303,
  "outsiders": 22361,
  "vial": 28475,
  "incorrectly": 19721,
  "photographers": 17008,
  "hiatus": 14221,
  "adapted": 5967,
  "wendy": 12815,
  "worst": 5409,
  "##\u4fdd": 30292,
  "##gging": 12588,
  "bellowed": 27386,
  "\u03bb": 1165,
  "[unused440]": 445,
  "socio": 17522,
  "humorous": 14742,
  "ballroom": 14307,
  "slalom": 19617,
  "bilateral": 17758,
  "believed": 3373,
  "plymouth": 10221,
  "mariano": 22695,
  "bunch": 9129,
  "guided": 8546,
  "assemblies": 17720,
  "uniting": 26112,
  "marne": 25823,
  "mcdonnell": 23149,
  "venom": 15779,
  "douglass": 27485,
  "[unused325]": 330,
  "munitions": 21061,
  "##ob": 16429,
  "interpretation": 7613,
  "katherine": 9477,
  "swings": 18755,
  "mi": 2771,
  "bit": 2978,
  "##osa": 8820,
  "christensen": 24189,
  "##chemical": 15869,
  "superseded": 19886,
  "insides": 19008,
  "seldom": 15839,
  "erie": 13374,
  "settlements": 7617,
  "##\u05d3": 29791,
  "brigham": 22727,
  "protesters": 13337,
  "##\u1165": 30008,
  "publication": 4772,
  "etat": 17997,
  "\u0e21": 1415,
  "##vered": 25896,
  "harmony": 9396,
  "throne": 6106,
  "sd": 17371,
  "possible": 2825,
  "rector": 10935,
  "##oes": 22504,
  "rules": 3513,
  "##itical": 26116,
  "crawl": 13529,
  "rough": 5931,
  "raja": 10164,
  "synod": 15374,
  "seminars": 17239,
  "barton": 12975,
  "recognized": 3858,
  "blake": 6511,
  "1620": 24259,
  "##ga": 3654,
  "##ppa": 13944,
  "##\u03b7": 24824,
  "\u0649": 1299,
  "##holes": 19990,
  "perennial": 14638,
  "##\u1166": 30009,
  "debates": 14379,
  "utilizes": 21852,
  "obedience": 22645,
  "compensation": 9430,
  "byrd": 17845,
  "##urgent": 27176,
  "melted": 12501,
  "dockyard": 24874,
  "monarch": 11590,
  "navigation": 9163,
  "served": 2366,
  "generator": 13103,
  "lucan": 20764,
  "islamist": 27256,
  "conferred": 15186,
  "fremantle": 20358,
  "custer": 28888,
  "humanoid": 28051,
  "versatile": 22979,
  "intensity": 8015,
  "\u056f": 1227,
  "maps": 7341,
  "##9": 2683,
  "ruben": 19469,
  "defining": 12854,
  "bsc": 23533,
  "awake": 8300,
  "adherence": 29235,
  "unopposed": 17123,
  "##ehan": 24660,
  "[unused11]": 12,
  "badges": 23433,
  "barons": 21487,
  "consoles": 22659,
  "plague": 11629,
  "1974": 3326,
  "anglo": 7819,
  "[unused25]": 26,
  "antonia": 24272,
  "verified": 20119,
  "evangelist": 24036,
  "kaiser": 15676,
  "##owe": 29385,
  "graham": 5846,
  "councillors": 13189,
  "234": 22018,
  "##rix": 17682,
  "rocky": 6857,
  "seeming": 16064,
  "anzac": 29224,
  "##hip": 5605,
  "hourly": 21462,
  "1940": 3878,
  "stated": 3090,
  "dow": 23268,
  "\u706b": 1906,
  "##16": 16048,
  "shrub": 15751,
  "##gly": 25643,
  "choirs": 24743,
  "noticeable": 17725,
  "##peed": 25599,
  "auspices": 20153,
  "type": 2828,
  "expense": 10961,
  "vanish": 25887,
  "friars": 24037,
  "decor": 25545,
  "des": 4078,
  "galen": 21062,
  "query": 23032,
  "ups": 11139,
  "thickness": 14983,
  "hz": 22100,
  "##ably": 8231,
  "phone": 3042,
  "avoided": 9511,
  "translator": 11403,
  "ferdinand": 9684,
  "##\u98df": 30504,
  "genetics": 14471,
  "informally": 21858,
  "hair": 2606,
  "trembling": 10226,
  "rap": 9680,
  "ashe": 13402,
  "blessing": 13301,
  "means": 2965,
  "artist": 3063,
  "##ulation": 9513,
  "dull": 10634,
  "tape": 6823,
  "mp": 6131,
  "[unused449]": 454,
  "enjoys": 15646,
  "[unused555]": 560,
  "##sman": 11512,
  "seventies": 26232,
  "union": 2586,
  "plastics": 26166,
  "twilight": 13132,
  "hereford": 21136,
  "dome": 8514,
  "sends": 10255,
  "nationalists": 17934,
  "biographer": 17121,
  "sophomore": 13758,
  "contemporary": 3824,
  "cute": 10140,
  "antrim": 24142,
  "\u057d": 1234,
  "dino": 22412,
  "penang": 21812,
  "##uising": 28580,
  "al": 2632,
  "##stream": 21422,
  "[unused297]": 302,
  "manufactures": 22027,
  "traveling": 7118,
  "gdp": 14230,
  "buccaneers": 21629,
  "sourced": 23184,
  "tuna": 24799,
  "##\u209b": 30098,
  "noir": 15587,
  "andrea": 8657,
  "\u10d5": 1443,
  "disco": 12532,
  "##smo": 25855,
  "williams": 3766,
  "\u0e01": 1409,
  "compliment": 19394,
  "nathaniel": 13961,
  "tremor": 27734,
  "samurai": 16352,
  "however": 2174,
  "cruising": 22206,
  "raging": 17559,
  "##\u2090": 30089,
  "length": 3091,
  "interactive": 9123,
  "baptiste": 17329,
  "externally": 27223,
  "##sle": 25016,
  "000": 2199,
  "##ara": 5400,
  "hilly": 22800,
  "\u7684": 1916,
  "107": 10550,
  "turkey": 4977,
  "##mber": 21784,
  "keystone": 22271,
  "collection": 3074,
  "contract": 3206,
  "[unused939]": 944,
  "troubled": 11587,
  "heirs": 15891,
  "interval": 13483,
  "odin": 26195,
  "[unused423]": 428,
  "[CLS]": 101,
  "humiliated": 26608,
  "affairs": 3821,
  "guards": 4932,
  "spoon": 15642,
  "temptation": 17232,
  "thor": 15321,
  "kgb": 25467,
  "##kov": 7724,
  "gershwin": 25600,
  "serbs": 16757,
  "##kara": 16566,
  "tack": 26997,
  "sits": 7719,
  "statistics": 6747,
  "usa": 3915,
  "[unused782]": 787,
  "nm": 13221,
  "seems": 3849,
  "##agawa": 20812,
  "beijing": 7211,
  "##dington": 21504,
  "th": 16215,
  "mom": 3566,
  "naga": 26539,
  "##dles": 27822,
  "erwin": 22209,
  "distraction": 14836,
  "artwork": 8266,
  "comics": 5888,
  "chronological": 23472,
  "##mine": 11233,
  "enjoyment": 20195,
  "applying": 11243,
  "##llin": 21202,
  "[unused767]": 772,
  "murdoch": 19954,
  "ascent": 16354,
  "fist": 7345,
  "##bie": 11283,
  "lawyers": 9559,
  "orderly": 23589,
  "##los": 10483,
  "medallist": 28595,
  "explosive": 11355,
  "##\u52dd": 30306,
  "roadway": 18799,
  "hicks": 17221,
  "##@": 29633,
  "stairs": 5108,
  "invested": 11241,
  "ignited": 22395,
  "gretchen": 21625,
  "strewn": 25259,
  "##ingen": 15542,
  "antarctica": 12615,
  "narrative": 7984,
  "mx": 25630,
  "garner": 18661,
  "trunks": 20509,
  "marvel": 8348,
  "tram": 12517,
  "basins": 22739,
  "ventura": 21151,
  "inched": 25330,
  "dependence": 18642,
  "##nda": 8943,
  "bounced": 13605,
  "[unused783]": 788,
  "nc": 13316,
  "realised": 11323,
  "1849": 9037,
  "fuzzy": 18001,
  "##\u0997": 29891,
  "##ons": 5644,
  "campo": 22339,
  "tall": 4206,
  "philanthropic": 25321,
  "analytics": 25095,
  "differed": 19541,
  "percy": 11312,
  "currie": 20667,
  "1944": 3646,
  "##grin": 24860,
  "adi": 27133,
  "\u300b": 1640,
  "dogg": 28844,
  "ascending": 22316,
  "dorm": 19568,
  "goodbye": 9119,
  "guadalupe": 23529,
  "lowered": 6668,
  "mastered": 15682,
  "network": 2897,
  "exponential": 27258,
  "persians": 27229,
  "##vac": 24887,
  "\u11b7": 1487,
  "newly": 4397,
  "thighs": 9222,
  "[unused481]": 486,
  "arms": 2608,
  "mechanical": 6228,
  "\u0923": 1322,
  "intersection": 6840,
  "vaudeville": 19698,
  "spectrum": 8674,
  "deploy": 21296,
  "undisclosed": 18206,
  "contamination": 18701,
  "[unused327]": 332,
  "thankfully": 16047,
  "compromise": 12014,
  "gillian": 22358,
  "wellington": 8409,
  "quiver": 29049,
  "collaboration": 5792,
  "creek": 3636,
  "39": 4464,
  "##\u5c07": 30354,
  "study": 2817,
  "stuttgart": 13022,
  "mature": 9677,
  "\u4e5f": 1750,
  "fiction": 4349,
  "cb": 17324,
  "eddy": 16645,
  "pained": 22295,
  "##etano": 28752,
  "stallion": 19122,
  "wounding": 27285,
  "military": 2510,
  "sundance": 20140,
  "spirited": 24462,
  "bidding": 17534,
  "morphological": 24012,
  "possessions": 13689,
  "completes": 28123,
  "325": 19652,
  "lieutenant": 3812,
  "tablet": 13855,
  "##ddin": 18277,
  "arches": 13540,
  "steel": 3886,
  "aft": 16638,
  "##ntes": 17340,
  "mediated": 19872,
  "\u05e5": 1262,
  "##rogate": 21799,
  "mari": 16266,
  "##imate": 21499,
  "assemble": 21365,
  "seminole": 28909,
  "reassure": 24647,
  "pasture": 20787,
  "pigeon": 16516,
  "subcontinent": 26125,
  "licking": 17033,
  "signing": 6608,
  "\u1175": 1483,
  "efficiency": 8122,
  "contest": 5049,
  "tags": 22073,
  "##roid": 22943,
  "propped": 16863,
  "##tead": 14565,
  "ingredients": 12760,
  "1996": 2727,
  "chelsea": 9295,
  "marshes": 19257,
  "prevents": 16263,
  "dementia": 28767,
  "container": 11661,
  "aware": 5204,
  "tastes": 16958,
  "irving": 12415,
  "dali": 29095,
  "waiting": 3403,
  "wipe": 13387,
  "##tson": 25656,
  "##\u4eee": 30287,
  "substantive": 27737,
  "gel": 21500,
  "opponents": 7892,
  "degraded": 26131,
  "abandoned": 4704,
  "##34": 22022,
  "##sius": 24721,
  "quarter": 4284,
  "prague": 8634,
  "duly": 25073,
  "potent": 16834,
  "##zek": 24506,
  "##\u1105": 29994,
  "frog": 10729,
  "orbits": 20347,
  "##ouse": 15441,
  "##wl": 13668,
  "530": 23523,
  "greedy": 20505,
  "ernst": 10728,
  "11": 2340,
  "00pm": 27995,
  "jd": 26219,
  "shadowed": 25843,
  "beauty": 5053,
  "units": 3197,
  "chaos": 8488,
  "meteorological": 20557,
  "numbers": 3616,
  "trance": 16588,
  "##ipe": 15457,
  "wired": 17502,
  "signalling": 21919,
  "dewey": 20309,
  "mercer": 13081,
  "august": 2257,
  "hilton": 15481,
  "##islav": 19834,
  "addiction": 13449,
  "phil": 6316,
  "coli": 27441,
  "enforcing": 27455,
  "using": 2478,
  "vice": 3580,
  "da": 4830,
  "lore": 19544,
  "keynes": 22152,
  "pursue": 7323,
  "olsen": 18997,
  "homecoming": 20772,
  "ferguson": 11262,
  "##bby": 14075,
  "confirm": 12210,
  "rasped": 28459,
  "recover": 8980,
  "retrieve": 12850,
  "nepal": 8222,
  "##sc": 11020,
  "ae": 29347,
  "cerebral": 18439,
  "lucian": 18218,
  "leonardo": 14720,
  "\u266f": 1628,
  "simmons": 13672,
  "cinema": 5988,
  "##ute": 10421,
  "halted": 12705,
  "thorns": 28408,
  "strangled": 21384,
  "prone": 13047,
  "explanations": 17959,
  "below": 2917,
  "##\u795e": 30451,
  "licked": 11181,
  "expenditures": 22697,
  "##lav": 14973,
  "65": 3515,
  "##apes": 29040,
  "brianna": 25558,
  "61": 6079,
  "##vances": 26711,
  "argued": 5275,
  "##tu": 8525,
  "was": 2001,
  "reviewer": 12027,
  "processes": 6194,
  "artery": 16749,
  "corbett": 24119,
  "silenced": 25030,
  "handgun": 28497,
  "##pen": 11837,
  "cannes": 14775,
  "frontal": 19124,
  "##oides": 25064,
  "volume": 3872,
  "projective": 27473,
  "unprecedented": 15741,
  "##kie": 11602,
  "striker": 11854,
  "tears": 4000,
  "##rp": 14536,
  "frenzy": 21517,
  "souls": 9293,
  "precision": 11718,
  "2007": 2289,
  "proctor": 28770,
  "##\u30ab": 30226,
  "mack": 11349,
  "humanitarian": 11470,
  "rudolph": 18466,
  "ace": 9078,
  "gravity": 8992,
  "##ras": 8180,
  "oak": 6116,
  "click": 11562,
  "incompatible": 25876,
  "periods": 6993,
  "xbox": 12202,
  "storm": 4040,
  "creator": 8543,
  "continuum": 22961,
  "mansion": 7330,
  "benito": 23595,
  "sexy": 7916,
  "tina": 11958,
  "##bered": 22408,
  "moths": 14885,
  "gabriel": 6127,
  "homme": 26574,
  "##ice": 6610,
  "form": 2433,
  "reminiscent": 14563,
  "##\u4e94": 30279,
  "subject": 3395,
  "moines": 23286,
  "mojo": 28017,
  "accompanied": 5642,
  "##ginal": 24965,
  "fuscous": 18121,
  "easing": 24070,
  "ethiopia": 11154,
  "##king": 6834,
  "\u0e17": 1412,
  "[unused294]": 299,
  "##ection": 18491,
  "gray": 3897,
  "##cie": 23402,
  "jewelry": 11912,
  "\u5289": 1777,
  "slightly": 3621,
  "[unused956]": 961,
  "##\u1d49": 30035,
  "69": 6353,
  "##\u10da": 29983,
  "eds": 11985,
  "##anne": 20147,
  "hobbs": 23748,
  "##earing": 27242,
  "\u5fb7": 1848,
  "ing": 13749,
  "##kata": 29123,
  "closer": 3553,
  "containers": 16143,
  "shutter": 28180,
  "standalone": 26609,
  "rare": 4678,
  "html": 16129,
  "bates": 11205,
  "transcribed": 26223,
  "norway": 5120,
  "##\u043f": 29746,
  "spirits": 8633,
  "##lee": 10559,
  "##xley": 20959,
  "blackburn": 13934,
  "redhead": 26705,
  "wears": 11651,
  "1767": 21502,
  "bitterly": 19248,
  "resting": 8345,
  "tha": 22794,
  "wine": 4511,
  "##sburg": 9695,
  "hurricanes": 17035,
  "burial": 8940,
  "75": 4293,
  "charge": 3715,
  "cyclone": 11609,
  "[unused183]": 188,
  "##has": 14949,
  "##dled": 20043,
  "herzegovina": 11453,
  "242": 22431,
  "##bon": 11735,
  "live": 2444,
  "odds": 10238,
  "paramilitary": 22258,
  "fm": 4718,
  "lunged": 17755,
  "similar": 2714,
  "wished": 6257,
  "[unused383]": 388,
  "bavaria": 11606,
  "##ied": 6340,
  "shack": 22200,
  "sharply": 9249,
  "divers": 18612,
  "volkswagen": 18817,
  "violate": 23640,
  "resin": 24604,
  "##els": 9050,
  "40th": 16541,
  "romania": 6339,
  "##ooping": 29046,
  "\u300e": 1643,
  "covered": 3139,
  "withdraw": 10632,
  "##dim": 22172,
  "accompaniment": 22205,
  "brooks": 8379,
  "deities": 17091,
  "scientists": 6529,
  "\u203a": 1533,
  "transported": 9687,
  "bankers": 25375,
  "philipp": 20765,
  "italia": 13052,
  "bonnet": 24367,
  "updates": 14409,
  "certification": 10618,
  "##ca": 3540,
  "rails": 15168,
  "301": 19123,
  "separate": 3584,
  "diego": 5277,
  "##arth": 22425,
  "lighter": 9442,
  "##ium": 5007,
  "electoral": 6092,
  "serge": 21747,
  "[unused356]": 361,
  "##overs": 24302,
  "continued": 2506,
  "alumni": 9441,
  "proud": 7098,
  "histoire": 20088,
  "grande": 9026,
  "colorado": 5169,
  "strategic": 6143,
  "##dai": 21351,
  "gin": 18353,
  "cloud": 6112,
  "gallery": 3916,
  "##laze": 24472,
  "precinct": 18761,
  "aspen": 18567,
  "yank": 23178,
  "##vez": 26132,
  "1913": 5124,
  "##hosis": 25229,
  "activate": 20544,
  "discovered": 3603,
  "saetan": 23515,
  "evenly": 18030,
  "##\u043d": 18947,
  "##strel": 26877,
  "wrote": 2626,
  "##ther": 12399,
  "disdain": 25134,
  "scrolling": 28903,
  "##hett": 28499,
  "linking": 11383,
  "sip": 10668,
  "rub": 14548,
  "\u207a": 1544,
  "electricity": 6451,
  "##age": 4270,
  "##plicity": 27293,
  "miner": 18594,
  "sausage": 24165,
  "persia": 16667,
  "mayors": 21941,
  "posters": 14921,
  "searches": 17193,
  "##isan": 29196,
  "aide": 14895,
  "flashes": 16121,
  "indicating": 8131,
  "##rable": 16670,
  "regime": 6939,
  "[unused67]": 68,
  "stuck": 5881,
  "leaves": 3727,
  "featured": 2956,
  "teenage": 9454,
  "revolutionaries": 24517,
  "canine": 28735,
  "eccentric": 18080,
  "guzman": 22789,
  "##gli": 25394,
  "affect": 7461,
  "opposes": 29158,
  "massacre": 9288,
  "clauses": 24059,
  "afar": 28978,
  "journalist": 4988,
  "detailing": 17555,
  "1719": 28162,
  "##borough": 10235,
  "entrances": 18084,
  "labeled": 12599,
  "fork": 9292,
  "occupy": 11494,
  "trapping": 22977,
  "programming": 4730,
  "##ado": 9365,
  "fernandez": 12023,
  "hercules": 15067,
  "harold": 7157,
  "processed": 13995,
  "daryl": 22514,
  "korean": 4759,
  "##cule": 21225,
  "donkey": 20325,
  "##\u2018": 30055,
  "blessings": 24618,
  "nobody": 6343,
  "glancing": 10167,
  "goat": 13555,
  "cn": 27166,
  "##ou": 7140,
  "amnesty": 16154,
  "liszt": 26273,
  "distrust": 29245,
  "virgil": 17270,
  "##pop": 16340,
  "##lord": 19980,
  "pays": 12778,
  "##boy": 11097,
  "intact": 10109,
  "sep": 19802,
  "ee": 25212,
  "began": 2211,
  "vegetation": 10072,
  "security": 3036,
  "audible": 19525,
  "blond": 8855,
  "1880": 6756,
  "delegates": 10284,
  "##rran": 28327,
  "tamil": 6008,
  "[unused931]": 936,
  "reactor": 13308,
  "ottoman": 6188,
  "##tase": 18260,
  "interfered": 28976,
  "tampa": 9925,
  "sox": 9175,
  "seven": 2698,
  "lit": 5507,
  "iraqi": 8956,
  "scarf": 18982,
  "polgara": 27041,
  "##\u535a": 30312,
  "similarity": 14402,
  "[unused759]": 764,
  "hobart": 14005,
  "punished": 14248,
  "solo": 3948,
  "clues": 15774,
  "assimilation": 27574,
  "preferences": 18394,
  "synthesized": 23572,
  "conditioning": 14372,
  "thoroughly": 12246,
  "\u099b": 1357,
  "1713": 27016,
  "arcadia": 25178,
  "valerie": 14264,
  "bai": 21790,
  "emir": 23434,
  "growth": 3930,
  "##bank": 9299,
  "780": 28601,
  "hamlet": 8429,
  "##ement": 13665,
  "giuseppe": 12574,
  "boxed": 27554,
  "subgenus": 25356,
  "leopard": 16240,
  "##river": 24352,
  "##bahn": 16052,
  "##aine": 18175,
  "hamburg": 8719,
  "poker": 11662,
  "grimes": 24865,
  "[unused290]": 295,
  "cd": 3729,
  "limits": 6537,
  "1983": 3172,
  "mai": 14736,
  "nico": 19332,
  "itf": 27682,
  "routes": 5847,
  "combination": 5257,
  "pleasure": 5165,
  "thrown": 6908,
  "wien": 22782,
  "1844": 9730,
  "tuned": 15757,
  "forefront": 22870,
  "##bags": 26813,
  "royale": 24483,
  "##tops": 25181,
  "freud": 19338,
  "mistaken": 13534,
  "\u05df": 1256,
  "\u0446": 1201,
  "rot": 18672,
  "##\u05e6": 29809,
  "thousand": 4595,
  "settlers": 7322,
  "foliage": 19624,
  "##\u5b80": 30344,
  "710": 27671,
  "earthquakes": 17932,
  "##sler": 20590,
  "##\u2033": 30067,
  "##cards": 17965,
  "emotional": 6832,
  "ottomans": 17774,
  "leasing": 26707,
  "##rgh": 27172,
  "undergoes": 29129,
  "entered": 3133,
  "borrowed": 11780,
  "choreography": 16967,
  "guests": 6368,
  "streetcar": 21420,
  "##hyl": 29598,
  "crawled": 12425,
  "methane": 24481,
  "found": 2179,
  "##manship": 21530,
  "fleeing": 14070,
  "partnership": 5386,
  "chong": 24008,
  "[unused304]": 309,
  "awaiting": 15497,
  "rectangular": 10806,
  "dogs": 6077,
  "shooting": 5008,
  "sumatra": 18262,
  "turtle": 13170,
  "##ita": 6590,
  "punching": 19477,
  "##bots": 27014,
  "thinking": 3241,
  "testament": 9025,
  "monty": 18446,
  "##pit": 23270,
  "moves": 5829,
  "community": 2451,
  "unofficial": 11982,
  "portraits": 9668,
  "prop": 17678,
  "lough": 29504,
  "prescott": 20719,
  "jacksonville": 13057,
  "biblical": 10213,
  "disappointed": 9364,
  "##\u2264": 30135,
  "hollywood": 5365,
  "cheryl": 19431,
  "carolyn": 15611,
  "##ules": 16308,
  "damien": 12587,
  "guitars": 7334,
  "gastropod": 10953,
  "gardens": 5822,
  "definite": 15298,
  "smashing": 21105,
  "##drive": 23663,
  "[unused908]": 913,
  "dormant": 22170,
  "\u653f": 1860,
  "hit": 2718,
  "instances": 12107,
  "decades": 5109,
  "##gue": 9077,
  "olympic": 4386,
  "##atory": 14049,
  "mug": 14757,
  "\u092f": 1332,
  "pun": 26136,
  "parishes": 11600,
  "argyle": 26503,
  "anytime": 15933,
  "synthesis": 10752,
  "remorse": 23124,
  "lau": 21360,
  "basal": 15191,
  "##ructured": 26134,
  "diagonal": 19754,
  "m2": 25525,
  "##osh": 17369,
  "coordinate": 13530,
  "vita": 19300,
  "followed": 2628,
  "##56": 26976,
  "inaugurated": 11070,
  "lattice": 17779,
  "courts": 5434,
  "stadium": 3346,
  "coop": 21859,
  "dr": 2852,
  "archangel": 28185,
  "opus": 16895,
  "characteristics": 6459,
  "individually": 14258,
  "instructors": 19922,
  "##isms": 22556,
  "1877": 7557,
  "constantin": 27991,
  "collective": 7268,
  "offensive": 5805,
  "202": 16798,
  "italianate": 25302,
  "amp": 23713,
  "##\u300a": 30165,
  "alejandro": 16810,
  "accord": 15802,
  "glazed": 19724,
  "aspirations": 22877,
  "violently": 14196,
  "##cion": 10446,
  "##tub": 28251,
  "[unused457]": 462,
  "grassroots": 23299,
  "installations": 14111,
  "television": 2547,
  "royalist": 20796,
  "porcelain": 17767,
  "postgraduate": 15438,
  "lineage": 13321,
  "motto": 12652,
  "##\u7a7a": 30456,
  "navigable": 28538,
  "cello": 10145,
  "parameter": 16381,
  "holders": 13304,
  "patriotic": 14314,
  "ricardo": 13559,
  "prince": 3159,
  "resigning": 24642,
  "\u092c": 1329,
  "abbot": 11428,
  "12th": 5940,
  "art": 2396,
  "ongoing": 7552,
  "burlington": 15552,
  "bohemia": 16799,
  "##\u3092": 30216,
  "##lly": 9215,
  "cdp": 8561,
  "persistent": 14516,
  "harris": 5671,
  "##ifolia": 29244,
  "guinea": 7102,
  "prizes": 11580,
  "compliant": 24577,
  "oil": 3514,
  "[unused910]": 915,
  "pisa": 25472,
  "apartments": 9620,
  "platforms": 7248,
  "sacrament": 28958,
  "##yes": 23147,
  "completing": 7678,
  "strikers": 26049,
  "scheduled": 5115,
  "consecutive": 5486,
  "reintroduced": 28263,
  "gardener": 19785,
  "magazine": 2932,
  "durban": 25040,
  "##chee": 25923,
  "hollis": 27477,
  "timothy": 10805,
  "predominantly": 9197,
  "continent": 9983,
  "racist": 16939,
  "competition": 2971,
  "siege": 6859,
  "heal": 11005,
  "ventures": 13252,
  "marriage": 3510,
  "cakes": 22619,
  "##som": 25426,
  "lesson": 10800,
  "gunther": 19384,
  "fled": 6783,
  "records": 2636,
  "anna": 4698,
  "cheek": 5048,
  "cid": 28744,
  "problems": 3471,
  "closed": 2701,
  "##ened": 6675,
  "directional": 20396,
  "##hman": 13890,
  "mutant": 15527,
  "[unused76]": 77,
  "entering": 5738,
  "wastewater": 28269,
  "patches": 13864,
  "trams": 19216,
  "##bha": 22655,
  "con": 9530,
  "fundamentally": 24670,
  "##enay": 27727,
  "##eh": 11106,
  "##egorical": 27203,
  "##mura": 16069,
  "##mia": 10092,
  "preserved": 6560,
  "transactions": 11817,
  "##ake": 13808,
  "##etto": 20082,
  "widen": 21255,
  "environment": 4044,
  "##flower": 14156,
  "instrumental": 6150,
  "neurons": 15698,
  "gunter": 27834,
  "dal": 17488,
  "##chang": 22305,
  "##cz": 27966,
  "meeting": 3116,
  "knew": 2354,
  "checks": 14148,
  "[unused577]": 582,
  "mabel": 19486,
  "revenue": 6599,
  "ussr": 10331,
  "clips": 15281,
  "oscar": 7436,
  "##kova": 18810,
  "doi": 9193,
  "mistakes": 12051,
  "##athic": 20972,
  "kw": 6448,
  "biomedical": 20906,
  "sudbury": 26487,
  "surveyor": 17169,
  "martin": 3235,
  "looking": 2559,
  "guadalajara": 22887,
  "31st": 17089,
  "bunk": 25277,
  "hear": 2963,
  "merged": 5314,
  "\u0192": 1108,
  "##ser": 8043,
  "descends": 23328,
  "##tagram": 23091,
  "##hoff": 17896,
  "show": 2265,
  "honneur": 28197,
  "flesh": 5771,
  "reilly": 13875,
  "segments": 9214,
  "room": 2282,
  "entries": 10445,
  "##wives": 23744,
  "epoch": 25492,
  "##oman": 20778,
  "seeded": 13916,
  "dorsal": 12759,
  "protective": 9474,
  "##tock": 17406,
  "purported": 27023,
  "servant": 7947,
  "brisbane": 7717,
  "summoned": 11908,
  "supermarkets": 26676,
  "hispanic": 6696,
  "vito": 25550,
  "##note": 22074,
  "\u03c8": 1178,
  "kung": 18577,
  "##typic": 23186,
  "croydon": 21838,
  "donaldson": 23164,
  "syrian": 9042,
  "oppressive": 28558,
  "[unused385]": 390,
  "alternating": 15122,
  "sleepy": 17056,
  "deliveries": 23534,
  "arbitration": 18010,
  "1972": 3285,
  "between": 2090,
  "happiness": 8404,
  "diameter": 6705,
  "robbers": 28019,
  "##zation": 9276,
  "decorations": 14529,
  "unification": 16905,
  "##\u03b3": 29721,
  "corpse": 11547,
  "[unused228]": 233,
  "chained": 22075,
  "[unused887]": 892,
  "profit": 5618,
  "matters": 5609,
  "stolen": 7376,
  "bitten": 19026,
  "grazed": 26627,
  "hans": 7003,
  "cooperative": 10791,
  "zu": 16950,
  "organ": 5812,
  "##dates": 27122,
  "larson": 21213,
  "anymore": 4902,
  "cockpit": 13828,
  "programmer": 20273,
  "\u2286": 1611,
  "[unused755]": 760,
  "##broken": 29162,
  "consolidate": 24939,
  "exquisite": 19401,
  "grin": 5861,
  "observed": 5159,
  "select": 7276,
  "##bry": 25731,
  "[unused766]": 771,
  "[unused924]": 929,
  "roll": 4897,
  "shipyard": 13858,
  "1625": 26263,
  "avenge": 24896,
  "professional": 2658,
  "popularized": 20339,
  "processors": 18017,
  "mix": 4666,
  "lobe": 21833,
  "curling": 11599,
  "check": 4638,
  "patio": 19404,
  "protestant": 8330,
  "##jima": 19417,
  "bout": 10094,
  "lyrical": 16376,
  "drastic": 23956,
  "\u00ae": 1079,
  "\uff0d": 1990,
  "jacob": 6213,
  "endure": 18094,
  "teeth": 4091,
  "##unciation": 24101,
  "sacrifices": 18502,
  "luck": 6735,
  "dropping": 7510,
  "kyoto": 15008,
  "##bilities": 14680,
  "bundles": 26825,
  "75th": 25092,
  "blankly": 26344,
  "muscular": 13472,
  "senator": 5205,
  "affects": 13531,
  "babylonian": 26990,
  "##ais": 15593,
  "rankin": 25772,
  "stock": 4518,
  "climatic": 27301,
  "##\u7cf9": 30460,
  "slogan": 14558,
  "lifetime": 6480,
  "myths": 17218,
  "##\u4e8c": 30278,
  "pep": 27233,
  "appellate": 23240,
  "annual": 3296,
  "##genic": 16505,
  "1787": 16057,
  "equipment": 3941,
  "\u10d3": 1441,
  "coaster": 16817,
  "hesitant": 20221,
  "childish": 24282,
  "smyth": 28103,
  "kensington": 17775,
  "british": 2329,
  "confessions": 21444,
  "cm": 4642,
  "contradictory": 27894,
  "mexico": 3290,
  "playground": 14705,
  "expanding": 9186,
  "probing": 28664,
  "tata": 23236,
  "quality": 3737,
  "shouted": 6626,
  "\u0965": 1345,
  "##enstein": 21819,
  "developed": 2764,
  "edna": 21051,
  "lifeboat": 23450,
  "cruises": 23986,
  "alteration": 26014,
  "their": 2037,
  "northward": 17192,
  "enroll": 25612,
  "##sdale": 15145,
  "##chel": 15721,
  "\u6211": 1855,
  "display": 4653,
  "ink": 10710,
  "##enburg": 12059,
  "planned": 3740,
  "premiere": 6765,
  "thoroughbred": 18359,
  "travellers": 19284,
  "fail": 8246,
  "funds": 5029,
  "customers": 6304,
  "hp": 6522,
  "medallion": 22541,
  "reactors": 22223,
  "camouflage": 21356,
  "47th": 28243,
  "stud": 16054,
  "##gno": 26745,
  "seduce": 23199,
  "carla": 17081,
  "clamped": 18597,
  "fronts": 21430,
  "somebody": 8307,
  "##isk": 20573,
  "[unused559]": 564,
  "tube": 7270,
  "c1": 27723,
  "lagos": 16738,
  "orientation": 10296,
  "stripped": 10040,
  "##ually": 28488,
  "kristina": 28802,
  "1979": 3245,
  "terminus": 7342,
  "##illy": 20577,
  "##\u02d0": 23432,
  "convinces": 19480,
  "beamed": 22587,
  "suzy": 28722,
  "##rosis": 29166,
  "leiden": 20329,
  "kent": 5982,
  "legend": 5722,
  "riches": 26768,
  "##kulam": 28871,
  "privileged": 21598,
  "trucks": 9322,
  "linden": 22066,
  "affectionately": 28734,
  "14th": 6400,
  "sindh": 20284,
  "paradox": 20506,
  "##cape": 19464,
  "coliseum": 18338,
  "marine": 3884,
  "ut": 21183,
  "teams": 2780,
  "[unused585]": 590,
  "shuffled": 18764,
  "glossy": 19504,
  "predicted": 10173,
  "variability": 28436,
  "axel": 18586,
  "like": 2066,
  "gonzales": 24334,
  "trinity": 7124,
  "christy": 21550,
  "siberia": 16881,
  "refer": 6523,
  "##uld": 21285,
  "##fp": 22540,
  "properties": 5144,
  "nouveau": 25272,
  "##rocity": 21735,
  "reason": 3114,
  "dammit": 20878,
  "swimming": 5742,
  "fees": 9883,
  "[unused539]": 544,
  "cancelled": 8014,
  "ratification": 27369,
  "stereotypes": 22807,
  "##lk": 13687,
  "vengeance": 14096,
  "\u0564": 1222,
  "supplemented": 20585,
  "commodore": 12957,
  "##ales": 23266,
  "[unused295]": 300,
  "##\u05de": 29801,
  "acclaimed": 10251,
  "scattering": 17501,
  "ja": 14855,
  "implicit": 24655,
  "shrugged": 6345,
  "##mori": 24610,
  "complement": 13711,
  "##ford": 3877,
  "1916": 4947,
  "lumpur": 17761,
  "narrow": 4867,
  "lu": 11320,
  "naming": 10324,
  "##dden": 17101,
  "spells": 11750,
  "##53": 22275,
  "##ssed": 29417,
  "congratulations": 23156,
  "##nine": 19105,
  "1634": 28502,
  "##y": 2100,
  "canvas": 10683,
  "co": 2522,
  "##fires": 26332,
  "statues": 11342,
  "interest": 3037,
  "jaguar": 16490,
  "aspiring": 22344,
  "widow": 7794,
  "##ets": 8454,
  "##yde": 18124,
  "pillar": 14809,
  "hermann": 12224,
  "##\u222a": 30132,
  "industrialist": 21691,
  "marvelous": 28851,
  "preventing": 10723,
  "admiral": 5902,
  "doyle": 11294,
  "please": 3531,
  "barlow": 17803,
  "absently": 21284,
  "sovereign": 11074,
  "counterparts": 14562,
  "dwarf": 11229,
  "##abia": 29039,
  "forge": 15681,
  "toured": 7255,
  "##rum": 6824,
  "noises": 14950,
  "greta": 26111,
  "##\u694a": 30409,
  "tonnes": 11000,
  "sticky": 15875,
  "reorganization": 17118,
  "penalties": 12408,
  "##sto": 16033,
  "##tees": 28313,
  "gladys": 22386,
  "ml": 19875,
  "ancestral": 14947,
  "##lai": 19771,
  "directs": 23303,
  "accolades": 27447,
  "pegasus": 26606,
  "##wr": 13088,
  "shove": 14738,
  "capita": 8353,
  "dmitri": 28316,
  "##onic": 12356,
  "faye": 19243,
  "##lated": 13776,
  "395": 24673,
  "ranges": 8483,
  "communicate": 10639,
  "hurdle": 27630,
  "##\u6a4b": 30411,
  "dealer": 11033,
  "##sville": 9337,
  "billings": 26124,
  "firing": 7493,
  "empire": 3400,
  "concussion": 23159,
  "endowed": 19038,
  "unused": 15171,
  "dinner": 4596,
  "##pods": 22925,
  "cds": 14340,
  "tune": 8694,
  "fancy": 11281,
  "1971": 3411,
  "##sty": 21756,
  "monument": 6104,
  "[unused787]": 792,
  "everyone": 3071,
  "curls": 14484,
  "armament": 14410,
  "world": 2088,
  "syndicate": 16229,
  "steam": 5492,
  "##\u3002": 30162,
  "boo": 22017,
  "fernando": 9158,
  "##\u21cc": 30118,
  "schedule": 6134,
  "##dick": 24066,
  "josie": 15293,
  "gus": 12670,
  "prayer": 7083,
  "##person": 27576,
  "stat": 28093,
  "[unused222]": 227,
  "clarified": 20485,
  "unsure": 12422,
  "frustrating": 25198,
  "belarus": 12545,
  "organized": 4114,
  "apprentice": 13357,
  "1864": 6717,
  "seduction": 26962,
  "cameron": 7232,
  "##dge": 11818,
  "shortlisted": 21353,
  "[unused900]": 905,
  "qaeda": 18659,
  "##cock": 13959,
  "sufficient": 7182,
  "[unused63]": 64,
  "sandra": 12834,
  "spartans": 24293,
  "striking": 8478,
  "mural": 15533,
  "flats": 14201,
  "\u79be": 1927,
  "##ometer": 18721,
  "constant": 5377,
  "sustainability": 15169,
  "upland": 25770,
  "learned": 4342,
  "undeveloped": 29341,
  "[unused252]": 257,
  "concession": 16427,
  "starved": 26042,
  "##rman": 14515,
  "izzy": 16699,
  "##tar": 7559,
  "drop": 4530,
  "forecast": 19939,
  "absorbing": 20998,
  "##rius": 13245,
  "khmer": 19472,
  "sign": 3696,
  "\u2085": 1552,
  "\u04cf": 1218,
  "##cheon": 28099,
  "thesis": 9459,
  "##aldi": 24657,
  "boon": 23264,
  "##wall": 9628,
  "##42": 20958,
  "\u209a": 1569,
  "##ily": 6588,
  "carmichael": 23537,
  "##\u1112": 30005,
  "[unused709]": 714,
  "plausible": 24286,
  "regal": 21279,
  "##ingdon": 29138,
  "needing": 11303,
  "depart": 18280,
  "catering": 18640,
  "redesign": 25136,
  "slots": 19832,
  "##mill": 19912,
  "xu": 15990,
  "\u221e": 1601,
  "histories": 15215,
  "pauses": 19623,
  "sexually": 12581,
  "chain": 4677,
  "parks": 6328,
  "fang": 15197,
  "##enting": 26951,
  "##bant": 29604,
  "focusing": 7995,
  "[unused629]": 634,
  "invertebrates": 25700,
  "##nad": 25389,
  "routing": 16972,
  "marrow": 24960,
  "hawk": 9881,
  "lal": 21348,
  "\u793e": 1924,
  "##eurs": 26744,
  "ling": 17002,
  "##\u09b6": 29910,
  "##rrell": 14069,
  "outburst": 27719,
  "bowman": 19298,
  "padma": 23731,
  "##icio": 27113,
  "briefing": 27918,
  "\u05d5": 1246,
  "carpets": 27997,
  "lagoon": 15825,
  "flex": 23951,
  "unusual": 5866,
  "lyons": 16642,
  "##dity": 25469,
  "un": 4895,
  "divided": 4055,
  "nora": 12306,
  "##pre": 28139,
  "gypsy": 16006,
  "toronto": 4361,
  "dominated": 6817,
  "##\u570b": 30326,
  "##vot": 22994,
  "mothers": 10756,
  "dawn": 6440,
  "loki": 24143,
  "simplest": 21304,
  "trash": 11669,
  "[unused521]": 526,
  "brutal": 12077,
  "schmidt": 12940,
  "chicken": 7975,
  "[unused205]": 210,
  "soluble": 24345,
  "xp": 26726,
  "feathers": 12261,
  "indication": 12407,
  "[unused114]": 119,
  "\u83ef": 1942,
  "wreckage": 21056,
  "charlotte": 5904,
  "47": 4700,
  "silence": 4223,
  "[unused889]": 894,
  "shorter": 7820,
  "darts": 17493,
  "dominates": 29532,
  "absolute": 7619,
  "promptly": 13364,
  "##most": 11800,
  "spaces": 7258,
  "antennas": 26315,
  "favor": 5684,
  "##\u5ba3": 30349,
  "sable": 23492,
  "##uously": 28078,
  "athenian": 26956,
  "derrick": 18928,
  "jews": 5181,
  "pearl": 7247,
  "[unused261]": 266,
  "settling": 9853,
  "socialism": 14649,
  "intersect": 29261,
  "funky": 24151,
  "\u10d7": 1444,
  "schizophrenia": 23683,
  "##rned": 21119,
  "elijah": 14063,
  "##\u00e6": 29667,
  "start": 2707,
  "\u09a3": 1361,
  "##rians": 23543,
  "contra": 24528,
  "highways": 10292,
  "cheney": 23745,
  "##13": 17134,
  "augustus": 11668,
  "gained": 4227,
  "re": 2128,
  "##\u0679": 29838,
  "manage": 6133,
  "josef": 12947,
  "ny": 6396,
  "##arney": 25831,
  "banished": 21319,
  "respecting": 27818,
  "vedic": 25824,
  "\u6d77": 1902,
  "intelligent": 9414,
  "coinage": 25396,
  "##mous": 27711,
  "##bet": 20915,
  "winfield": 24739,
  "annette": 22521,
  "[unused296]": 301,
  "marriages": 12743,
  "\u30c4": 1712,
  "##olis": 20872,
  "chilled": 23362,
  "327": 28469,
  "plead": 25803,
  "[unused181]": 186,
  "stockport": 26284,
  "surprises": 20096,
  "trace": 7637,
  "god": 2643,
  "vibrating": 24987,
  "souza": 26598,
  "volcano": 12779,
  "scandal": 9446,
  "connor": 6720,
  "faculty": 4513,
  "capacities": 21157,
  "sofie": 26359,
  "airplanes": 24042,
  "worker": 7309,
  "ranked": 4396,
  "anglican": 9437,
  "bot": 28516,
  "frederic": 15296,
  "genres": 11541,
  "impending": 17945,
  "brock": 13899,
  "repetition": 23318,
  "shannon": 10881,
  "swallowing": 18468,
  "evidenced": 21328,
  "married": 2496,
  "\u9053": 1957,
  "differently": 11543,
  "scouts": 10158,
  "[unused29]": 30,
  "blocking": 10851,
  "earth": 3011,
  "irresistible": 27149,
  "\u05db": 1252,
  "incarcerated": 23995,
  "erich": 17513,
  "171": 18225,
  "##marks": 27373,
  "spent": 2985,
  "##nca": 20909,
  "nightmare": 10103,
  "[unused790]": 795,
  "supervisory": 26653,
  "mysterious": 8075,
  "flipped": 9357,
  "charleston": 10907,
  "sidekick": 29240,
  "clutched": 13514,
  "##we": 8545,
  "bag": 4524,
  "humidity": 18213,
  "quezon": 26564,
  "ars": 29393,
  "protests": 8090,
  "forbid": 27206,
  "rf": 21792,
  "##jee": 16963,
  "objections": 17304,
  "launching": 12106,
  "##lmer": 23398,
  "\u10da": 1447,
  "##put": 18780,
  "divisional": 14167,
  "##ym": 24335,
  "##tsa": 27110,
  "pitching": 14696,
  "##kki": 24103,
  "preparations": 12929,
  "earlier": 3041,
  "concentrated": 8279,
  "genetic": 7403,
  "etched": 20286,
  "bayern": 21350,
  "missy": 25019,
  "performing": 4488,
  "came": 2234,
  "worries": 15508,
  "hanna": 10579,
  "registry": 15584,
  "##oris": 21239,
  "1703": 28366,
  "##oc": 10085,
  "lords": 8140,
  "celebrities": 12330,
  "crushing": 14527,
  "fetch": 18584,
  "fascinating": 17160,
  "cheers": 21250,
  "##rwin": 27349,
  "##\u03b4": 29722,
  "\u0448": 1203,
  "snap": 10245,
  "alonso": 17649,
  "designing": 12697,
  "93": 6109,
  "##ville": 3077,
  "##kam": 27052,
  "##iously": 19426,
  "defective": 28829,
  "tatum": 25913,
  "butter": 12136,
  "bearings": 21714,
  "267": 25491,
  "##otte": 28495,
  "modified": 6310,
  "indigo": 22472,
  "[unused125]": 130,
  "\u308d": 1689,
  "gotta": 10657,
  "vibrations": 22755,
  "##yas": 16303,
  "283": 25504,
  "##ield": 12891,
  "convict": 20462,
  "hawaiian": 12188,
  "als": 25520,
  "12": 2260,
  "hades": 23003,
  "formulas": 25814,
  "kicks": 14590,
  "snakes": 12971,
  "##pressive": 27484,
  "internacional": 27607,
  "radically": 25796,
  "nude": 15287,
  "accommodate": 8752,
  "pad": 11687,
  "massimo": 28080,
  "##vati": 20203,
  "bathing": 17573,
  "haryana": 23261,
  "bracing": 25919,
  "1785": 17262,
  "illness": 7355,
  "##tension": 29048,
  "prelate": 26595,
  "beat": 3786,
  "quarterback": 9074,
  "\u548c": 1796,
  "regent": 11315,
  "venus": 11691,
  "\u0561": 1219,
  "##sr": 21338,
  "1929": 4612,
  "single": 2309,
  "##\u3088": 30210,
  "lionel": 14377,
  "recipes": 19328,
  "\u8449": 1943,
  "hernandez": 13688,
  "[unused307]": 312,
  "awakened": 20256,
  "outfit": 11018,
  "moved": 2333,
  "gloria": 10778,
  "##scia": 27210,
  "temporal": 15850,
  "[unused263]": 268,
  "\u30db": 1722,
  "poetry": 4623,
  "kidd": 25358,
  "littered": 24777,
  "brink": 20911,
  "computation": 22334,
  "aids": 8387,
  "reelection": 17648,
  "##ying": 14147,
  "floral": 18686,
  "bang": 9748,
  "collectors": 14256,
  "substituted": 17316,
  "calf": 19134,
  "participation": 6577,
  "relay": 8846,
  "governors": 11141,
  "sims": 18135,
  "1757": 22621,
  "adler": 17969,
  "rugged": 17638,
  "fruits": 10962,
  "fangs": 11738,
  "recommendations": 11433,
  "##pling": 14353,
  "romano": 22070,
  "##\u30b7": 30232,
  "aspects": 5919,
  "tight": 4389,
  "##rica": 14735,
  "##\u201e": 30060,
  "prairie": 10996,
  "[unused331]": 336,
  "garfield": 20170,
  "hallway": 6797,
  "lamb": 12559,
  "weightlifting": 29305,
  "##\u0965": 29881,
  "pseudonym": 13881,
  "expands": 24545,
  "1874": 7586,
  "##lland": 26087,
  "glanced": 3887,
  "islands": 3470,
  "karate": 16894,
  "adrenaline": 14963,
  "employs": 13495,
  "min": 8117,
  "##osition": 19234,
  "hurt": 3480,
  "explain": 4863,
  "employing": 15440,
  "forehead": 6130,
  "cocktail": 18901,
  "##ural": 11137,
  "php": 25718,
  "fiesta": 24050,
  "villas": 27317,
  "##\u0937": 29873,
  "obligation": 14987,
  "##uary": 24384,
  "rotate": 24357,
  "##kowski": 15449,
  "respective": 7972,
  "[unused802]": 807,
  "[unused82]": 83,
  "##run": 15532,
  "requesting": 17942,
  "radios": 22229,
  "maddox": 22730,
  "technician": 16661,
  "respondents": 25094,
  "archives": 8264,
  "partner": 4256,
  "unemployment": 12163,
  "breeds": 15910,
  "slam": 9555,
  "joy": 6569,
  "israeli": 5611,
  "cry": 5390,
  "##ignon": 24796,
  "casablanca": 24592,
  "##sau": 23823,
  "leafs": 21349,
  "metz": 24424,
  "metal": 3384,
  "tow": 15805,
  "esa": 28776,
  "##ila": 11733,
  "[unused405]": 410,
  "elector": 20374,
  "liberation": 7931,
  "saxons": 28267,
  "amazing": 6429,
  "vertically": 20018,
  "##iu": 17922,
  "muslims": 7486,
  "##\u110c": 30000,
  "swimmers": 21669,
  "246": 22376,
  "vale": 10380,
  "wanderers": 14237,
  "confessed": 14312,
  "mathews": 23287,
  "libya": 12917,
  "spur": 12996,
  "featuring": 3794,
  "proudly": 18067,
  "blinked": 7948,
  "cameo": 12081,
  "xiao": 19523,
  "consolation": 24831,
  "pronounced": 8793,
  "cavity": 17790,
  "##gold": 21270,
  "[unused204]": 209,
  "##card": 11522,
  "##ler": 3917,
  "spreads": 20861,
  "\u0986": 1348,
  "illustration": 14614,
  "##aro": 10464,
  "##liness": 20942,
  "adorned": 19189,
  "maddy": 20789,
  "aerospace": 13395,
  "topic": 8476,
  "governing": 8677,
  "invisible": 8841,
  "pm": 7610,
  "##art": 8445,
  "bulletin": 13146,
  "impressions": 19221,
  "obsessed": 15896,
  "mitchell": 6395,
  "slang": 21435,
  "receives": 8267,
  "tear": 7697,
  "sprawling": 24199,
  "byron": 12234,
  "subjected": 13532,
  "ira": 11209,
  "1982": 3196,
  "sigismund": 26748,
  "dec": 11703,
  "http": 8299,
  "booklet": 19271,
  "##ttle": 26328,
  "##anto": 21634,
  "recommend": 16755,
  "conqueror": 25466,
  "##64": 21084,
  "\u0996": 1354,
  "##erian": 27549,
  "bullying": 18917,
  "##\u044c": 23742,
  "describing": 7851,
  "emery": 24294,
  "awful": 9643,
  "spared": 16891,
  "##ologists": 16886,
  "altering": 22552,
  "buenos": 9204,
  "griffiths": 21960,
  "##woods": 25046,
  "lee": 3389,
  "sync": 26351,
  "mantle": 16019,
  "mirza": 18366,
  "iv": 4921,
  "circulated": 17640,
  "outside": 2648,
  "\u3088": 1684,
  "##laid": 24393,
  "tissue": 8153,
  "fall": 2991,
  "##itis": 13706,
  "nino": 20801,
  "acute": 11325,
  "asserted": 13647,
  "shay": 18789,
  "challenges": 7860,
  "##\u30db": 30248,
  "quite": 3243,
  "yeshiva": 22142,
  "valle": 20171,
  "pop": 3769,
  "donnell": 18016,
  "rattle": 23114,
  "wade": 10653,
  "stabilized": 27697,
  "[unused170]": 175,
  "parish": 3583,
  "candace": 22905,
  "glorious": 14013,
  "##oses": 27465,
  "ariel": 16126,
  "hangar": 18284,
  "[unused312]": 317,
  "[unused557]": 562,
  "pull": 4139,
  "##\u10e0": 29987,
  "##wu": 16050,
  "converse": 23705,
  "subdivisions": 22095,
  "##nsor": 29577,
  "offender": 25042,
  "pregnancy": 10032,
  "1806": 12518,
  "##tica": 22723,
  "[unused666]": 671,
  "##phila": 26083,
  "decides": 7288,
  "dealing": 7149,
  "##arte": 24847,
  "peru": 7304,
  "oz": 11472,
  "exotic": 12564,
  "installment": 18932,
  "digging": 10443,
  "anaheim": 20835,
  "telegram": 23921,
  "##uity": 18518,
  "acclaim": 10761,
  "emancipation": 22656,
  "hindi": 9269,
  "exemplified": 28593,
  "\u2088": 1555,
  "analytic": 23521,
  "walker": 5232,
  "topped": 9370,
  "##dun": 27584,
  "plays": 3248,
  "bulgaria": 8063,
  "##dhi": 19114,
  "do": 2079,
  "\u2018": 1520,
  "unleashed": 22416,
  "funded": 6787,
  "##ag": 8490,
  "gerais": 29220,
  "##\u58eb": 30333,
  "\u201a": 1522,
  "tanker": 20135,
  "deprived": 17676,
  "nike": 18368,
  "##omic": 22026,
  "sort": 4066,
  "russian": 2845,
  "britain": 3725,
  "waiter": 15610,
  "\u00b9": 1088,
  "##station": 20100,
  "292": 25797,
  "\u026f": 1122,
  "##ises": 13087,
  "neural": 15756,
  "##cus": 7874,
  "grimaced": 19014,
  "##\u30d2": 30245,
  "enjoyable": 22249,
  "jameson": 22324,
  "tangle": 24453,
  "hopping": 26397,
  "\u0f42": 1426,
  "##backs": 12221,
  "interlude": 25347,
  "furnace": 17533,
  "\u0569": 1224,
  "oversee": 17467,
  "bowie": 14598,
  "tracey": 25984,
  "familiarity": 24666,
  "\u201c": 1523,
  "##oney": 17791,
  "\u2098": 1567,
  "lashes": 16008,
  "locally": 7246,
  "sci": 16596,
  "cotton": 6557,
  "took": 2165,
  "##quitable": 28298,
  "carpathian": 26349,
  "relaxing": 19613,
  "teresa": 12409,
  "lexi": 16105,
  "inaccessible": 29104,
  "ecological": 12231,
  "varieties": 9903,
  "smeared": 25400,
  "term": 2744,
  "alla": 25699,
  "inside": 2503,
  "[unused825]": 830,
  "remembered": 4622,
  "##year": 29100,
  "##enity": 20693,
  "\u1d35": 1493,
  "[unused898]": 903,
  "##chon": 24561,
  "cursing": 19752,
  "issues": 3314,
  "chen": 8802,
  "ways": 3971,
  "swords": 10689,
  "carbonate": 26427,
  "stabbed": 13263,
  "132": 14078,
  "apologize": 12134,
  "gonzaga": 26840,
  "supplementary": 26215,
  "##\u03bf\u03c5": 26789,
  "goddess": 7804,
  "erin": 11781,
  "72": 5824,
  "competes": 14190,
  "grandfather": 5615,
  "##ative": 8082,
  "gases": 15865,
  "##tte": 4674,
  "##oza": 25036,
  "damaged": 5591,
  "broker": 20138,
  "##gre": 17603,
  "##aka": 11905,
  "protest": 6186,
  "##ys": 7274,
  "potion": 26722,
  "##ogen": 23924,
  "[unused809]": 814,
  "turns": 4332,
  "heavens": 17223,
  "flown": 10583,
  "drone": 18465,
  "ji": 10147,
  "ghent": 24202,
  "sino": 19432,
  "whereas": 6168,
  "eps": 20383,
  "##mond": 11442,
  "1985": 3106,
  "##\u110f": 30002,
  "essays": 8927,
  "lesser": 8276,
  "relational": 28771,
  "daytime": 12217,
  "romanesque": 17135,
  "theologian": 17200,
  "##pressing": 24128,
  "misunderstood": 28947,
  "1400": 20652,
  "salazar": 25315,
  "threats": 8767,
  "crawling": 15927,
  "##\u09a3": 29897,
  "\u0bc7": 1398,
  "defiance": 19674,
  "simplified": 11038,
  "crossing": 5153,
  "[unused929]": 934,
  "aquarium": 18257,
  "##sus": 13203,
  "cheerful": 18350,
  "remedy": 19519,
  "por": 18499,
  "nissan": 16509,
  "blazing": 17162,
  "1888": 6690,
  "darcy": 17685,
  "representation": 6630,
  "verde": 16184,
  "##rist": 15061,
  "missouri": 5284,
  "closely": 4876,
  "ni": 9152,
  "selfish": 14337,
  "banging": 22255,
  "doctors": 7435,
  "all": 2035,
  "coup": 8648,
  "broke": 3631,
  "##ran": 5521,
  "apostles": 19178,
  "monks": 9978,
  "##47": 22610,
  "177": 18118,
  "mouths": 15076,
  "phoenix": 6708,
  "##ilation": 29545,
  "##min": 10020,
  "sebastian": 6417,
  "group": 2177,
  "semifinals": 8565,
  "dail": 26181,
  "##\u091f": 29856,
  "[unused395]": 400,
  "realm": 8391,
  "accessible": 7801,
  "##uge": 22890,
  "representing": 5052,
  "pointer": 20884,
  "impress": 17894,
  "cathy": 18305,
  "permit": 9146,
  "chests": 28717,
  "held": 2218,
  "detachments": 29568,
  "some": 2070,
  "legal": 3423,
  "##lls": 12718,
  "cambodia": 12899,
  "scottish": 4104,
  "muir": 23110,
  "##iere": 21253,
  "adolph": 28564,
  "segunda": 19071,
  "##mission": 25481,
  "arranging": 19018,
  "basha": 26074,
  "orton": 25161,
  "sullivan": 7624,
  "hyde": 11804,
  "doubtful": 21888,
  "##\u0630": 29822,
  "[unused456]": 461,
  "wisdom": 9866,
  "\u6c5f": 1897,
  "financial": 3361,
  "##strom": 15687,
  "##pt": 13876,
  "##rah": 10404,
  "pilots": 8221,
  "sharks": 12004,
  "scout": 7464,
  "outdoor": 7254,
  "vietnam": 5148,
  "blinding": 19709,
  "server": 8241,
  "confinement": 21551,
  "##ra": 2527,
  "beverley": 29057,
  "[unused330]": 335,
  "##stov": 29473,
  "430": 19540,
  "diary": 9708,
  "##eley": 22352,
  "punishments": 29115,
  "##omba": 24991,
  "grinning": 11478,
  "kerman": 24500,
  "gina": 17508,
  "quarterfinals": 9237,
  "##ige": 25538,
  "witches": 12566,
  "productivity": 15836,
  "##cky": 17413,
  "seekers": 24071,
  "dissolved": 8314,
  "stair": 23788,
  "banjo": 16698,
  "mv": 19842,
  "46": 4805,
  "candy": 9485,
  "##vani": 27760,
  "kamal": 21911,
  "kiev": 12100,
  "##xy": 18037,
  "testimony": 10896,
  "novice": 23131,
  "dashboard": 24923,
  "##\u672c": 30402,
  "hague": 14575,
  "##uis": 27020,
  "disposed": 21866,
  "subdivision": 12572,
  "##ep": 13699,
  "downstream": 13248,
  "infected": 10372,
  "cp": 18133,
  "clube": 24852,
  "paula": 13723,
  "launch": 4888,
  "teatro": 16038,
  "osborn": 26999,
  "##sos": 17063,
  "wed": 21981,
  "broad": 5041,
  "benjamin": 6425,
  "charting": 17918,
  "sirius": 23466,
  "##iver": 16402,
  "plate": 5127,
  "gap": 6578,
  "shall": 4618,
  "divorced": 9196,
  "##nac": 18357,
  "1635": 27426,
  "##bri": 23736,
  "weight": 3635,
  "litter": 19070,
  "symphonic": 18957,
  "arkansas": 6751,
  "traditional": 3151,
  "ages": 5535,
  "irs": 25760,
  "bullshit": 14636,
  "\u5dff": 1837,
  "mcmahon": 17741,
  "josh": 6498,
  "spectators": 12405,
  "remarked": 10783,
  "1655": 28438,
  "##ahl": 28083,
  "taken": 2579,
  "\u00a2": 1068,
  "maritime": 7803,
  "ragged": 14202,
  "pit": 6770,
  "##cott": 13124,
  "modular": 19160,
  "ernie": 14637,
  "heightened": 21106,
  "##\u2208": 30124,
  "died": 2351,
  "heats": 18559,
  "venezuelan": 15332,
  "adjusted": 10426,
  "1714": 25241,
  "mosquito": 22529,
  "poked": 16826,
  "merritt": 26701,
  "reviews": 4391,
  "yue": 27163,
  "rapper": 10687,
  "bandages": 27993,
  "kenya": 7938,
  "bytes": 27507,
  "layla": 19786,
  "periodical": 21802,
  "leland": 27134,
  "1903": 5778,
  "ghosts": 11277,
  "reindeer": 29495,
  "juventus": 22760,
  "\u306d": 1670,
  "bronze": 4421,
  "squares": 14320,
  "terribly": 16668,
  "benefit": 5770,
  "oswald": 17411,
  "doe": 18629,
  "jacques": 7445,
  "standard": 3115,
  "215": 17405,
  "idiot": 10041,
  "latvia": 12429,
  "##vary": 21639,
  "theodore": 10117,
  "devil": 6548,
  "grown": 4961,
  "tile": 14090,
  "\u09a6": 1364,
  "ind": 27427,
  "##wes": 18192,
  "gulf": 6084,
  "\u2666": 1626,
  "sleeps": 25126,
  "recovery": 7233,
  "pulses": 23894,
  "criminal": 4735,
  "unsafe": 25135,
  "belief": 6772,
  "ontario": 4561,
  "adjoining": 13562,
  "themselves": 3209,
  "allies": 6956,
  "realising": 27504,
  "##oca": 24755,
  "biomass": 28148,
  "rebuilding": 14584,
  "gustave": 27973,
  "loop": 7077,
  "##\u0baa": 29924,
  "staggered": 14648,
  "risked": 22374,
  "commenced": 8420,
  "1833": 11040,
  "clark": 5215,
  "walsh": 11019,
  "agile": 29003,
  "bulls": 12065,
  "alternate": 6585,
  "vt": 28879,
  "sentiment": 15792,
  "[unused188]": 193,
  "##cake": 17955,
  "1938": 4260,
  "hymn": 14825,
  "##\u056c": 29773,
  "adam": 4205,
  "##ckle": 19250,
  "yu": 9805,
  "##amps": 25167,
  "mutation": 16221,
  "clenching": 23970,
  "[unused250]": 255,
  "##tness": 27401,
  "delivered": 5359,
  "barley": 21569,
  "rocks": 5749,
  "spines": 20352,
  "westward": 15165,
  "showcasing": 27696,
  "management": 2968,
  "ve": 2310,
  "projecting": 18398,
  "##lite": 22779,
  "goblin": 22639,
  "##\u548c": 30322,
  "##hor": 16368,
  "anxious": 11480,
  "existing": 4493,
  "ru": 21766,
  "##bard": 21458,
  "balthazar": 25021,
  "mathias": 20494,
  "franco": 9341,
  "frowned": 7335,
  "loads": 15665,
  "leung": 26037,
  "tt": 23746,
  "roma": 12836,
  "1735": 26063,
  "sho": 26822,
  "[unused194]": 199,
  "integers": 24028,
  "accustomed": 17730,
  "##\u5c1a": 30356,
  "days": 2420,
  "feminist": 10469,
  "rr": 25269,
  "synonymous": 22594,
  "##beck": 12750,
  "rainbow": 10098,
  "##nte": 10111,
  "anywhere": 5973,
  "guillaume": 20061,
  "devoid": 22808,
  "viewer": 13972,
  "jar": 15723,
  "hardest": 18263,
  "shaun": 16845,
  "workers": 3667,
  "ua": 25423,
  "bon": 14753,
  "[unused613]": 618,
  "bros": 10243,
  "filming": 7467,
  "medications": 20992,
  "knuckles": 13513,
  "emerald": 14110,
  "everett": 15160,
  "headmaster": 16296,
  "##end": 10497,
  "folks": 12455,
  "##aru": 15728,
  "dip": 16510,
  "##iated": 15070,
  "walsall": 29054,
  "##gt": 13512,
  "gloves": 11875,
  "bladder": 24176,
  "canonical": 18562,
  "beit": 28236,
  "lakers": 18264,
  "##\u9762": 30502,
  "hated": 6283,
  "excerpt": 28142,
  "inhuman": 29582,
  "\u751f": 1910,
  "recipients": 15991,
  "maturity": 16736,
  "bubbles": 17255,
  "##\u00ae": 29656,
  "##ution": 13700,
  "kant": 26044,
  "uncomfortable": 8796,
  "seminal": 20603,
  "airplane": 13297,
  "cities": 3655,
  "vocals": 2955,
  "satire": 18312,
  "greece": 5483,
  "##hab": 25459,
  "shrubs": 18812,
  "36": 4029,
  "gust": 26903,
  "##sar": 10286,
  "cameroon": 13841,
  "[unused741]": 746,
  "onslaught": 28644,
  "taliban": 16597,
  "\u028b": 1133,
  "assassination": 10102,
  "chin": 5413,
  "##cene": 17968,
  "magnet": 16853,
  "randomly": 18154,
  "log": 8833,
  "graves": 9729,
  "##eme": 21382,
  "##nding": 15683,
  "##ergy": 24395,
  ")": 1007,
  "sas": 21871,
  "ala": 21862,
  "advocate": 8175,
  "##rnet": 26573,
  "atrium": 26204,
  "bending": 14457,
  "##ition": 22753,
  "myers": 13854,
  "diaz": 12526,
  "matches": 3503,
  "superiors": 22983,
  "formation": 4195,
  "sahib": 23513,
  "genesis": 11046,
  "garland": 17017,
  "ached": 15043,
  "##ott": 14517,
  "enabling": 12067,
  "##bs": 5910,
  "ladies": 6456,
  "diffusion": 19241,
  "ashore": 16145,
  "bumps": 18548,
  "muzzle": 17750,
  "crusade": 16282,
  "1898": 6068,
  "sigh": 6682,
  "download": 8816,
  "stereo": 12991,
  "retention": 20125,
  "accidental": 17128,
  "##ters": 7747,
  "bench": 6847,
  "##\u27e9": 30156,
  "##rling": 22036,
  "rosario": 17496,
  "##nese": 14183,
  "##use": 8557,
  "##tis": 7315,
  "swarm": 21708,
  "watts": 11042,
  "hd": 10751,
  "##zong": 13150,
  "waterfall": 14297,
  "sensory": 16792,
  "\u0993": 1352,
  "defined": 4225,
  "##nished": 28357,
  "dreaming": 12802,
  "strategies": 9942,
  "sc": 8040,
  "##\uff5e": 30521,
  "personality": 6180,
  "##holding": 23410,
  "spitfire": 28323,
  "##haling": 23896,
  "offenders": 19591,
  "##chment": 22729,
  "##lism": 28235,
  "134": 15170,
  "motif": 16226,
  "amman": 25703,
  "optimal": 15502,
  "##watch": 18866,
  "nepali": 23418,
  "nueva": 24536,
  "127": 13029,
  "lebanese": 12592,
  "\u10dd": 1450,
  "miranda": 9392,
  "llc": 11775,
  "childless": 26983,
  "owe": 12533,
  "ratios": 21879,
  "trusted": 9480,
  "\u6f22": 1904,
  "liberal": 4314,
  "##market": 20285,
  "hk": 22563,
  "send": 4604,
  "incomplete": 12958,
  "entertain": 20432,
  "##\u2020": 30061,
  "lowell": 15521,
  "maternity": 23676,
  "\u00fe": 1101,
  "possessing": 18840,
  "equality": 9945,
  "cut": 3013,
  "micah": 17665,
  "cover": 3104,
  "zone": 4224,
  "obviously": 5525,
  "benefactor": 27398,
  "##oping": 17686,
  "##\u5343": 30310,
  "##otide": 26601,
  "##ility": 15148,
  "fairchild": 24258,
  "porsche": 16099,
  "##nel": 11877,
  "mating": 15100,
  "tabitha": 21581,
  "happening": 6230,
  "cpc": 28569,
  "*": 1008,
  "##eded": 19082,
  "##yst": 27268,
  "blossoms": 28766,
  "aristocracy": 22706,
  "dramatically": 12099,
  "sparrow": 19479,
  "dakota": 7734,
  "\u4ebb": 1757,
  "surged": 18852,
  "contributing": 8020,
  "avoiding": 9992,
  "traveled": 6158,
  "alexander": 3656,
  "mildly": 19499,
  "050": 28714,
  "juicy": 28900,
  "flowers": 4870,
  "equation": 8522,
  "impose": 17607,
  "kristin": 25130,
  "samoa": 15075,
  "##itia": 29050,
  "heavily": 4600,
  "boca": 22765,
  "spd": 23772,
  "##pour": 27757,
  "##cous": 27199,
  "##lux": 25148,
  "surviving": 6405,
  "hutton": 20408,
  "asher": 17243,
  "manipulating": 26242,
  "womb": 26578,
  "ritchie": 20404,
  "\u1110": 1467,
  "price": 3976,
  "1860": 7313,
  "##nate": 12556,
  "flanders": 13998,
  "militant": 16830,
  "locomotive": 8098,
  "##iso": 19565,
  "stars": 3340,
  "cow": 11190,
  "##ctor": 16761,
  "\u897f": 1947,
  "goo": 27571,
  "##\u307e": 30203,
  "lincoln": 5367,
  "brass": 8782,
  "##hil": 19466,
  "mount": 4057,
  "walton": 14290,
  "##care": 16302,
  "tully": 25724,
  "sponsorship": 12026,
  "[unused655]": 660,
  "wexford": 23121,
  "disk": 9785,
  "deposition": 19806,
  "realize": 5382,
  "guess": 3984,
  "##3d": 29097,
  "homestead": 14473,
  "moan": 13673,
  "\u03c1": 1171,
  "welsh": 6124,
  "rely": 11160,
  "cartridges": 22998,
  "paulo": 9094,
  "louder": 10989,
  "downs": 12482,
  "kindergarten": 11793,
  "revision": 13921,
  "programs": 3454,
  "chaplain": 14011,
  "glowed": 16497,
  "anders": 15387,
  "fibers": 16662,
  "##fold": 10371,
  "gallon": 25234,
  "le": 3393,
  "filter": 11307,
  "salon": 11090,
  "desired": 9059,
  "denis": 11064,
  "ceded": 19705,
  "mounted": 5614,
  "et": 3802,
  "##hart": 10686,
  "sprint": 9043,
  "##tail": 14162,
  "vera": 12297,
  "woods": 5249,
  "##tf": 24475,
  "##36": 21619,
  "certificates": 17987,
  "captain": 2952,
  "##wa": 4213,
  "waterfront": 16317,
  "is": 2003,
  "##ddy": 14968,
  "turnbull": 26439,
  "scandals": 29609,
  "bosses": 23029,
  "sarah": 4532,
  "submissions": 27842,
  "cornelius": 17354,
  "##eal": 15879,
  "facilitate": 10956,
  "22": 2570,
  "winger": 16072,
  "wealthy": 7272,
  "##mare": 24376,
  "##yr": 12541,
  "1709": 28955,
  "zhou": 14367,
  "\u05dd": 1254,
  "vowel": 12710,
  "\u0909": 1313,
  "1858": 8517,
  "##heater": 27847,
  "##yme": 25219,
  "dreamer": 24726,
  "dreamed": 13830,
  "unmistakable": 24219,
  "18th": 4985,
  "clutches": 29497,
  "144": 14748,
  "\u90e8": 1960,
  "layer": 6741,
  "exercised": 17747,
  "sociology": 11507,
  "decree": 10037,
  "loving": 8295,
  "float": 14257,
  "[unused49]": 50,
  "malaysian": 11843,
  "dollars": 6363,
  "practices": 6078,
  "marley": 20326,
  "robes": 17925,
  "website": 4037,
  "savior": 24859,
  "po": 13433,
  "woman": 2450,
  "handicapped": 26920,
  "##oya": 18232,
  "bits": 9017,
  "nas": 17235,
  "frowning": 14587,
  "crank": 27987,
  "else": 2842,
  "freighter": 27945,
  "hid": 11041,
  "huron": 21899,
  "amateur": 5515,
  "sg": 22214,
  "ag": 12943,
  "penthouse": 22855,
  "##sia": 8464,
  "requires": 5942,
  "bungalow": 27563,
  "compose": 17202,
  "originate": 21754,
  "stern": 8665,
  "configurations": 22354,
  "teacher": 3836,
  "nor": 4496,
  "##pheus": 22809,
  "##name": 18442,
  "##\u05e1": 29804,
  "underwent": 9601,
  "montenegro": 13018,
  "pe": 21877,
  "manuscript": 8356,
  "1953": 4052,
  "sleeve": 10353,
  "lively": 17133,
  "##pathy": 20166,
  "pulp": 16016,
  "rival": 6538,
  "gown": 11739,
  "losses": 6409,
  "annals": 16945,
  "palm": 5340,
  "brunei": 18692,
  "[unused855]": 860,
  "##sov": 23230,
  "boroughs": 21413,
  "aquitaine": 24973,
  "jai": 17410,
  "buren": 29470,
  "swirl": 28693,
  "##usions": 22016,
  "##schen": 23796,
  "1679": 27924,
  "delegate": 11849,
  "likelihood": 16593,
  "slaves": 7179,
  "monica": 9018,
  "##logue": 24277,
  "prepare": 7374,
  "mansions": 26842,
  "place": 2173,
  "##listic": 27348,
  "\u98df": 1978,
  "peeked": 18652,
  "lifespan": 26462,
  "##ride": 15637,
  "ascot": 29036,
  "uncle": 4470,
  "passions": 25289,
  "preview": 19236,
  "short": 2460,
  "##ight": 18743,
  "dick": 5980,
  "limiting": 14879,
  "theology": 8006,
  "##itha": 26054,
  "landowner": 20270,
  "procedural": 24508,
  "##sive": 12742,
  "vigorously": 22400,
  "printing": 8021,
  "247": 23380,
  "flawless": 27503,
  "peugeot": 26385,
  "footprint": 24319,
  "\u043e": 1193,
  "install": 16500,
  "##lateral": 28277,
  "dodge": 11898,
  "[unused214]": 219,
  "amadeus": 27185,
  "oddly": 15056,
  "epilogue": 24297,
  "gabon": 23129,
  "interceptor": 24727,
  "\u00a33": 28182,
  "logistics": 12708,
  "russians": 12513,
  "listeners": 13810,
  "bears": 6468,
  "admire": 19837,
  "reunification": 28044,
  "ascribed": 28025,
  "##ann": 11639,
  "poured": 8542,
  "1980s": 3865,
  "##lma": 19145,
  "same": 2168,
  "infant": 10527,
  "sorts": 11901,
  "unfamiliar": 16261,
  "duel": 14216,
  "##lc": 15472,
  "##omorphic": 28503,
  "##dhar": 25632,
  "renovated": 10601,
  "##57": 28311,
  "indus": 27746,
  "walden": 24834,
  "helena": 10269,
  "hurricane": 7064,
  "otherwise": 4728,
  "disappear": 10436,
  "witnesses": 9390,
  "yiddish": 20112,
  "##anies": 28064,
  "atv": 29108,
  "goalkeeper": 9653,
  "41st": 24233,
  "rowland": 20539,
  "poznan": 18320,
  "w": 1059,
  "definition": 6210,
  "astronomical": 13674,
  "shielding": 25553,
  "elias": 14579,
  "conclusions": 15306,
  "colleague": 11729,
  "wat": 28194,
  "crewe": 22188,
  "echoing": 17142,
  "pasadena": 18880,
  "##plify": 28250,
  "acting": 3772,
  "collaborators": 21315,
  "surgery": 5970,
  "unavailable": 20165,
  "[unused851]": 856,
  "##ael": 21147,
  "draped": 15098,
  "announcement": 8874,
  "negotiation": 19905,
  "##0s": 16223,
  "sh": 14021,
  "layout": 9621,
  "database": 7809,
  "tuning": 17372,
  "rink": 18416,
  "improved": 5301,
  "fact": 2755,
  "acquitted": 18538,
  "[unused471]": 476,
  "192": 17613,
  "[unused543]": 548,
  "britannia": 24677,
  "prevented": 8729,
  "katz": 20729,
  "selections": 16310,
  "outspoken": 22430,
  "rodents": 28156,
  "faerie": 27498,
  "##sco": 9363,
  "##ams": 13596,
  "surveys": 12265,
  "##ht": 11039,
  "prowess": 26120,
  "doubted": 12979,
  "conservatives": 11992,
  "semantics": 28081,
  "gazes": 23514,
  "silky": 18848,
  "were": 2020,
  "whistling": 24350,
  "##gement": 20511,
  "larvae": 9673,
  "prostitutes": 20833,
  "##acle": 18630,
  "pew": 29071,
  "##\u026a": 29685,
  "asiatic": 23983,
  "gilmore": 22999,
  "commenting": 15591,
  "weekly": 4882,
  "vertices": 18984,
  "unrest": 16591,
  "macarthur": 17719,
  "##star": 14117,
  "brady": 10184,
  "skier": 21294,
  "bringing": 5026,
  "lay": 3913,
  "detectives": 18145,
  "planck": 26486,
  "shoe": 10818,
  "quo": 22035,
  "merton": 28169,
  "flushing": 23519,
  "atoll": 22292,
  "foreword": 23059,
  "offenses": 25173,
  "rescues": 26001,
  "mammal": 25476,
  "minor": 3576,
  "reassigned": 18026,
  "violations": 13302,
  "structured": 14336,
  "vibration": 17880,
  "stopped": 3030,
  "##ist": 2923,
  "share": 3745,
  "expelled": 10016,
  "##lib": 29521,
  "##tric": 12412,
  "astronomy": 12799,
  "highway": 3307,
  "##waite": 29601,
  "demise": 13614,
  "reacting": 24868,
  "nationalities": 24904,
  "stages": 5711,
  "eminent": 14953,
  "##crats": 23423,
  "##\u1100": 29991,
  "badge": 10780,
  "bubbling": 25054,
  "railroads": 16197,
  "primarily": 3952,
  "consulate": 19972,
  "reactive": 22643,
  "riding": 5559,
  "aces": 20232,
  "meng": 27955,
  "documentaries": 15693,
  "[unused165]": 170,
  "confusion": 6724,
  "ok": 7929,
  "door": 2341,
  "anticipated": 11436,
  "amc": 21962,
  "dt": 26718,
  "milestone": 19199,
  "minions": 28071,
  "konrad": 22958,
  "##shin": 17426,
  "mayor": 3664,
  "fitness": 10516,
  "advertised": 17099,
  "article": 3720,
  "convoy": 9549,
  "[unused415]": 420,
  "disregard": 27770,
  "costumes": 12703,
  "joshi": 26645,
  "stride": 18045,
  "globally": 16452,
  "\u03b6": 1160,
  "[unused453]": 458,
  "aroused": 18391,
  "pianist": 9066,
  "##bber": 29325,
  "hearted": 18627,
  "##\u03c7": 29737,
  "landings": 16805,
  "410": 19151,
  "communes": 16569,
  "##\u0647": 14157,
  "overlook": 27590,
  "[unused238]": 243,
  "clinic": 9349,
  "shivering": 19197,
  "1819": 12552,
  "arjun": 26024,
  "colloquially": 23992,
  "\u3042": 1646,
  "creole": 21414,
  "##sling": 28886,
  "expect": 5987,
  "heights": 7535,
  "landfall": 21042,
  "gracefully": 28266,
  "##gative": 26792,
  "outstretched": 21059,
  "slain": 19668,
  "mm": 3461,
  "shady": 22824,
  "newest": 14751,
  "speech": 4613,
  "flanagan": 26558,
  "\u02d0": 1150,
  "falling": 4634,
  "medici": 22605,
  "guantanamo": 23094,
  "stephane": 26624,
  "press": 2811,
  "##\u09c7": 29917,
  "hockey": 3873,
  "schwarz": 29058,
  "caitlin": 27555,
  "propose": 16599,
  "child": 2775,
  "constituencies": 13315,
  "nathan": 7150,
  "kevin": 4901,
  "exeter": 12869,
  "risk": 3891,
  "188": 19121,
  "##\u03b7\u03c2": 29155,
  "donovan": 12729,
  "somethin": 27941,
  "##nbc": 28957,
  "[unused775]": 780,
  "scratching": 20291,
  "kings": 5465,
  "suits": 11072,
  "swans": 26699,
  "##\u1d2c": 30026,
  "void": 11675,
  "ambitions": 19509,
  "inn": 7601,
  "##<": 29629,
  "336": 27954,
  "watershed": 12547,
  "logistical": 28961,
  "syriac": 24109,
  "##\u00bc": 29664,
  "##\u4f50": 30290,
  "216": 20294,
  "##rso": 25301,
  "angrily": 14136,
  "noctuidae": 24893,
  "##rod": 14127,
  "commentaries": 21241,
  "##cking": 23177,
  "##vos": 19862,
  "initials": 20381,
  "toward": 2646,
  "oversaw": 14105,
  "vp": 21210,
  "magician": 16669,
  "ask": 3198,
  "earnings": 16565,
  "mandate": 11405,
  "##\u0f66": 29972,
  "##erence": 20935,
  "##oge": 23884,
  "shield": 6099,
  "blurred": 18449,
  "ur": 24471,
  "liberalism": 26505,
  "entertainer": 21751,
  "amber": 8994,
  "##harat": 28074,
  "cellar": 15423,
  "melt": 14899,
  "livelihood": 24585,
  "main": 2364,
  "##jit": 18902,
  "liked": 4669,
  "upset": 6314,
  "\u4ecb": 1759,
  "descent": 6934,
  "##tek": 23125,
  "resource": 7692,
  "creation": 4325,
  "covent": 29456,
  "##gano": 29451,
  "ultra": 11087,
  "austrians": 28439,
  "froze": 10619,
  "mas": 16137,
  "shake": 6073,
  "renaming": 24944,
  "sadler": 29012,
  "zoo": 9201,
  "kira": 15163,
  "organs": 11595,
  "push": 5245,
  "constance": 15713,
  "unharmed": 28150,
  "[": 1031,
  "insertion": 23851,
  "\u09ac": 1368,
  "##eller": 24038,
  "1784": 16496,
  "armenian": 7508,
  "variety": 3528,
  "involved": 2920,
  "1749": 24704,
  "1707": 25029,
  "exasperated": 24379,
  "shields": 11824,
  "##uer": 13094,
  "edward": 3487,
  "##igo": 14031,
  "##ffi": 26989,
  "compatibility": 21778,
  "shortages": 22623,
  "propaganda": 10398,
  "hay": 10974,
  "##un": 4609,
  "racers": 25791,
  "hidden": 5023,
  "instrumentation": 16015,
  "alias": 14593,
  "pleading": 16418,
  "[unused599]": 604,
  "chalk": 16833,
  "brood": 25565,
  "hydro": 18479,
  "norwood": 22804,
  "rectory": 24606,
  "orchestras": 19505,
  "level": 2504,
  "870": 28864,
  "fears": 10069,
  "##icient": 20132,
  "otto": 8064,
  "staple": 18785,
  "##\u6a39": 30410,
  "technology": 2974,
  "renamed": 4096,
  "manipulated": 20063,
  "mosque": 8806,
  "cub": 21987,
  "feudal": 16708,
  "breached": 25769,
  "##ip": 11514,
  "\u2122": 1580,
  "\u2248": 1606,
  "conscious": 9715,
  "exaggerated": 16903,
  "influences": 8092,
  "1940s": 7675,
  "mcintyre": 24564,
  "booker": 16674,
  "spokesperson": 15974,
  "astro": 28625,
  "acceptance": 9920,
  "jess": 12245,
  "##lane": 20644,
  "end": 2203,
  "consequence": 9509,
  "[unused496]": 501,
  "opponent": 7116,
  "erik": 10240,
  "invasive": 17503,
  "##\u30cb": 30242,
  "ceo": 5766,
  "kari": 27356,
  "##hit": 16584,
  "66": 5764,
  "cambridgeshire": 24197,
  "[unused883]": 888,
  "ic": 24582,
  "##\u03b5": 29723,
  "\u062f": 1278,
  "dillon": 14602,
  "winding": 12788,
  "washed": 8871,
  "poverty": 5635,
  "presumably": 10712,
  "tourists": 9045,
  "\u30bb": 1708,
  "rann": 26312,
  "\u5fc3": 1849,
  "conventional": 7511,
  "48th": 27787,
  "stalks": 29594,
  "aye": 13442,
  "chennai": 12249,
  "boarding": 9405,
  "bach": 10384,
  "voter": 14303,
  "cox": 9574,
  "podcast": 16110,
  "analysis": 4106,
  "[unused702]": 707,
  "compute": 24134,
  "lots": 7167,
  "woolf": 29572,
  "microphone": 15545,
  "provinces": 6941,
  "intervening": 26623,
  "tracking": 9651,
  "detonated": 28110,
  "longed": 23349,
  "cappella": 23013,
  "##itated": 15198,
  "bureau": 4879,
  "anchor": 8133,
  "##ore": 5686,
  "mud": 8494,
  "industry": 3068,
  "dragoons": 28069,
  "epithet": 19626,
  "bowing": 26690,
  "czechoslovak": 21282,
  "anita": 12918,
  "maryland": 5374,
  "melodies": 16106,
  "##\u0d9a": 29939,
  "situation": 3663,
  "sonny": 13584,
  "vigorous": 21813,
  "tits": 25671,
  "irregularities": 28868,
  "filters": 17736,
  "dying": 5996,
  "worrying": 15366,
  "##tm": 21246,
  "##nent": 21576,
  "##ion": 3258,
  "##bo": 5092,
  "wakes": 17507,
  "balcony": 11673,
  "robyn": 28047,
  "flooding": 9451,
  "capability": 10673,
  "buff": 23176,
  "##\u5fc4": 30376,
  "commemorating": 20646,
  "visas": 24487,
  "tracts": 22069,
  "drawer": 13065,
  "nfl": 5088,
  "warming": 12959,
  "mental": 5177,
  "[unused579]": 584,
  "roots": 6147,
  "bradford": 9999,
  "touches": 12817,
  "unbearable": 24257,
  "garrett": 9674,
  "##tters": 24168,
  "nocturnal": 23789,
  "relativity": 20805,
  "titans": 13785,
  "geometridae": 24687,
  "##sing": 7741,
  "savoy": 16394,
  "##=": 29630,
  "belgium": 5706,
  "##hay": 24180,
  "\u0e15": 1411,
  "linebacker": 15674,
  "districts": 4733,
  "163": 17867,
  "##\u0905": 29847,
  "##eis": 17580,
  "rates": 6165,
  "##|": 29641,
  "serbia": 7238,
  "[unused56]": 57,
  "inland": 9514,
  "picked": 3856,
  "\u5c07": 1828,
  "##astic": 20875,
  "arsenic": 29596,
  "francesco": 11400,
  "vest": 17447,
  "##rsk": 27472,
  "tremble": 20627,
  "hosts": 6184,
  "neutron": 20393,
  "glee": 18874,
  "difficult": 3697,
  "marathon": 8589,
  "##amy": 24079,
  "uptown": 28539,
  "outstanding": 5151,
  "bali": 20222,
  "davies": 9082,
  "anthropological": 28395,
  "denied": 6380,
  "52": 4720,
  "wrong": 3308,
  "exiting": 22371,
  "grazing": 15400,
  "shan": 17137,
  "bids": 20723,
  "horribly": 27762,
  "tuesday": 9857,
  "absolutely": 7078,
  "congress": 3519,
  "##ush": 20668,
  "circular": 8206,
  "[unused609]": 614,
  "youth": 3360,
  "##ars": 11650,
  "initiation": 17890,
  "1890s": 13678,
  "rotherham": 27456,
  "flemish": 15427,
  "belly": 7579,
  "robust": 15873,
  "##bedo": 28759,
  "##ula": 7068,
  "##pee": 28084,
  "\u5409": 1793,
  "180": 8380,
  "regis": 20588,
  "polls": 14592,
  "##ital": 18400,
  "##word": 18351,
  "shattering": 21797,
  "235": 17825,
  "franciscan": 19420,
  "##ec": 8586,
  "curves": 10543,
  "ave": 13642,
  "ernesto": 22428,
  "herself": 2841,
  "1793": 12387,
  "slayer": 20005,
  "moor": 16808,
  "furiously": 20322,
  "christina": 12657,
  "clary": 13145,
  "horses": 5194,
  "cora": 17195,
  "##\u2153": 30109,
  "after": 2044,
  "stevens": 8799,
  "maximilian": 18838,
  "identical": 7235,
  "##zyn": 23749,
  "isle": 8842,
  "inclusive": 18678,
  "curry": 15478,
  "261": 24441,
  "gubernatorial": 19100,
  "racks": 27259,
  "1992": 2826,
  "critics": 4401,
  "flinders": 29120,
  "campaigns": 8008,
  "##\u0631": 17149,
  "by": 2011,
  "manually": 21118,
  "effective": 4621,
  "67": 6163,
  "sage": 10878,
  "examination": 7749,
  "presses": 14616,
  "##lla": 4571,
  "victim": 6778,
  "##ka": 2912,
  "burst": 6532,
  "[unused748]": 753,
  "te": 8915,
  "##\u09b0": 29908,
  "whipping": 23016,
  "##biotic": 26591,
  "micro": 12702,
  "gesture": 9218,
  "molecule": 13922,
  "branded": 11180,
  "timing": 10984,
  "effectiveness": 12353,
  "\u56d7": 1797,
  "accident": 4926,
  "growing": 3652,
  "lick": 15385,
  "thrill": 16959,
  "bicycle": 10165,
  "upside": 14961,
  "sum": 7680,
  "merchandise": 16359,
  "pearls": 21944,
  "colton": 21000,
  "expressions": 11423,
  "hurled": 24025,
  "symposium": 17899,
  "[unused118]": 123,
  "##ick": 6799,
  "touching": 7244,
  "[unused524]": 529,
  "monday": 6928,
  "[unused513]": 518,
  "345": 23785,
  "[unused90]": 91,
  "sharp": 4629,
  "execution": 7781,
  "forgiven": 24280,
  "##ulu": 20391,
  "fda": 17473,
  "##sher": 19603,
  "##oed": 29099,
  "expired": 13735,
  "bows": 21207,
  "rehearsal": 17887,
  "##hya": 17915,
  "immortality": 20107,
  "##vard": 25911,
  "deliver": 8116,
  "[unused672]": 677,
  "##von": 17789,
  "saints": 6586,
  "refurbishment": 24478,
  "thanking": 28638,
  "navigator": 20532,
  "manufacturers": 8712,
  "admissions": 20247,
  "[unused859]": 864,
  "rigid": 11841,
  "bobbie": 27731,
  "minimize": 18478,
  "patrolling": 24248,
  "versa": 18601,
  "order": 2344,
  "geo": 20248,
  "shop": 4497,
  "consequences": 8465,
  "witness": 7409,
  "##nta": 12380,
  "##km": 22287,
  "##nist": 26942,
  "writhing": 26185,
  "radha": 26498,
  "##ary": 5649,
  "auf": 21200,
  "basically": 10468,
  "##ards": 18117,
  "293": 26953,
  "spectacle": 21177,
  "large": 2312,
  "siblings": 9504,
  "singers": 8453,
  "liga": 8018,
  "bombay": 11831,
  "1662": 25909,
  "frequent": 6976,
  "thrilling": 26162,
  "linux": 11603,
  "favour": 7927,
  "thump": 21324,
  "pope": 4831,
  "serviced": 22858,
  "mace": 19382,
  "scarlett": 20862,
  "tasks": 8518,
  "##nsk": 25564,
  "censorship": 15657,
  "\u116d": 1477,
  "legislatures": 27977,
  "greg": 6754,
  "beautiful": 3376,
  "##izes": 10057,
  "##rut": 22134,
  "vr": 27830,
  "gettysburg": 22577,
  "suffolk": 12291,
  "##wi": 9148,
  "porto": 13809,
  "justify": 16114,
  "blushed": 19370,
  "ellison": 21513,
  "adequate": 11706,
  "plain": 5810,
  "legislative": 4884,
  "ideological": 17859,
  "\u00b4": 1084,
  "depended": 17292,
  "1764": 21488,
  "deco": 21933,
  "actors": 5889,
  "##\u85e4": 30470,
  "insanity": 19272,
  "anonymous": 10812,
  "royalties": 25335,
  "blankets": 15019,
  "##\u043e\u0432\u0438\u0447": 16198,
  "##\u300b": 30166,
  "telugu": 12180,
  "tolerance": 13986,
  "struggles": 11785,
  "scrap": 15121,
  "\uff0c": 1989,
  "##tens": 25808,
  "resented": 27188,
  "mathematical": 8045,
  "bruise": 24851,
  "timber": 7227,
  "pulsing": 23139,
  "##ining": 24002,
  "accountants": 29114,
  "aerodrome": 23843,
  "culturally": 20547,
  "bravery": 16534,
  "[unused849]": 854,
  "pockets": 10306,
  "retorted": 24056,
  "##erved": 25944,
  "julian": 6426,
  "socialists": 21633,
  "jogging": 28233,
  "##anta": 26802,
  "\u0dcf": 1408,
  "excavated": 15199,
  "richmond": 6713,
  "afc": 10511,
  "##zard": 26154,
  "fossils": 11954,
  "criticism": 6256,
  "colonel": 4327,
  "\u30a6": 1696,
  "shy": 11004,
  "napoli": 29485,
  "rachel": 5586,
  "[unused442]": 447,
  "##ical": 7476,
  "1887": 6837,
  "technical": 4087,
  "lowry": 27281,
  "genus": 3562,
  "1737": 26738,
  "hawthorn": 21671,
  "##vance": 21789,
  "polling": 17888,
  "accumulate": 27598,
  "nikolay": 28494,
  "[unused213]": 218,
  "feeder": 21429,
  "jammed": 21601,
  "##elial": 24587,
  "payload": 18093,
  "##ous": 3560,
  "bikini": 20345,
  "##zar": 9057,
  "abel": 16768,
  "[unused61]": 62,
  "rumored": 22710,
  "hon": 10189,
  "doing": 2725,
  "nintendo": 10022,
  "bottle": 5835,
  "guilt": 8056,
  "enthusiastic": 14727,
  "replacement": 6110,
  "sb": 24829,
  "ramps": 24943,
  "superhero": 16251,
  "resorts": 16511,
  "sentencing": 23280,
  "carp": 29267,
  "thirst": 21810,
  "caste": 14542,
  "elisa": 29490,
  "##llan": 19036,
  "##form": 14192,
  "##plin": 28296,
  "##alle": 24164,
  "kincaid": 24510,
  "\u5f35": 1844,
  "lent": 15307,
  "anton": 9865,
  "marsh": 9409,
  "##liga": 14715,
  "physically": 8186,
  "squared": 19942,
  "rihanna": 25439,
  "fledged": 26712,
  "intra": 26721,
  "epa": 19044,
  "[unused504]": 509,
  "##vian": 18073,
  "erica": 19295,
  "woodrow": 23954,
  "damon": 11317,
  "transparent": 13338,
  "midfielder": 8850,
  "recordings": 5633,
  "##eng": 13159,
  "##ori": 10050,
  "osborne": 16732,
  "investigated": 10847,
  "roger": 5074,
  "\u09a1": 1360,
  "howl": 22912,
  "##ceptive": 28687,
  "decisions": 6567,
  "parental": 18643,
  "\u1d4f": 1501,
  "##lock": 7878,
  "photography": 5855,
  "superb": 21688,
  "longtime": 11155,
  "[unused906]": 911,
  "tubes": 10868,
  "lets": 11082,
  "##nikov": 22576,
  "sheets": 8697,
  "hill": 2940,
  "multi": 4800,
  "1923": 4927,
  "tighten": 21245,
  "belarusian": 15626,
  "legislature": 6372,
  "achievements": 10106,
  "dai": 18765,
  "pops": 16949,
  "sabine": 18578,
  "generous": 12382,
  "##brates": 25258,
  "[unused306]": 311,
  "warsaw": 8199,
  "awarding": 21467,
  "rested": 8614,
  "overdose": 26641,
  "1788": 15622,
  "reacts": 27325,
  "##agger": 27609,
  "estuary": 18056,
  "overseas": 6931,
  "deutsche": 11605,
  "sermons": 20855,
  "dragging": 11920,
  "small": 2235,
  "##\u0636": 29827,
  "resident": 6319,
  "stare": 6237,
  "##sea": 17310,
  "fascinated": 15677,
  "10": 2184,
  "biting": 12344,
  "##isson": 24077,
  "fiber": 11917,
  "##yang": 12198,
  "covenant": 16077,
  "[unused18]": 19,
  "dawson": 11026,
  "[unused870]": 875,
  "deadline": 15117,
  "moth": 5820,
  "stunt": 15412,
  "tricky": 24026,
  "stroll": 27244,
  "##\u0447": 29752,
  "exhaustion": 15575,
  "stabilize": 27790,
  "resolution": 5813,
  "[unused326]": 331,
  "[unused210]": 215,
  "##bos": 15853,
  "bulldogs": 15120,
  "chavez": 16860,
  "pornography": 19378,
  "hartley": 20955,
  "abuse": 6905,
  "states": 2163,
  "retirement": 5075,
  "tuba": 29242,
  "shivers": 28464,
  "industries": 6088,
  "##\u4e0b": 30269,
  "tightened": 8371,
  "\u529b": 1778,
  "sentiments": 23541,
  "solid": 5024,
  "kennedy": 5817,
  "optimism": 27451,
  "vocabulary": 16188,
  "##oom": 17650,
  "kurt": 9679,
  "##\u0dc0": 29943,
  "##\u00a1": 29644,
  "judaism": 13725,
  "heap": 16721,
  "daytona": 18226,
  "answer": 3437,
  "gum": 16031,
  "dos": 9998,
  "crew": 3626,
  "##work": 6198,
  "gymnast": 25055,
  "silicon": 13773,
  "gate": 4796,
  "133": 14506,
  "cleaning": 9344,
  "swearing": 25082,
  "camden": 13267,
  "##\uff0d": 30516,
  "lund": 21860,
  "illustrates": 24899,
  "\u2032": 1531,
  "samuel": 5212,
  "taste": 5510,
  "forth": 5743,
  "mystery": 6547,
  "kei": 26679,
  "groove": 14100,
  "selected": 3479,
  "morphology": 19476,
  "##ck": 3600,
  "##nick": 13542,
  "[unused583]": 588,
  "predecessors": 16372,
  "pablo": 11623,
  "gee": 20277,
  "membranes": 24972,
  "\u02be": 1147,
  "get": 2131,
  "freddie": 15528,
  "##rries": 26801,
  "sellers": 19041,
  "shoulder": 3244,
  "inhabit": 21490,
  "##nator": 27413,
  "1628": 28627,
  "practised": 20439,
  "latest": 6745,
  "emphasizes": 20618,
  "199": 20713,
  "##gned": 19225,
  "progressive": 6555,
  "50th": 12951,
  "relax": 9483,
  "##born": 10280,
  "commodities": 21955,
  "##las": 8523,
  "cap": 6178,
  "forgiveness": 17213,
  "augustine": 14060,
  "mused": 22335,
  "son": 2365,
  "sinking": 10186,
  "lingered": 17645,
  "[unused621]": 626,
  "circumstances": 6214,
  "lined": 7732,
  "craig": 7010,
  "from": 2013,
  "ipod": 26322,
  "civic": 8388,
  "sale": 5096,
  "nosed": 29338,
  "pantheon": 24152,
  "welding": 23604,
  "horde": 21038,
  "spielberg": 28740,
  "unicef": 29073,
  "intensely": 20531,
  "##\u2071": 30072,
  "\u09ae": 1370,
  "ann": 5754,
  "devoted": 7422,
  "presidency": 8798,
  "nectar": 24816,
  "gunners": 29000,
  "##\u0993": 29888,
  "beam": 7504,
  "##\u7701": 30446,
  "##enia": 19825,
  "ideally": 28946,
  "gomez": 12791,
  "vassal": 24351,
  "##akes": 20060,
  "isabella": 10323,
  "irony": 19728,
  "brest": 22451,
  "crocodile": 21843,
  "switching": 11991,
  "oxfordshire": 20124,
  "okinawa": 15052,
  "scrambling": 25240,
  "slope": 9663,
  "##ware": 8059,
  "##sz": 17112,
  "##\u66f8": 30397,
  "crossed": 4625,
  "oliver": 6291,
  "mansfield": 15352,
  "hinduism": 19632,
  "marshall": 5832,
  "treasurer": 10211,
  "timor": 19746,
  "dominate": 16083,
  "julius": 10396,
  "clarity": 15563,
  "##cp": 21906,
  "duane": 27319,
  "conical": 24750,
  "historical": 3439,
  "##eland": 25689,
  "[unused191]": 196,
  "dose": 13004,
  "baffled": 29088,
  "##tance": 26897,
  "##nio": 27678,
  "##\u65e5": 30390,
  "shootout": 18297,
  "sandwiches": 22094,
  "\u8a01": 1949,
  "authorised": 19256,
  "##rissa": 26571,
  "yards": 4210,
  "laura": 6874,
  "interpret": 17841,
  "##keeping": 18321,
  "complex": 3375,
  "owing": 11427,
  "##\u300e": 30169,
  "##mot": 18938,
  "playwright": 11170,
  "embarrassing": 16436,
  "semester": 13609,
  "chopin": 25479,
  "\u10d0": 1438,
  "complain": 17612,
  "stump": 22475,
  "titles": 4486,
  "overlapping": 20567,
  "rack": 14513,
  "##cts": 16649,
  "make": 2191,
  "reward": 10377,
  "valkyrie": 26696,
  "designs": 5617,
  "judd": 20128,
  "khan": 4967,
  "contemplating": 25247,
  "##\u3064": 30190,
  "bread": 7852,
  "steady": 6706,
  "\u6708": 1872,
  "discussed": 6936,
  "api": 17928,
  "jo": 8183,
  "fidelity": 22625,
  "gabe": 12900,
  "vigor": 24474,
  "spending": 5938,
  "comets": 27138,
  "bram": 20839,
  "blend": 12586,
  "tiffany": 14381,
  "shareholders": 15337,
  "python": 18750,
  "inferior": 14092,
  "method": 4118,
  "##\u5b89": 30346,
  "facebook": 9130,
  "flaming": 19091,
  "1748": 24445,
  "##eca": 19281,
  "obscene": 27744,
  "survives": 13655,
  "dispose": 27764,
  "##nington": 23155,
  "\u0b9a": 1383,
  "navarro": 23524,
  "875": 27658,
  "discarded": 15105,
  "honda": 11990,
  "pride": 6620,
  "angelo": 12262,
  "barefoot": 22985,
  "ministries": 16410,
  "goldman": 17765,
  "##ini": 5498,
  "paper": 3259,
  "gupta": 20512,
  "hinted": 21795,
  "assisted": 7197,
  "##sack": 25607,
  "##lco": 22499,
  "glistening": 25203,
  "alexandria": 10297,
  "drake": 7867,
  "mornings": 16956,
  "##ade": 9648,
  "blasts": 25829,
  "\u2095": 1564,
  "gaston": 18572,
  "##\u0576": 29778,
  "reminding": 15906,
  "[unused66]": 67,
  "fond": 13545,
  "presidents": 11274,
  "designer": 5859,
  "\u56fd": 1799,
  "mateo": 19327,
  "cutler": 24975,
  "comprises": 8681,
  "quoted": 9339,
  "congregational": 20809,
  "into": 2046,
  "##mad": 25666,
  "antigua": 26023,
  "[unused286]": 291,
  "sanchez": 10568,
  "archaeologists": 19254,
  "lowe": 14086,
  "cody": 13326,
  "##25": 17788,
  "[unused5]": 6,
  "politician": 3761,
  "##bey": 19182,
  "##rth": 15265,
  "internet": 4274,
  "##oning": 13369,
  "illustrating": 28252,
  "70s": 17549,
  "sympathy": 11883,
  "##\u03bd": 16177,
  "[unused113]": 118,
  "revolution": 4329,
  "sincerity": 23997,
  "tasting": 18767,
  "toilet": 11848,
  "roderick": 28326,
  "kong": 4290,
  "whichever": 29221,
  "organist": 16397,
  "outlying": 25376,
  "somalia": 14717,
  "brandon": 8825,
  "fulfill": 13883,
  "suited": 10897,
  "##kko": 22426,
  "excuse": 8016,
  "reasonable": 9608,
  "trauma": 12603,
  "mellon": 22181,
  "graded": 21976,
  "##dina": 18979,
  "antiquity": 16433,
  "##\u091c": 29855,
  "##\u5973": 30341,
  "nunez": 28454,
  "burnham": 25295,
  "directorial": 21635,
  "exploitation": 14427,
  "underside": 17313,
  "##\u0e2a": 29956,
  "coins": 7824,
  "documents": 5491,
  "woo": 15854,
  "puff": 23893,
  "nationality": 10662,
  "interrupting": 22602,
  "kenton": 25446,
  "119": 13285,
  "bees": 13734,
  "hilbert": 27434,
  "##ote": 12184,
  "court": 2457,
  "\u535a": 1786,
  "straightening": 27508,
  "##\u208a": 30086,
  "\u03bc": 1166,
  "appears": 3544,
  "nicholas": 6141,
  "trafficking": 11626,
  "##chfield": 22693,
  "output": 6434,
  "programmed": 16984,
  "disgrace": 29591,
  "tombs": 16623,
  "resumed": 7943,
  "paw": 22195,
  "sipping": 24747,
  "rent": 9278,
  "1931": 4739,
  "himalayan": 28333,
  "moors": 24812,
  "disagreement": 18185,
  "homeland": 10759,
  "about": 2055,
  "##hedron": 26440,
  "mclaughlin": 23720,
  "ambush": 15283,
  "foundry": 19853,
  "tugs": 29306,
  "bet": 6655,
  "macau": 16878,
  "locals": 10575,
  "offended": 15807,
  "flutes": 28453,
  "passenger": 4628,
  "##cycle": 23490,
  "##vius": 26055,
  "##\u7684": 30442,
  "##\u062b": 29818,
  "zip": 14101,
  "improvisation": 24584,
  "frigate": 15437,
  "##ciation": 23247,
  "unusually": 12890,
  "eighty": 12021,
  "##sable": 19150,
  "mecca": 21340,
  "sitting": 3564,
  "##enna": 24397,
  "##rret": 27032,
  "diner": 15736,
  "##kali": 28613,
  "sturdy": 23073,
  "coherent": 18920,
  "portage": 25140,
  "avoid": 4468,
  "respectable": 19416,
  "hidalgo": 24715,
  "statutory": 15201,
  "clothes": 4253,
  "believes": 7164,
  "sparked": 13977,
  "mvp": 12041,
  "primate": 25662,
  "[unused914]": 919,
  "_": 1035,
  "choice": 3601,
  "distinctions": 25995,
  "##idia": 29342,
  "external": 6327,
  "disease": 4295,
  "host": 3677,
  "sabbath": 19546,
  "##sm": 6491,
  "cam": 11503,
  "parkway": 12602,
  "protein": 5250,
  "um": 8529,
  "paisley": 23321,
  "bergman": 24544,
  "interrupt": 17938,
  "maximal": 29160,
  "##wer": 13777,
  "##rbin": 27366,
  "hacked": 28719,
  "##sha": 7377,
  "mouthful": 28462,
  "##nza": 16786,
  "uncomfortably": 22502,
  "##ations": 10708,
  "prize": 3396,
  "boring": 11771,
  "[unused641]": 646,
  "##xia": 14787,
  "vineyards": 20597,
  "populace": 22508,
  "##:": 29627,
  "mccain": 19186,
  "iphone": 18059,
  "##yman": 17906,
  "##ron": 4948,
  "rabbits": 20403,
  "\u0289": 1131,
  "##\u05d9": 29796,
  "1624": 28531,
  "\u4eba": 1756,
  "maharaja": 21609,
  "cu": 12731,
  "downward": 14047,
  "##cl": 20464,
  "beaten": 7854,
  "holm": 28925,
  "another": 2178,
  "curving": 21439,
  "[unused484]": 489,
  "tracker": 27080,
  "distracting": 25012,
  "ljubljana": 21588,
  "[unused815]": 820,
  "weakening": 22031,
  "embankment": 22756,
  "##ke": 3489,
  "##hedral": 27310,
  "ho": 7570,
  "109": 11518,
  "proportion": 10817,
  "fitzroy": 21870,
  "catchment": 22865,
  "reelected": 20847,
  "possessive": 22105,
  "letterman": 26593,
  "##bling": 9709,
  "kiran": 22403,
  "hana": 26048,
  "impaired": 18234,
  "pike": 12694,
  "librarian": 13850,
  "magna": 20201,
  "##dda": 25062,
  "neighborhoods": 11681,
  "firefighters": 21767,
  "##eous": 14769,
  "hallmark": 25812,
  "fumbled": 20054,
  "refuse": 10214,
  "guys": 4364,
  "location": 3295,
  "lindsey": 17518,
  "bitterness": 22364,
  "##riding": 21930,
  "really": 2428,
  "\u098f": 1351,
  "##\uff1f": 30520,
  "attention": 3086,
  "chaired": 12282,
  "kim": 5035,
  "alliance": 4707,
  "1816": 12357,
  "demos": 18267,
  "##nable": 22966,
  "engraver": 27771,
  "marek": 29318,
  "unison": 18732,
  "stream": 5460,
  "dinah": 26562,
  "##\u203f": 30069,
  "public": 2270,
  "humane": 23369,
  "##nti": 16778,
  "\ufb01": 1984,
  "##asco": 28187,
  "denoted": 19537,
  "straightforward": 19647,
  "aberdeen": 12080,
  "wc": 15868,
  "475": 28245,
  "##sun": 19729,
  "##hausen": 13062,
  "[unused258]": 263,
  "iq": 26264,
  "heresy": 28354,
  "retaining": 12823,
  "proclaimed": 10116,
  "fix": 8081,
  "catastrophe": 25539,
  "##\u5408": 30318,
  "benign": 28378,
  "correctional": 20873,
  "york": 2259,
  "myriad": 25028,
  "obeyed": 22665,
  "rising": 4803,
  "ju": 18414,
  "exist": 4839,
  "resolved": 10395,
  "breakdown": 12554,
  "destroying": 9846,
  "[unused398]": 403,
  "rosewood": 29528,
  "tallest": 13747,
  "##user": 20330,
  "##asurable": 28329,
  "reasonably": 16286,
  "ditch": 14033,
  "crimean": 20516,
  "slovak": 12747,
  "stan": 9761,
  "cinematic": 21014,
  "##oum": 24778,
  "##ede": 14728,
  "\u4e45": 1748,
  "tyson": 19356,
  "restructuring": 18322,
  "contribution": 6691,
  "work": 2147,
  "countless": 14518,
  "things": 2477,
  "isabelle": 13942,
  "suffering": 6114,
  "furniture": 7390,
  "melting": 13721,
  "hysterical": 25614,
  "2003": 2494,
  "nurses": 11500,
  "sexes": 21024,
  "laurie": 16450,
  "[unused937]": 942,
  "staircase": 10714,
  "tour": 2778,
  "##head": 4974,
  "riders": 8195,
  "makes": 3084,
  "terra": 14403,
  "purple": 6379,
  "##lined": 18194,
  "\u05e0": 1257,
  "simultaneously": 7453,
  "\u9f8d": 1982,
  "stamford": 22469,
  "pitcher": 8070,
  "##mmy": 18879,
  "practitioners": 14617,
  "awesome": 12476,
  "esq": 25325,
  "mcgee": 22034,
  "##ading": 23782,
  "##avio": 28471,
  "[unused85]": 86,
  "upgrade": 12200,
  "beard": 10154,
  "[unused536]": 541,
  "104": 9645,
  "category": 4696,
  "##\u092e": 29867,
  "gymnasium": 11288,
  "isabel": 11648,
  "vehicle": 4316,
  "##\u116f": 30015,
  "georg": 12062,
  "budgets": 26178,
  "yves": 19687,
  "vaughan": 14461,
  "##gg": 13871,
  "[unused425]": 430,
  "paris": 3000,
  "squat": 26783,
  "\u0989": 1350,
  "missile": 7421,
  "crazed": 28343,
  "##ikh": 28209,
  "hates": 16424,
  "lanes": 10914,
  "aircraft": 2948,
  "persistence": 28297,
  "upcoming": 9046,
  "theorem": 9872,
  "ability": 3754,
  "\u6a39": 1884,
  "wider": 7289,
  "pedestal": 24496,
  "psychiatry": 18420,
  "iran": 4238,
  "[unused157]": 162,
  "bog": 22132,
  "##orescence": 20030,
  "anyone": 3087,
  "di": 4487,
  "developments": 8973,
  "confused": 5457,
  "receiver": 8393,
  "ltd": 5183,
  "cartoon": 9476,
  "\u5e7f": 1842,
  "jared": 8334,
  "##leader": 19000,
  "delilah": 23006,
  "salvation": 12611,
  "protections": 28548,
  "##landa": 24448,
  "##wad": 26016,
  "algorithm": 9896,
  "talbot": 14838,
  "equator": 26640,
  "##\u5409": 30319,
  "marches": 20691,
  "lodges": 26767,
  "housing": 3847,
  "[unused769]": 774,
  "dvds": 22477,
  "##\u209c": 30099,
  "dismissed": 7219,
  "helps": 7126,
  "mechanisms": 10595,
  "yates": 20356,
  "rec": 28667,
  "info": 18558,
  "chancel": 16482,
  "reaper": 19559,
  "generations": 8213,
  "gurney": 25061,
  "cardiff": 10149,
  "snoop": 29044,
  "strapped": 18019,
  "##iko": 12676,
  "##crest": 25313,
  "inscription": 9315,
  "1968": 3380,
  "##bain": 29148,
  "1724": 26423,
  "470": 21064,
  "##heads": 13038,
  "assembled": 9240,
  "watford": 21740,
  "extending": 8402,
  "lured": 26673,
  "baronetcy": 25071,
  "travelers": 15183,
  "orchestrated": 23339,
  "zodiac": 28501,
  "pere": 23976,
  "among": 2426,
  "organizes": 22013,
  "[unused361]": 366,
  "##bbon": 27684,
  "tal": 21368,
  "assigns": 24022,
  "functioning": 12285,
  "taiwanese": 16539,
  "1875": 7466,
  "##iferous": 23930,
  "calming": 23674,
  "conservatoire": 29233,
  "settle": 7392,
  "chimneys": 28885,
  "tap": 11112,
  "\u0915": 1315,
  "dedication": 12276,
  "\u30c1": 1710,
  "plump": 26731,
  "pilasters": 26752,
  "torch": 12723,
  "noah": 7240,
  "[unused311]": 316,
  "deserve": 10107,
  "[unused249]": 254,
  "fatally": 26292,
  "principality": 18018,
  "idea": 2801,
  "##graphic": 14773,
  "coated": 15026,
  "operation": 3169,
  "span": 8487,
  "scanner": 26221,
  "lake": 2697,
  "practically": 8134,
  "curtain": 11002,
  "##ming": 6562,
  "boxes": 8378,
  "nickel": 15519,
  "##rf": 12881,
  "wines": 14746,
  "recording": 3405,
  "earthquake": 8372,
  "torres": 13101,
  "carrie": 13223,
  "marred": 24563,
  "botswana": 19414,
  "runway": 9271,
  "hash": 23325,
  "risking": 26875,
  "pumps": 15856,
  "borrowing": 23733,
  "nokia": 22098,
  "##pc": 15042,
  "##ando": 28574,
  "modulation": 25502,
  "1752": 24736,
  "secrets": 7800,
  "intentions": 11174,
  "dead": 2757,
  "[unused663]": 668,
  "hewitt": 19482,
  "livingstone": 27656,
  "##gation": 12540,
  "##\u00dfe": 17499,
  "rebellion": 7417,
  "licenses": 15943,
  "commander": 3474,
  "temperature": 4860,
  "?": 1029,
  "sustaining": 22663,
  "appropriately": 23263,
  "worcester": 12539,
  "repertory": 21099,
  "##jord": 24876,
  "pathway": 12732,
  "notified": 19488,
  "superhuman": 27061,
  "tend": 7166,
  "hawkins": 13835,
  "##hearted": 27693,
  "celebrations": 12035,
  "ideas": 4784,
  "chopper": 28057,
  "17": 2459,
  "comprehension": 26683,
  "##rdo": 20683,
  "proficiency": 26293,
  "function": 3853,
  "1973": 3381,
  "hammered": 25756,
  "furnishings": 23127,
  "findings": 9556,
  "[unused896]": 901,
  "##lb": 20850,
  "trees": 3628,
  "landon": 20642,
  "truman": 15237,
  "prominent": 4069,
  "empathy": 26452,
  "goodnight": 22708,
  "aisle": 12485,
  "seal": 7744,
  "##loading": 18570,
  "archdeacon": 21742,
  "1718": 26995,
  "[unused792]": 797,
  "reviewing": 15252,
  "wellesley": 25658,
  "\u02b7": 1143,
  "retaliation": 18695,
  "cheat": 21910,
  "##\ufb01": 30510,
  "descending": 15127,
  "becca": 22140,
  "slashed": 23587,
  "juniors": 16651,
  "luigi": 15153,
  "piston": 16733,
  "vertebrae": 25517,
  "shallow": 8467,
  "literary": 4706,
  "murmured": 7152,
  "davenport": 16273,
  "##udy": 20217,
  "##vil": 14762,
  "##aster": 24268,
  "directions": 7826,
  "##\u00b4": 29658,
  "blunt": 14969,
  "captive": 12481,
  "performer": 9256,
  "nothin": 24218,
  "chapels": 24130,
  "##on": 2239,
  "rome": 4199,
  "wallis": 24029,
  "angelica": 19458,
  "lowland": 15234,
  "coats": 15695,
  "cole": 5624,
  "##\u306b": 30194,
  "600": 5174,
  "##tre": 7913,
  "banking": 8169,
  "heel": 12073,
  "##\u6cb3": 30425,
  "##cend": 23865,
  "escape": 4019,
  "sick": 5305,
  "appearing": 6037,
  "tory": 17117,
  "best": 2190,
  "characteristic": 8281,
  "135": 11502,
  "catholic": 3234,
  "\u79cb": 1929,
  "nero": 19212,
  "##chester": 25322,
  "canary": 17154,
  "lars": 16357,
  "evade": 26399,
  "##thes": 24138,
  "##\u5b97": 30347,
  "playful": 18378,
  "sails": 17553,
  "1815": 10679,
  "eyelids": 16544,
  "\u00b5": 1085,
  "hog": 27589,
  "translating": 22969,
  "1910s": 28088,
  "par": 11968,
  "tanned": 25973,
  "sketches": 12741,
  "chapman": 11526,
  "grey": 4462,
  "volcanoes": 23694,
  "surrey": 9948,
  "sides": 3903,
  "tibetan": 11953,
  "doo": 20160,
  "##ener": 24454,
  "td": 14595,
  "252": 22898,
  "further": 2582,
  "##\u6e05": 30429,
  "housekeeper": 22583,
  "churches": 5231,
  "##oko": 16366,
  "##max": 17848,
  "spicy": 25482,
  "calabria": 29430,
  "innate": 25605,
  "cyber": 16941,
  "theft": 11933,
  "adams": 5922,
  "freeman": 11462,
  "fed": 7349,
  "thorne": 14296,
  "##rons": 28212,
  "##ross": 25725,
  "dinosaurs": 18148,
  "280": 13427,
  "ate": 8823,
  "charismatic": 23916,
  "maze": 15079,
  "\u03b2": 1156,
  "##\u03c0": 29731,
  "minas": 21750,
  "joshua": 9122,
  "\u0131": 1104,
  "vols": 18709,
  "sainte": 16947,
  "diverted": 18356,
  "stakes": 7533,
  "##rit": 14778,
  "exempt": 11819,
  "\u0433": 1183,
  "breed": 8843,
  "contempt": 17152,
  "gunfire": 16978,
  "mammoth": 23714,
  "advocates": 13010,
  "claim": 4366,
  "##rook": 25399,
  "hut": 12570,
  "##iza": 21335,
  "pamela": 17217,
  "engage": 8526,
  "tales": 7122,
  "##g": 2290,
  "mann": 10856,
  "tao": 20216,
  "##quay": 25575,
  "nikolai": 13870,
  "movement": 2929,
  "##ality": 23732,
  "maurice": 7994,
  "suns": 19352,
  "auditor": 20964,
  "corinne": 26879,
  "##ches": 8376,
  "synonym": 10675,
  "##owski": 15249,
  "kala": 26209,
  "elm": 17709,
  "clubhouse": 22067,
  "##phic": 17926,
  "##\u0570": 29775,
  "tianjin": 26216,
  "##ags": 26454,
  "founded": 2631,
  "march": 2233,
  "gaped": 23832,
  "##iating": 15370,
  "##dant": 28210,
  "transformation": 8651,
  "prejudice": 18024,
  "tobin": 28096,
  "amtrak": 20208,
  "identifying": 12151,
  "holdings": 9583,
  "##elis": 29282,
  "[unused821]": 826,
  "blindly": 25734,
  "##vat": 22879,
  "rendezvous": 20558,
  "heavenly": 16581,
  "##inski": 19880,
  "beliefs": 9029,
  "##chman": 19944,
  "contact": 3967,
  "brandenburg": 16426,
  "pulled": 2766,
  "jailed": 21278,
  "##zee": 23940,
  "miniature": 12973,
  "reiterated": 28960,
  "[unused733]": 738,
  "##df": 20952,
  "cheerleading": 25721,
  "absorption": 16326,
  "##for": 29278,
  "benevolent": 25786,
  "requirements": 5918,
  "[unused600]": 605,
  "revered": 23886,
  "bournemouth": 22882,
  "kidnapping": 15071,
  "gracie": 19005,
  "1857": 8204,
  "christophe": 23978,
  "night": 2305,
  "##db": 18939,
  "cord": 11601,
  "referenced": 14964,
  "intricate": 17796,
  "airmen": 29437,
  "giggling": 21783,
  "minds": 9273,
  "kept": 2921,
  "802": 23908,
  "\u3078": 1675,
  "el": 3449,
  "gazette": 11391,
  "initiated": 7531,
  "st": 2358,
  "synthesizer": 13564,
  "pilgrims": 17992,
  "##\u5065": 30294,
  "fuse": 19976,
  "##np": 16275,
  "102": 9402,
  "[unused19]": 20,
  "festivals": 7519,
  "56th": 29087,
  "shell": 5806,
  "edinburgh": 5928,
  "##my": 8029,
  "##nia": 6200,
  "cereal": 20943,
  "[unused499]": 504,
  "chuckled": 10252,
  "##uin": 20023,
  "##tos": 13122,
  "kat": 10645,
  "##\u8279": 30465,
  "##hone": 27406,
  "conservatory": 11879,
  "[unused866]": 871,
  "thicker": 19638,
  "distraught": 25348,
  "negotiations": 7776,
  "mane": 23055,
  "sued": 12923,
  "##rvis": 29074,
  "worldwide": 4969,
  "\u02c8": 1149,
  "yellowstone": 29231,
  "toro": 23790,
  "clad": 13681,
  "##eke": 23941,
  "##ah": 4430,
  "spaced": 19835,
  "wash": 9378,
  "lease": 10084,
  "mythology": 11327,
  "malik": 14360,
  "2000s": 8876,
  "##nor": 12131,
  "jewellery": 21545,
  "##lei": 23057,
  "publisher": 6674,
  "creating": 4526,
  "rhythms": 17900,
  "##iction": 28097,
  "synchronized": 25549,
  "pictured": 15885,
  "##bius": 17028,
  "allegations": 9989,
  "partition": 13571,
  "atomic": 9593,
  "##nity": 22758,
  "##ating": 5844,
  "\u30c6": 1713,
  "sentence": 6251,
  "##date": 13701,
  "mausoleum": 19049,
  "##inn": 23111,
  "##gi": 5856,
  "[unused12]": 13,
  "named": 2315,
  "locomotives": 7830,
  "horned": 26808,
  "organize": 10939,
  "irrelevant": 22537,
  "sol": 14017,
  "macdonald": 10406,
  "uruguayan": 23464,
  "mtv": 8692,
  "shimmering": 22349,
  "rations": 29559,
  "##ening": 7406,
  "sail": 9498,
  "##ausen": 25701,
  "appointments": 14651,
  "limb": 15291,
  "treatments": 13441,
  "##oja": 22918,
  "mistake": 6707,
  "blows": 13783,
  "drummer": 7101,
  "snuggled": 26867,
  "##umi": 12717,
  "respected": 9768,
  "astrid": 27376,
  "haunt": 24542,
  "erected": 7019,
  "azerbaijani": 18325,
  "unknown": 4242,
  "##uce": 18796,
  "smoked": 20482,
  "emails": 22028,
  "##\u2098": 30096,
  "reaches": 6561,
  "##ssler": 23385,
  "discovery": 5456,
  "brent": 12895,
  "whose": 3005,
  "barnet": 26864,
  "strolled": 20354,
  "##\u30e3": 30254,
  "##\u0252": 29678,
  "highlanders": 22672,
  "\u045a": 1216,
  "\u221a": 1600,
  "cradle": 18293,
  "cries": 12842,
  "\u76f8": 1919,
  "##nni": 23500,
  "curve": 7774,
  "##phs": 18757,
  "license": 6105,
  "##\u65b0": 30388,
  "nikita": 29106,
  "warmth": 8251,
  "telescopes": 28026,
  "##ller": 10820,
  "considered": 2641,
  "##fat": 27753,
  "administration": 3447,
  "assert": 20865,
  "implant": 27159,
  "unauthorized": 24641,
  "[unused959]": 964,
  "##bad": 9024,
  "##hir": 11961,
  "##20": 11387,
  "rican": 13641,
  "higgins": 13466,
  "guido": 20239,
  "460": 17267,
  "reef": 12664,
  "opposing": 10078,
  "##te": 2618,
  "bricks": 14219,
  "bedroom": 5010,
  "cutter": 16343,
  "kuala": 15490,
  "gathering": 7215,
  "romanian": 7056,
  "vaults": 28658,
  "os": 9808,
  "imaging": 12126,
  "goodwill": 22875,
  "a1": 17350,
  "nuclei": 23767,
  "dmitry": 22141,
  "lavender": 20920,
  "focus": 3579,
  "##mc": 12458,
  "dismantled": 17293,
  "taiwan": 6629,
  "##ms": 5244,
  "maccabi": 24055,
  "ankle": 10792,
  "guts": 18453,
  "nu": 16371,
  "[unused337]": 342,
  "nassau": 14646,
  "bones": 5944,
  "rich": 4138,
  "nestled": 22704,
  "reinforcement": 23895,
  "##phones": 19093,
  "richer": 26108,
  "receptions": 16466,
  "curtis": 9195,
  "##real": 22852,
  "cuthbert": 24583,
  "##\u0642": 29834,
  "##eres": 18702,
  "##nstein": 15493,
  "apparently": 4593,
  "##uber": 21436,
  "##ndi": 16089,
  "sahara": 19604,
  "1704": 27769,
  "constantine": 12790,
  "ufo": 24321,
  "psalm": 22728,
  "unity": 8499,
  "agriculture": 5237,
  "frames": 11048,
  "salisbury": 13817,
  "mika": 27857,
  "import": 12324,
  "##nis": 8977,
  "##mba": 11201,
  "beyond": 3458,
  "dartmouth": 16960,
  "hits": 4978,
  "bentley": 15988,
  "##ments": 8163,
  "##\u0989": 29886,
  "tapes": 13324,
  "realms": 18814,
  "##omy": 16940,
  "betray": 20895,
  "porter": 8716,
  "villains": 16219,
  "paranoid": 19810,
  "##ans": 6962,
  "##nae": 17452,
  "bulbs": 25548,
  "nice": 3835,
  "understands": 19821,
  "260": 13539,
  "##rka": 22379,
  "1830s": 20400,
  "suzuki": 14278,
  "##zow": 22670,
  "floats": 24885,
  "\u2078": 1542,
  "client": 7396,
  "reno": 17738,
  "forte": 24898,
  "absurd": 18691,
  "translit": 28468,
  "attachment": 14449,
  "alam": 26234,
  "henrik": 18745,
  "parliament": 3323,
  "##\u03b6": 29724,
  "##hue": 20169,
  "##ball": 7384,
  "mammals": 11993,
  "##\u098f": 29887,
  "emitted": 22627,
  "compact": 9233,
  "birch": 16421,
  "tee": 17170,
  "commissioners": 12396,
  "##far": 14971,
  "forces": 2749,
  "\u044d": 1208,
  "\u7592": 1913,
  "mission": 3260,
  "av": 20704,
  "##nsed": 27730,
  "[unused419]": 424,
  "shropshire": 19322,
  "\u091f": 1320,
  "mastery": 26364,
  "martins": 19953,
  "raids": 11217,
  "marlene": 26921,
  "fable": 28458,
  "seventeenth": 15425,
  "drawers": 22497,
  "gigs": 20929,
  "##xt": 18413,
  "orb": 19607,
  "##aer": 27867,
  "racing": 3868,
  "varied": 9426,
  "galleries": 11726,
  "1570": 28881,
  "##nare": 26148,
  "emptied": 21764,
  "##ographic": 13705,
  "cindy": 15837,
  "mat": 13523,
  "tub": 14366,
  "met": 2777,
  "enlist": 28845,
  "##pm": 9737,
  "titled": 4159,
  "stuff": 4933,
  "##ische": 13719,
  "hybrids": 23376,
  "much": 2172,
  "[unused529]": 534,
  "\u062b": 1274,
  "taxa": 23726,
  "##ario": 16843,
  "superfamily": 24169,
  "carriers": 11363,
  "pilgrimage": 14741,
  "##pur": 5311,
  "grange": 18203,
  "stroked": 11699,
  "prostate": 25086,
  "##\u52a0": 30305,
  "injustice": 21321,
  "prescribed": 16250,
  "##\u0580": 29784,
  "encounter": 8087,
  "slash": 18296,
  "gram": 13250,
  "expertise": 11532,
  "##\u53f8": 30317,
  "constitutional": 6543,
  "##lem": 16930,
  "##rma": 17830,
  "nostalgia": 26968,
  "nautical": 11339,
  "constructive": 26157,
  "track": 2650,
  "framed": 10366,
  "nan": 16660,
  "nominally": 24207,
  "conspicuous": 19194,
  "##port": 6442,
  "estrada": 26482,
  "packing": 14743,
  "frost": 10097,
  "\u0580": 1237,
  "liner": 11197,
  "flickered": 15999,
  "##vina": 17948,
  "##dget": 24291,
  "gambia": 26728,
  "darkening": 27862,
  "jeff": 5076,
  "lab": 6845,
  "##dote": 23681,
  "##vis": 11365,
  "crews": 10604,
  "120": 6036,
  "ba": 8670,
  "determining": 12515,
  "entitled": 4709,
  "##ggles": 24989,
  "1769": 20663,
  "##\u03b9\u03b1": 27432,
  "venture": 6957,
  "##\u767d": 30441,
  "##gne": 10177,
  "##uil": 19231,
  "punt": 18975,
  "overboard": 27089,
  "cleopatra": 22003,
  "##mind": 23356,
  "##\u208e": 30088,
  "mortgage": 14344,
  "mcleod": 25363,
  "305": 20405,
  "severely": 8949,
  "100th": 16919,
  "appreciate": 9120,
  "##grants": 27444,
  "[unused562]": 567,
  "termination": 18287,
  "shanghai": 8344,
  "twenties": 18946,
  "##et": 3388,
  "##chan": 14856,
  "##rup": 21531,
  "nanny": 19174,
  "affiliates": 18460,
  "##onga": 26356,
  "dial": 13764,
  "structural": 8332,
  "helen": 6330,
  "bertrand": 20586,
  "##national": 25434,
  "onstage": 23542,
  "explicitly": 12045,
  "criticizing": 21289,
  "metro": 6005,
  "jerking": 22387,
  "##orous": 25373,
  "##media": 16969,
  "##utable": 23056,
  "eighteen": 7763,
  "rodrigo": 18943,
  "federico": 20493,
  "lethal": 12765,
  "pang": 20657,
  "lt": 8318,
  "vernon": 11447,
  "calm": 5475,
  "pickup": 15373,
  "poe": 18922,
  "ended": 3092,
  "mon": 12256,
  "aristotle": 17484,
  "sud": 19219,
  "unclear": 10599,
  "europeans": 13481,
  "ticket": 7281,
  "princeton": 9173,
  "dale": 8512,
  "##nl": 20554,
  "represented": 3421,
  "1963": 3699,
  "devi": 14386,
  "##sche": 22842,
  "haul": 14655,
  "monastic": 17361,
  "##\u00a2": 29645,
  "film": 2143,
  "dane": 14569,
  "burning": 5255,
  "numbering": 15200,
  "exploration": 8993,
  "302": 22060,
  "what": 2054,
  "##cial": 13247,
  "decisive": 13079,
  "##\u2070": 30071,
  "sony": 8412,
  "constituency": 5540,
  "##urance": 25863,
  "scott": 3660,
  "isaac": 7527,
  "luc": 12776,
  "##nk": 8950,
  "character": 2839,
  "delicate": 10059,
  "sarcasm": 20954,
  "veracruz": 23741,
  "[unused578]": 583,
  "classified": 6219,
  "169": 18582,
  "trimmed": 21920,
  "rang": 8369,
  "notch": 18624,
  "cavendish": 23570,
  "rhineland": 21640,
  "loch": 14941,
  "##laya": 22923,
  "convection": 23849,
  "[unused772]": 777,
  "##fy": 12031,
  "groan": 13001,
  "laos": 15786,
  "savannah": 10891,
  "fordham": 27302,
  "elites": 27021,
  "rest": 2717,
  "conducts": 17976,
  "##lie": 8751,
  "whispered": 3990,
  "##viere": 27087,
  "##uring": 12228,
  "fia": 19807,
  "ballet": 7250,
  "ambition": 16290,
  "of": 1997,
  "merit": 7857,
  "reborn": 24910,
  "hyundai": 25983,
  "include": 2421,
  "liberty": 7044,
  "questioned": 8781,
  "##buck": 24204,
  "urgently": 25478,
  "papacy": 25097,
  "##tarian": 28897,
  "paddle": 20890,
  "theta": 23963,
  "##lous": 15534,
  "offering": 5378,
  "proto": 15053,
  "illustrated": 7203,
  "implication": 25323,
  "\u3009": 1638,
  "musica": 21137,
  "##icular": 21412,
  "promise": 4872,
  "terminal": 5536,
  "##oga": 18170,
  "lucha": 25390,
  "##\u09a1": 29896,
  "sorrow": 14038,
  "[unused420]": 425,
  "roman": 3142,
  "\u5742": 1803,
  "whig": 21632,
  "##corp": 24586,
  ">": 1028,
  "##bala": 25060,
  "##ister": 12911,
  "\u03bd": 1167,
  "##yler": 20853,
  "argue": 7475,
  "##rud": 28121,
  "stamp": 11359,
  "cured": 21391,
  "##rrigan": 28706,
  "infused": 29592,
  "sets": 4520,
  "entertaining": 14036,
  "relying": 18345,
  "##urse": 28393,
  "##eo": 8780,
  "##tree": 13334,
  "circuits": 13782,
  "finalists": 13527,
  "brenda": 15507,
  "rash": 23438,
  "pak": 22190,
  "simulation": 12504,
  "phosphorus": 25473,
  "\u2218": 1599,
  "ram": 8223,
  "starving": 18025,
  "causeway": 23336,
  "concacaf": 22169,
  "cornice": 27848,
  "reverend": 10547,
  "hardly": 6684,
  "leaked": 15748,
  "viii": 9937,
  "declaration": 8170,
  "distract": 15886,
  "##\u02bf": 29714,
  "chronic": 11888,
  "##\u516b": 30297,
  "attested": 18470,
  "gonzalez": 10121,
  "centuries": 4693,
  "lettering": 25782,
  "##sner": 20479,
  "mechanized": 23387,
  "baronet": 8693,
  "##bell": 17327,
  "too": 2205,
  "high": 2152,
  "customer": 8013,
  "kangaroo": 21652,
  "substrate": 16305,
  "'": 1005,
  "##\u91d1": 30490,
  "lion": 7006,
  "##\u30c1": 30236,
  "glaring": 16124,
  "thousands": 5190,
  "perished": 23181,
  "##der": 4063,
  "caliber": 15977,
  "fifty": 5595,
  "[unused934]": 939,
  "##a1": 27717,
  "extravagant": 27856,
  "\u30ed": 1735,
  "338": 27908,
  "criminals": 12290,
  "##mos": 15530,
  "##onate": 21149,
  "##ppet": 29519,
  "assam": 15181,
  "##ete": 12870,
  "[unused930]": 935,
  "blank": 8744,
  "[unused985]": 990,
  "revived": 10570,
  "\u0f0b": 1424,
  "viking": 12886,
  "demonstrate": 10580,
  "##eon": 10242,
  "sportsman": 27168,
  "deputies": 11964,
  "grunted": 14922,
  "##hp": 22269,
  "##sis": 6190,
  "painful": 9145,
  "uniforms": 11408,
  "hampson": 21780,
  "laughter": 7239,
  "review": 3319,
  "councillor": 10674,
  "humanist": 24464,
  "danzig": 26669,
  "##jm": 24703,
  "##nction": 27989,
  "tortured": 12364,
  "stella": 11894,
  "1969": 3440,
  "\u0935": 1335,
  "vhs": 17550,
  "conference": 3034,
  "underworld": 13607,
  "tasted": 12595,
  "sentimental": 23069,
  "##gna": 16989,
  "honoring": 21494,
  "##r": 2099,
  "casket": 25864,
  "phase": 4403,
  "almost": 2471,
  "macintosh": 22228,
  "vila": 23840,
  "lithium": 22157,
  "raided": 18784,
  "vanuatu": 27625,
  "breakout": 25129,
  "township": 3545,
  "cantonese": 22241,
  "diversified": 24908,
  "maui": 28566,
  "##cs": 6169,
  "encircled": 25759,
  "immigrated": 17352,
  "thug": 26599,
  "archival": 22796,
  "penetrate": 19136,
  "wool": 12121,
  "carlo": 9758,
  "cyclones": 26069,
  "levant": 24485,
  "\u8c37": 1951,
  "pilot": 4405,
  "##\u5929": 30337,
  "cock": 10338,
  "onto": 3031,
  "nicolas": 9473,
  "db": 16962,
  "intuitive": 29202,
  "regulating": 21575,
  "footage": 8333,
  "[unused372]": 377,
  "\u00bb": 1090,
  "hyper": 23760,
  "##mbre": 19908,
  "taunting": 29442,
  "calmed": 20869,
  "interactions": 10266,
  "\uff01": 1986,
  "fifteenth": 16249,
  "stilled": 22791,
  "onion": 20949,
  "helens": 24074,
  "mukherjee": 27040,
  "democrats": 8037,
  "spotlight": 17763,
  "[unused516]": 521,
  "\u00a31": 14534,
  "##\u0f42": 29962,
  "bipolar": 29398,
  "shipments": 24636,
  "dangers": 16796,
  "##rin": 6657,
  "older": 3080,
  "princely": 22771,
  "[unused473]": 478,
  "26th": 14935,
  "kickoff": 25233,
  "313": 22997,
  "jeopardy": 26604,
  "connell": 17199,
  "maple": 11035,
  "##\u2030": 30065,
  "buckled": 26368,
  "downhill": 19448,
  "##zzling": 20838,
  "##ac": 6305,
  "\u6cbb": 1900,
  "[unused935]": 940,
  "mask": 7308,
  "stimuli": 22239,
  "##brate": 22008,
  "grip": 6218,
  "tehran": 13503,
  "sapphire": 21965,
  "splits": 19584,
  "lincolnshire": 16628,
  "intimately": 29024,
  "boss": 5795,
  "sought": 4912,
  "fiddle": 15888,
  "fragmentation": 28424,
  "cuff": 26450,
  "contexts": 18046,
  "apologetic": 29352,
  "negatively": 19762,
  "uno": 27776,
  "##jing": 29518,
  "\u51fa": 1774,
  "peak": 4672,
  "idol": 10282,
  "##bbled": 12820,
  "[unused436]": 441,
  "thru": 27046,
  "duran": 22959,
  "1885": 6571,
  "system": 2291,
  "##lf": 10270,
  "[unused961]": 966,
  "shows": 3065,
  "##aco": 22684,
  "wards": 11682,
  "crosby": 14282,
  "widows": 24835,
  "aging": 12520,
  "selection": 4989,
  "bean": 14068,
  "##rao": 25667,
  "attempt": 3535,
  "##\u4ee3": 30286,
  "##org": 21759,
  "argentine": 8511,
  "lilly": 14765,
  "competitors": 10159,
  "prefix": 17576,
  "##\uff08": 30513,
  "##\u025b": 29275,
  "masonic": 21152,
  "##otto": 23052,
  "##\u2032": 30066,
  "mates": 14711,
  "##\u308c": 30214,
  "honourable": 17164,
  "mill": 4971,
  "##\u9ad8": 30507,
  "marries": 19941,
  "##held": 24850,
  "mimi": 20705,
  "skipped": 16791,
  "window": 3332,
  "smallpox": 25765,
  "spark": 12125,
  "##cured": 19405,
  "[unused918]": 923,
  "[unused689]": 694,
  "overgrown": 26433,
  "disorder": 8761,
  "trojan": 23445,
  "grim": 11844,
  "castle": 3317,
  "##\u1d43": 30032,
  "\u044f": 1210,
  "##idi": 28173,
  "##ica": 5555,
  "##bf": 29292,
  "!": 999,
  "guiding": 14669,
  "holly": 9079,
  "welded": 29014,
  "skate": 17260,
  "alliances": 21277,
  "##\uff1a": 30519,
  "mata": 22640,
  "patna": 29565,
  "columbia": 3996,
  "geoffrey": 11023,
  "##\u0459": 29762,
  "energies": 19320,
  "fashionable": 19964,
  "disagreed": 18335,
  "dixon": 11357,
  "##tails": 22081,
  "##\u00b7": 29661,
  "hairy": 15892,
  "modification": 14080,
  "##ification": 9031,
  "uci": 14504,
  "steelers": 15280,
  "[unused302]": 307,
  "frederick": 5406,
  "ceylon": 16447,
  "[unused693]": 698,
  "desperate": 7143,
  "shredded": 29022,
  "connects": 8539,
  "##rug": 26549,
  "cartridge": 15110,
  "bangs": 28490,
  "sul": 21396,
  "ric": 26220,
  "hovered": 18190,
  "durable": 25634,
  "spread": 3659,
  "[unused408]": 413,
  "##\u2044\u2084": 27392,
  "latino": 7402,
  "##rro": 18933,
  "voyage": 8774,
  "hosting": 9936,
  "cartoonist": 19659,
  "32": 3590,
  "160": 8148,
  "burma": 11050,
  "successors": 18530,
  "derivation": 29280,
  "texans": 23246,
  "nineteen": 11977,
  "merger": 7660,
  "turbo": 15386,
  "##\u00be": 29665,
  "considerations": 16852,
  "saline": 28413,
  "\u4e95": 1754,
  "aboriginal": 9757,
  "##minate": 19269,
  "gills": 29468,
  "grams": 20372,
  "plumbing": 27902,
  "tres": 24403,
  "members": 2372,
  "heaviest": 26858,
  "\u0280": 1127,
  "threatened": 5561,
  "##kan": 9126,
  "riaa": 22716,
  "stealing": 11065,
  "##pkins": 29531,
  "##ril": 15928,
  "hawker": 23937,
  "priestess": 27677,
  "intentionally": 15734,
  "mn": 24098,
  "who": 2040,
  "purely": 11850,
  "##ragan": 28905,
  "##yles": 26274,
  "scored": 3195,
  "inmate": 24467,
  "##\u1d57": 30041,
  "##rg": 10623,
  "howard": 4922,
  "migrant": 20731,
  "rubber": 8903,
  "[unused648]": 653,
  "##haw": 14238,
  "bae": 25818,
  "##lts": 21593,
  "prism": 26113,
  "taps": 25316,
  "##kou": 24861,
  "prohibit": 23469,
  "##enas": 26474,
  "wickets": 10370,
  "thick": 4317,
  "rudder": 24049,
  "envisioned": 18035,
  "lineman": 24062,
  "seoul": 10884,
  "loss": 3279,
  "caucasus": 16512,
  "hardware": 8051,
  "appropriated": 29223,
  "##\u0909": 29849,
  "\u30b9": 1707,
  "react": 10509,
  "hauled": 13161,
  "[unused882]": 887,
  "reflecting": 10842,
  "##ilo": 22360,
  "tilted": 9939,
  "southampton": 11833,
  "##fied": 10451,
  "metre": 7924,
  "elegance": 27745,
  "##eck": 11012,
  "investigate": 8556,
  "##yo": 7677,
  "##kins": 14322,
  "messina": 27270,
  "action": 2895,
  "worsened": 27622,
  "hub": 9594,
  "fourth": 2959,
  "pouring": 13053,
  "[unused840]": 845,
  "296": 27200,
  "slovenian": 16583,
  "era": 3690,
  "ambassadors": 20986,
  "131": 14677,
  "bryant": 12471,
  "##oche": 23555,
  "developer": 9722,
  "gail": 18576,
  "1632": 28216,
  "bomber": 9472,
  "scenes": 5019,
  "bloody": 6703,
  "##tya": 21426,
  "enterprises": 9926,
  "trajectory": 22793,
  "teammate": 10809,
  "tasked": 13487,
  "flinched": 19201,
  "slowing": 18068,
  "flinch": 23224,
  "ramsey": 15092,
  "[unused373]": 378,
  "minh": 19538,
  "##\u1174": 30018,
  "\u110e": 1465,
  "heavier": 11907,
  "cassandra": 15609,
  "overlap": 17702,
  "golden": 3585,
  "classroom": 9823,
  "mandolin": 17687,
  "foods": 9440,
  "connection": 4434,
  "ethel": 19180,
  "assets": 7045,
  "debate": 5981,
  "downtown": 5116,
  "indicted": 21801,
  "##dav": 29045,
  "narrowly": 11866,
  "invoked": 24959,
  "representations": 15066,
  "##ina": 3981,
  "viable": 14874,
  "##\u110e": 30001,
  "ear": 4540,
  "rochester": 10541,
  "ya": 8038,
  "##\u5c71": 30357,
  "marriott": 26490,
  "anchorage": 21086,
  "betting": 19244,
  "ios": 16380,
  "percent": 3867,
  "cremated": 28376,
  "nuclear": 4517,
  "##rise": 29346,
  "makeup": 5789,
  "performed": 2864,
  "##mut": 28120,
  "constituent": 13794,
  "##erate": 22139,
  "psalms": 26130,
  "pierced": 16276,
  "registrar": 24580,
  "thirteen": 7093,
  "teachers": 5089,
  "parents": 3008,
  "lucivar": 21401,
  "totaling": 21798,
  "##color": 18717,
  "segregated": 24382,
  "ali": 4862,
  "\u5b87": 1819,
  "legislation": 6094,
  "##cast": 10526,
  "basis": 3978,
  "discount": 19575,
  "leith": 29011,
  "galloway": 22372,
  "unwanted": 18162,
  "hesitate": 16390,
  "abilities": 7590,
  "braced": 15515,
  "analyst": 12941,
  "utilize": 16462,
  "fujian": 29551,
  "##80": 17914,
  "unlike": 4406,
  "225": 14993,
  "reads": 9631,
  "starters": 29400,
  "role": 2535,
  "[unused864]": 869,
  "##kshi": 27488,
  "revolt": 10073,
  "skies": 15717,
  "##athing": 22314,
  "##eb": 15878,
  "##ios": 10735,
  "happy": 3407,
  "tna": 20108,
  "assessments": 20794,
  "erosion": 14173,
  "ions": 15956,
  "##\u0dba": 29940,
  "naive": 15743,
  "[unused58]": 59,
  "experimented": 20918,
  "remote": 6556,
  "vicente": 17280,
  "retreat": 7822,
  "\u0252": 1111,
  "canterbury": 9976,
  "stored": 8250,
  "school": 2082,
  "courthouse": 10816,
  "hardcore": 13076,
  "##\u7af9": 30459,
  "##12": 12521,
  "sinn": 26403,
  "bilingual": 17636,
  "craft": 7477,
  "1839": 10011,
  "\u0e23": 1417,
  "##wyl": 27740,
  "horizons": 24484,
  "lakshmi": 21352,
  "november": 2281,
  "coach": 2873,
  "breath": 3052,
  "albion": 13392,
  "##guide": 28582,
  "##cian": 14483,
  "tides": 22487,
  "\u03bf": 1169,
  "construct": 9570,
  "forearm": 16148,
  "ethanol": 22886,
  "broken": 3714,
  "fiscal": 10807,
  "enfield": 25821,
  "nineteenth": 9137,
  "vendor": 21431,
  "extreme": 6034,
  "vista": 13005,
  "rag": 17768,
  "integer": 16109,
  "opaque": 28670,
  "professorship": 22661,
  "cathedral": 5040,
  "scuba": 28651,
  "[unused592]": 597,
  "cfa": 28125,
  "##lund": 18028,
  "\u5bae": 1824,
  "renaissance": 8028,
  "darted": 14051,
  "##itic": 18291,
  "consume": 16678,
  "norman": 5879,
  "madonna": 11284,
  "minister": 2704,
  "taluk": 23140,
  "later": 2101,
  "labour": 4428,
  "kelsey": 21004,
  "##hei": 26036,
  "headquartered": 9403,
  "marquess": 17391,
  "represent": 5050,
  "barre": 23189,
  "cbe": 15852,
  "purpose": 3800,
  "##sons": 23345,
  "##ttes": 14581,
  "cramped": 22766,
  "dynasty": 5321,
  "reagan": 11531,
  "##che": 5403,
  "grasses": 21620,
  "##insky": 20894,
  "##\u9752": 30501,
  "flower": 6546,
  "australia": 2660,
  "investigative": 15025,
  "rewards": 19054,
  "undertake": 16617,
  "##gum": 22850,
  "outing": 26256,
  "remark": 17674,
  "sf": 16420,
  "suspected": 6878,
  "pedestrians": 24946,
  "collecting": 9334,
  "discouraged": 22585,
  "platform": 4132,
  "##taking": 17904,
  "##eborg": 27614,
  "##zu": 9759,
  "##col": 25778,
  "natasha": 17399,
  "reece": 24227,
  "vastly": 24821,
  "##otho": 29288,
  "persist": 29486,
  "\u4e00": 1740,
  "##tore": 19277,
  "shades": 13178,
  "note": 3602,
  "wrapping": 12252,
  "foolish": 13219,
  "##osity": 25949,
  "pronouns": 26028,
  "450": 10332,
  "healthcare": 9871,
  "sparkle": 26831,
  "tess": 15540,
  "debuts": 26740,
  "marxism": 27255,
  "observers": 14009,
  "##\u026f": 29688,
  "oricon": 22237,
  "3d": 7605,
  "rite": 14034,
  "\u2ea9": 1632,
  "gatherings": 21403,
  "transylvania": 20816,
  "probe": 15113,
  "##wari": 20031,
  "powell": 8997,
  "##ratic": 23671,
  "textual": 25304,
  "postage": 22981,
  "gary": 5639,
  "novelty": 21160,
  "reed": 7305,
  "williamson": 14333,
  "acton": 28794,
  "finland": 6435,
  "lexington": 14521,
  "spire": 19823,
  "diplomacy": 17610,
  "##raine": 26456,
  "killers": 15978,
  "differs": 12980,
  "chile": 7029,
  "rusty": 13174,
  "##sp": 13102,
  "concentrating": 16966,
  "transcript": 24051,
  "[unused594]": 599,
  "\u7ae0": 1932,
  "trade": 3119,
  "guarded": 13802,
  "burundi": 28836,
  "backside": 25065,
  "##crow": 24375,
  "upstream": 13909,
  "##ae": 6679,
  "stationary": 17337,
  "retire": 11036,
  "##vill": 26548,
  "archers": 23118,
  "jamestown": 27435,
  "taekwondo": 28529,
  "rapidly": 5901,
  "##ace": 10732,
  "##vs": 15088,
  "whisky": 21265,
  "##ryl": 23320,
  "invites": 18675,
  "suspects": 13172,
  "collegiate": 9234,
  "##lm": 13728,
  "##thorpe": 22398,
  "puget": 27879,
  "klein": 12555,
  "franz": 8965,
  "bridgeport": 27986,
  "##zos": 28370,
  "##our": 8162,
  "participant": 13180,
  "##polis": 17699,
  "##gang": 24930,
  "baritone": 14458,
  "hurdles": 18608,
  "356": 27509,
  "discusses": 15841,
  "##riders": 28116,
  "assumes": 15980,
  "wheels": 7787,
  "##saka": 29289,
  "##tenberg": 21806,
  "azerbaijan": 8365,
  "laden": 14887,
  "woody": 13703,
  "##kken": 24192,
  "behavioral": 14260,
  "cleric": 29307,
  "shiva": 12535,
  "cheltenham": 18763,
  "champions": 3966,
  "wilkes": 20635,
  "ulrich": 19619,
  "cross": 2892,
  "kelly": 5163,
  "##gat": 20697,
  "\u00a7": 1073,
  "##ico": 11261,
  "perfume": 17013,
  "wept": 24966,
  "directorate": 13634,
  "##10": 10790,
  "gulp": 26546,
  "carter": 5708,
  "panel": 5997,
  "eleven": 5408,
  "arenas": 26434,
  "tropical": 5133,
  "estranged": 24211,
  "a2": 22441,
  "arises": 18653,
  "ode": 24040,
  "##boats": 19468,
  "mara": 13955,
  "raced": 8255,
  "rwanda": 17591,
  "imitation": 20017,
  "##nary": 24041,
  "astronomer": 15211,
  "inversion": 28527,
  "tyres": 24656,
  "thrash": 27042,
  "afb": 16909,
  "estate": 3776,
  "why": 2339,
  "vowels": 15260,
  "##ike": 17339,
  "emmett": 25685,
  "flicking": 26259,
  "renault": 14605,
  "medals": 6665,
  "##uni": 19496,
  "musically": 21385,
  "masters": 5972,
  "threatens": 17016,
  "nap": 18996,
  "amalgamated": 17143,
  "toxicity": 22423,
  "chesterfield": 22699,
  "elevator": 7764,
  "1955": 3982,
  "##\u590f": 30334,
  "dagger": 10794,
  "genealogy": 26684,
  "curses": 23897,
  "marie": 5032,
  "##\u0291": 29703,
  "denotes": 14796,
  "baskets": 25946,
  "##\u5c0f": 30355,
  "climates": 24734,
  "##rize": 25709,
  "eventual": 9523,
  "stones": 6386,
  "corrections": 20983,
  "explore": 8849,
  "diamond": 6323,
  "nationwide": 9053,
  "minorities": 14302,
  "noting": 9073,
  "##\u22c5": 30141,
  "wolves": 8588,
  "vaccine": 17404,
  "##\u2076": 30075,
  "detected": 11156,
  "##tein": 9589,
  "##cino": 21081,
  "tan": 9092,
  "dissent": 24116,
  "studies": 2913,
  "06": 5757,
  "massage": 21881,
  "enclosed": 10837,
  "gossip": 13761,
  "daughter": 2684,
  "confident": 9657,
  "innovations": 15463,
  "attends": 23933,
  "immortals": 26796,
  "##gul": 24848,
  "sociological": 24846,
  "populations": 7080,
  "relieve": 15804,
  "brilliance": 28850,
  "formal": 5337,
  "repeat": 9377,
  "##cher": 7474,
  "justices": 19867,
  "##logical": 9966,
  "\u2097": 1566,
  "android": 11924,
  "hack": 20578,
  "threshold": 11207,
  "cabaret": 19685,
  "##het": 27065,
  "##\u0e23": 29953,
  "repertoire": 13646,
  "advancement": 12607,
  "##ping": 4691,
  "herman": 11458,
  "flashed": 8373,
  "[unused435]": 440,
  "mallory": 20468,
  "bas": 19021,
  "reported": 2988,
  "obliged": 14723,
  "clara": 10254,
  "pixel": 22138,
  "ulster": 11059,
  "emerge": 12636,
  "mermaid": 22322,
  "only": 2069,
  "shire": 13182,
  "transit": 6671,
  "density": 4304,
  "volunteered": 14382,
  "lola": 15137,
  "culminating": 16979,
  "consumption": 8381,
  "annie": 8194,
  "skye": 16590,
  "##ites": 7616,
  "drown": 19549,
  "bryce": 19757,
  "##burg": 4645,
  "boomed": 28908,
  "stunning": 14726,
  "##cent": 13013,
  "ministry": 3757,
  "miners": 11257,
  "##roy": 13238,
  "droplets": 27126,
  "managerial": 24465,
  "tingle": 25792,
  "yacht": 12187,
  "karel": 28021,
  "##lers": 12910,
  "eve": 6574,
  "prostitution": 15016,
  "independent": 2981,
  "junta": 22450,
  "bosnian": 16163,
  "bark": 11286,
  "derived": 5173,
  "decomposition": 22511,
  "[unused773]": 778,
  "[unused293]": 298,
  "\u0431": 1181,
  "##int": 18447,
  "wolff": 23498,
  "unveiled": 11521,
  "1997": 2722,
  "truce": 18415,
  "##ulator": 20350,
  "able": 2583,
  "shot": 2915,
  "sidney": 11430,
  "alicia": 15935,
  "rockwell": 25235,
  "subsided": 26588,
  "eclectic": 20551,
  "communists": 13009,
  "spice": 17688,
  "appropriate": 6413,
  "ballads": 18456,
  "[unused676]": 681,
  "[unused753]": 758,
  "\u00ac": 1078,
  "vermont": 8839,
  "undergraduate": 8324,
  "homosexuality": 15949,
  "lover": 7089,
  "rather": 2738,
  "establishments": 17228,
  "##tled": 14782,
  "sunken": 23470,
  "extinguished": 27705,
  "mirrors": 13536,
  "[unused464]": 469,
  "eyebrow": 9522,
  "##rmi": 28550,
  "archdiocese": 12658,
  "##\u0438": 10325,
  "sheer": 11591,
  "visit": 3942,
  "portion": 4664,
  "##eye": 17683,
  "prevalent": 15157,
  "##izer": 17629,
  "attraction": 8432,
  "buzzed": 21377,
  "##ouin": 25058,
  "grape": 14722,
  "consequently": 8821,
  "##works": 9316,
  "[unused858]": 863,
  "intermittent": 23852,
  "strung": 23509,
  "nationalist": 8986,
  "stills": 26105,
  "conductor": 7589,
  "[unused129]": 134,
  "dupont": 22848,
  "##rating": 15172,
  "karl": 6382,
  "\u00a1": 1067,
  "sparhawk": 13709,
  "[unused255]": 260,
  "##dp": 18927,
  "##uk": 6968,
  "smiley": 27420,
  "penelope": 18641,
  "##aging": 16594,
  "##rick": 11285,
  "tossed": 7463,
  "##cave": 27454,
  "##win": 10105,
  "enrichment": 27226,
  "unacceptable": 21873,
  "proclamation": 16413,
  "governance": 10615,
  "##ptive": 24971,
  "##vern": 23062,
  "elsie": 24603,
  "kan": 22827,
  "sword": 4690,
  "revue": 17480,
  "##gren": 13565,
  "vantage": 27274,
  "##break": 23890,
  "oriental": 11481,
  ":": 1024,
  "##kia": 21128,
  "confines": 25722,
  "vectors": 19019,
  "1998": 2687,
  "grants": 8624,
  "dog": 3899,
  "survivor": 12084,
  "occupations": 23374,
  "attache": 29489,
  "graduates": 10845,
  "coordinator": 10669,
  "science": 2671,
  "jp": 16545,
  "##6th": 25994,
  "##vre": 12229,
  "##cide": 27082,
  "rev": 7065,
  "convenient": 14057,
  "##pia": 19312,
  "yell": 14315,
  "\u1100": 1455,
  "monarchs": 19799,
  "vietnamese": 9101,
  "cary": 20533,
  "[unused182]": 187,
  "oral": 8700,
  "upton": 26900,
  "##\u306f": 30198,
  "deposit": 12816,
  "trembled": 14823,
  "restraint": 19355,
  "##\u0f54": 29966,
  "tightening": 18711,
  "harrison": 6676,
  "\u0282": 1129,
  "\u02e1": 1151,
  "mixed": 3816,
  "marcia": 22548,
  "diane": 12082,
  "disconnected": 23657,
  "snooker": 26448,
  "inspired": 4427,
  "contend": 27481,
  "skyla": 21738,
  "immense": 14269,
  "[unused412]": 417,
  "keith": 6766,
  "##\u30ef": 30262,
  "snapped": 5941,
  "tenant": 16713,
  "telling": 4129,
  "genius": 11067,
  "stained": 9702,
  "leaders": 4177,
  "##words": 22104,
  "ian": 4775,
  "[unused390]": 395,
  "reveal": 7487,
  "huey": 29503,
  "\u4f8d": 1765,
  "remarkable": 9487,
  "shared": 4207,
  "honesty": 16718,
  "duncan": 7343,
  "##\u2206": 30122,
  "##zio": 12426,
  "greenwood": 16827,
  "tackles": 10455,
  "invented": 8826,
  "fisheries": 13424,
  "tightly": 7371,
  "put": 2404,
  "perth": 9300,
  "tricked": 24929,
  "cent": 9358,
  "subdivided": 15369,
  "pittsburgh": 6278,
  "##fish": 7529,
  "boulder": 13264,
  "recipe": 17974,
  "folk": 5154,
  "##\u0633": 29824,
  "shooter": 13108,
  "rained": 28270,
  "[unused309]": 314,
  "##\u02b3": 29708,
  "catalina": 22326,
  "herds": 28822,
  "seismic": 22630,
  "^": 1034,
  "dashed": 18198,
  "step": 3357,
  "jena": 27510,
  "##jhl": 29001,
  "atkins": 21087,
  "mixture": 8150,
  "robe": 11111,
  "##kers": 11451,
  "tiberius": 28411,
  "##tin": 7629,
  "##ecure": 29150,
  "ocean": 4153,
  "roundabout": 22831,
  "##vere": 28943,
  "##nger": 11392,
  "\u5357": 1785,
  "fighting": 3554,
  "compulsion": 27638,
  "cabins": 20321,
  "willy": 16172,
  "relaunched": 26391,
  "die": 3280,
  "##oms": 22225,
  "99": 5585,
  "voluntary": 10758,
  "##\u1d62": 19109,
  "##osaurus": 25767,
  "costing": 22173,
  "##gen": 6914,
  "##eg": 13910,
  "sw": 25430,
  "hansen": 13328,
  "##ver": 6299,
  "episcopal": 9134,
  "ecosystems": 20440,
  "lifted": 4196,
  "51": 4868,
  "cents": 16653,
  "privateer": 26790,
  "conscription": 26329,
  "empowered": 26480,
  "distributor": 16632,
  "internment": 29041,
  "sheppard": 24976,
  "275": 17528,
  "album": 2201,
  "burnley": 23028,
  "stratford": 17723,
  "viaduct": 20596,
  "##dies": 18389,
  "thursday": 9432,
  "\u0995": 1353,
  "withdrawing": 21779,
  "improves": 24840,
  "stephanie": 11496,
  "soaked": 13077,
  "leveled": 22915,
  "415": 24690,
  "\u0964": 1344,
  "\u672c": 1876,
  "peripheral": 15965,
  "rehearsals": 24760,
  "sophie": 8234,
  "inquisition": 24638,
  "pulitzer": 17618,
  "##cite": 17847,
  "empty": 4064,
  "genera": 11416,
  "##balance": 26657,
  "##ivate": 21466,
  "trophies": 22236,
  "[unused893]": 898,
  "fremont": 22550,
  "finished": 2736,
  "richardson": 9482,
  "thornton": 14630,
  "walking": 3788,
  "crime": 4126,
  "##zen": 10431,
  "biker": 28988,
  "craved": 25155,
  "slap": 14308,
  "circle": 4418,
  "##\u5e7f": 30368,
  "approach": 3921,
  "prediction": 17547,
  "##wley": 20609,
  "she": 2016,
  "##ced": 11788,
  "elected": 2700,
  "##otti": 21325,
  "receipt": 24306,
  "521": 26963,
  "axial": 26819,
  "[unused404]": 409,
  "##ols": 27896,
  "wa": 11333,
  "debuted": 6006,
  "descriptive": 22726,
  "##hole": 11484,
  "amazed": 15261,
  "offices": 4822,
  "transport": 3665,
  "drains": 18916,
  "##\u3080": 30205,
  "toes": 10393,
  "1883": 7257,
  "##dor": 7983,
  "##hai": 10932,
  "n": 1050,
  "replaced": 2999,
  "husband": 3129,
  "arnold": 7779,
  "gulped": 25411,
  "math": 8785,
  "##achi": 21046,
  "[unused314]": 319,
  "##verted": 26686,
  "##ided": 14097,
  "pretend": 9811,
  "[unused362]": 367,
  "factual": 25854,
  "##rove": 17597,
  "stirling": 15597,
  "liquid": 6381,
  "\u2089": 1556,
  "\u094b": 1343,
  "underway": 14128,
  "hoffman": 15107,
  "##ala": 7911,
  "entity": 9178,
  "26": 2656,
  "##\u044e": 29757,
  "##es": 2229,
  "perry": 6890,
  "##%": 29616,
  "tehsil": 20751,
  "ledger": 27106,
  "tracks": 3162,
  "ruler": 7786,
  "motives": 17108,
  "[unused51]": 52,
  "statue": 6231,
  "##aly": 20766,
  "legged": 15817,
  "processing": 6364,
  "##rsa": 22381,
  "[unused176]": 181,
  "serialized": 27289,
  "colleen": 28385,
  "richest": 18429,
  "prosperous": 18241,
  "afro": 17694,
  "desktop": 15363,
  "##oso": 19137,
  "abby": 9460,
  "riots": 12925,
  "laughed": 4191,
  "##gles": 17125,
  "squid": 26852,
  "emblem": 16199,
  "wheeling": 29142,
  "observe": 11949,
  "fragrance": 24980,
  "olga": 15585,
  "[unused462]": 467,
  "bromley": 27979,
  "##\u02c8": 29715,
  "bullet": 7960,
  "cosmos": 21182,
  "##pass": 15194,
  "bafta": 22284,
  "###": 29614,
  "hitting": 7294,
  "scots": 12196,
  "disperse": 28736,
  "theirs": 17156,
  "cricketer": 9490,
  "monmouth": 20433,
  "luxurious": 20783,
  "allegedly": 9382,
  "09": 5641,
  "19th": 3708,
  "##u": 2226,
  "\u4f50": 1764,
  "casey": 9036,
  "##chy": 11714,
  "futile": 24495,
  "chrysler": 17714,
  "pin": 9231,
  "403": 28203,
  "shaved": 20665,
  "##\u8fb6": 30482,
  "interested": 4699,
  "pascal": 17878,
  "##tsk": 29064,
  "extracted": 15901,
  "cruise": 8592,
  "vicky": 22845,
  "difficulties": 8190,
  "armor": 8177,
  "throat": 3759,
  "therapist": 19294,
  "outbreak": 8293,
  "##mobile": 17751,
  "1715": 22606,
  "##rity": 15780,
  "cavalry": 5945,
  "narrower": 22546,
  "hamid": 24811,
  "##ex": 10288,
  "interpretations": 15931,
  "##esh": 9953,
  "##urus": 20089,
  "dignitaries": 27960,
  "2015": 2325,
  "strike": 4894,
  "##lity": 18605,
  "revised": 8001,
  "expected": 3517,
  "wives": 10403,
  "##\u3063": 30189,
  "adoption": 9886,
  "\u099f": 1359,
  "saxony": 13019,
  "##codes": 23237,
  "nebraska": 8506,
  "rouen": 27030,
  "sis": 24761,
  "slated": 18517,
  "\u00a310": 26812,
  "yarmouth": 28792,
  "cambridge": 4729,
  "1906": 5518,
  "zenith": 28672,
  "95": 5345,
  "##\u056b": 29772,
  "admission": 9634,
  "orchestra": 4032,
  "\u30b7": 1706,
  "maison": 26420,
  "nobles": 13969,
  "happily": 11361,
  "recently": 3728,
  "constructing": 15696,
  "\u30f3": 1737,
  "##\u0925": 29860,
  "posting": 14739,
  "brave": 9191,
  "reeling": 28515,
  "silk": 6953,
  "statement": 4861,
  "##fell": 23510,
  "clyde": 12085,
  "monique": 26194,
  "227": 21489,
  "confederation": 11078,
  "creeks": 24974,
  "nascar": 11838,
  "\u0dbd": 1406,
  "\u0f54": 1430,
  "groundbreaking": 23222,
  "enhance": 11598,
  "trough": 23389,
  "##elle": 14774,
  "epstein": 26646,
  "rider": 7945,
  "via": 3081,
  "colleagues": 8628,
  "firearms": 13780,
  "iqbal": 28111,
  "##bane": 27543,
  "independence": 4336,
  "##ele": 12260,
  "clifford": 13894,
  "directing": 9855,
  "wally": 18202,
  "speedway": 10688,
  "##to": 3406,
  "socialist": 6102,
  "independently": 9174,
  "hilltop": 25566,
  "routledge": 21180,
  "devastating": 14886,
  "##bolic": 18647,
  "[unused455]": 460,
  "##ar": 2906,
  "arresting": 28427,
  "sulfur": 17864,
  "ensuring": 12725,
  "keane": 27228,
  "commerce": 6236,
  "scoffed": 26326,
  "sculptures": 10801,
  "consciousness": 8298,
  "fascist": 14870,
  "terrorist": 9452,
  "moody": 14434,
  "lawson": 14577,
  "soundtrack": 6050,
  "maximum": 4555,
  "shops": 7340,
  "viewed": 7021,
  "differentiated": 24374,
  "shots": 7171,
  "##champ": 25450,
  "brook": 9566,
  "postseason": 17525,
  "escort": 8620,
  "necessarily": 9352,
  "touched": 5028,
  "88": 6070,
  "ignoring": 9217,
  "##\u66f2": 30396,
  "scarborough": 18603,
  "1776": 13963,
  "seat": 2835,
  "##fk": 24316,
  "unreliable": 23579,
  "montrose": 24990,
  "\u0926": 1325,
  "drafted": 7462,
  "pace": 6393,
  "redding": 26687,
  "[unused254]": 259,
  "smug": 20673,
  "273": 25371,
  "##entes": 26933,
  "provost": 18523,
  "instead": 2612,
  "excused": 28512,
  "species": 2427,
  "\u826f": 1938,
  "papua": 13049,
  "##bold": 27495,
  "resided": 12427,
  "assisting": 13951,
  "1741": 25280,
  "silvery": 21666,
  "aligned": 13115,
  "beings": 9552,
  "clockwise": 22839,
  "protects": 18227,
  "##kit": 23615,
  "boat": 4049,
  "backdrop": 18876,
  "ie": 29464,
  "band": 2316,
  "##edd": 22367,
  "sweep": 11740,
  "gene": 4962,
  "mac": 6097,
  "separates": 18600,
  "##coll": 26895,
  "thing": 2518,
  "impacts": 14670,
  "##enter": 29110,
  "sigma": 13201,
  "predators": 12630,
  "shortly": 3859,
  "containment": 29174,
  "confederacy": 18179,
  "belgarath": 21256,
  "parts": 3033,
  "borders": 6645,
  "cobb": 17176,
  "[unused519]": 524,
  "##trum": 24456,
  "encoding": 17181,
  "cue": 16091,
  "approached": 5411,
  "lester": 14131,
  "yokohama": 20507,
  "chesapeake": 20867,
  "accepted": 3970,
  "##ooped": 20671,
  "collapsed": 7798,
  "necessity": 13185,
  "m3": 29061,
  "interfering": 24324,
  "taking": 2635,
  "themed": 11773,
  "wolfe": 14212,
  "naturalized": 27558,
  "throttle": 24420,
  "compass": 16681,
  "[unused225]": 230,
  "##ial": 4818,
  "1852": 8784,
  "waivers": 28654,
  "mohan": 18529,
  "easiest": 25551,
  "sherry": 22268,
  "consumed": 10202,
  "hires": 28208,
  "##\u0438\u0438": 15414,
  "packers": 15285,
  "##gl": 23296,
  "##\u2012": 30050,
  "petition": 9964,
  "patel": 20455,
  "##tea": 27058,
  "twitching": 25402,
  "thumping": 25996,
  "triumph": 10911,
  "hometown": 9627,
  "akin": 17793,
  "\u2282": 1610,
  "flop": 28583,
  "whore": 17219,
  "scrub": 18157,
  "crust": 19116,
  "excitedly": 23885,
  "stains": 27094,
  "##nais": 28020,
  "whitehead": 23257,
  "tinted": 25577,
  "markus": 23030,
  "cognitive": 10699,
  "creepy": 17109,
  "##\u0baf": 29926,
  "foster": 6469,
  "gets": 4152,
  "vic": 10967,
  "\u5f73": 1845,
  "pound": 9044,
  "embarrassed": 10339,
  "clapton": 24705,
  "vox": 29450,
  "crude": 13587,
  "contains": 3397,
  "dough": 23126,
  "debbie": 16391,
  "lace": 12922,
  "classic": 4438,
  "sweeps": 26981,
  "evie": 26400,
  "\u1d58": 1506,
  "sided": 11536,
  "[unused943]": 948,
  "title": 2516,
  "successfully": 5147,
  "fatty": 19101,
  "result": 2765,
  "flores": 17343,
  "##\u65b9": 30389,
  "increase": 3623,
  "159": 18914,
  "sheriff": 6458,
  "si": 9033,
  "##mbo": 13344,
  "eclipse": 13232,
  "milano": 21613,
  "gunn": 22079,
  "wnba": 25554,
  "[unused317]": 322,
  "##ate": 3686,
  "guru": 11972,
  "claudius": 25017,
  "##genase": 28835,
  "1660": 17954,
  "coa": 28155,
  "maintained": 5224,
  "gareth": 20243,
  "lockheed": 17646,
  "steele": 12872,
  "schumacher": 22253,
  "apostolic": 11815,
  "images": 4871,
  "##nah": 15272,
  "yankee": 17652,
  "ang": 17076,
  "mumbai": 8955,
  "symbol": 6454,
  "challenge": 4119,
  "rey": 12569,
  "beverly": 12218,
  "years": 2086,
  "arsenal": 9433,
  "barrel": 8460,
  "choke": 16769,
  "angular": 16108,
  "carnage": 27450,
  "##eric": 22420,
  "warned": 7420,
  "stein": 14233,
  "\u3001": 1635,
  "grammar": 8035,
  "##ci": 6895,
  "##wd": 21724,
  "nonfiction": 25753,
  "earrings": 27212,
  "rests": 16626,
  "fk": 14352,
  "shankar": 17429,
  "##rangle": 21476,
  "convened": 19596,
  "tells": 4136,
  "comte": 19758,
  "pioneering": 13280,
  "shade": 8703,
  "ch": 10381,
  "fatigue": 16342,
  "sing": 6170,
  "secrecy": 20259,
  "##\u099b": 29893,
  "material": 3430,
  "starred": 5652,
  "merlin": 15993,
  "coin": 9226,
  "pleasing": 24820,
  "rebound": 27755,
  "throws": 11618,
  "##rate": 11657,
  "glint": 25263,
  "throbbed": 27714,
  "##dal": 9305,
  "##ury": 13098,
  "##arat": 25879,
  "##iah": 12215,
  "arabia": 9264,
  "##vira": 24093,
  "slavic": 13838,
  "\u4eac": 1755,
  "##olt": 27914,
  "albums": 4042,
  "migratory": 22262,
  "bail": 15358,
  "outsider": 21002,
  "americas": 10925,
  "strive": 29453,
  "##poo": 24667,
  "1976": 3299,
  "zurich": 10204,
  "lexie": 24123,
  "pines": 17527,
  "##nett": 15361,
  "ito": 23333,
  "again": 2153,
  "##ja": 3900,
  "seahawks": 21390,
  "vinnie": 24214,
  "chinatown": 22321,
  "shipping": 7829,
  "apt": 26794,
  "##mas": 9335,
  "reset": 25141,
  "hamilton": 5226,
  "plato": 18858,
  "##bour": 25127,
  "sylvester": 20016,
  "faction": 10233,
  "year": 2095,
  "gaunt": 27534,
  "marry": 5914,
  "bernie": 15941,
  "islander": 12544,
  "laboratory": 5911,
  "wehrmacht": 23443,
  "ronan": 18633,
  "favorable": 11119,
  "triple": 6420,
  "sheila": 15062,
  "distinguishes": 27343,
  "tango": 17609,
  "favorites": 20672,
  "##auer": 21126,
  "smashed": 14368,
  "envelope": 11255,
  "reunite": 25372,
  "literally": 6719,
  "mercedes": 10793,
  "##chus": 16194,
  "shrugs": 23822,
  "medal": 3101,
  "columns": 7753,
  "reassuring": 21093,
  "daemon": 12828,
  "chow": 20209,
  "barony": 19365,
  "rosie": 15820,
  "quickly": 2855,
  "##\u0436": 29743,
  "hiss": 19074,
  "##vita": 28403,
  "trustees": 9360,
  "##imus": 19315,
  "##hin": 10606,
  "settled": 3876,
  "chicago": 3190,
  "frightening": 17115,
  "msc": 23794,
  "magistrate": 14351,
  "migrated": 13447,
  "bleeding": 9524,
  "trends": 12878,
  "tournaments": 8504,
  "##dia": 9032,
  "raphael": 12551,
  "beg": 11693,
  "tuck": 18029,
  "marcus": 6647,
  "writing": 3015,
  "\u0940": 1342,
  "geraldine": 26987,
  "musician": 5455,
  "dusty": 12727,
  "hot": 2980,
  "breakaway": 26321,
  "papyrus": 29575,
  "##tip": 25101,
  "##deh": 25383,
  "proceeds": 10951,
  "bracket": 21605,
  "concern": 5142,
  "ousted": 28368,
  "##\u56fd": 30325,
  "albeit": 12167,
  "##sas": 20939,
  "##tory": 7062,
  "congregation": 7769,
  "##\u00ab": 29654,
  "vans": 21994,
  "jakob": 19108,
  "flaps": 26570,
  "resurrection": 15218,
  "chiang": 17684,
  "sandwich": 11642,
  "##factory": 21450,
  "fuel": 4762,
  "\u0281": 1128,
  "animation": 7284,
  "facilities": 4128,
  "combo": 25025,
  "bangladeshi": 24267,
  "##\u0445": 29750,
  "[unused645]": 650,
  "witnessing": 24740,
  "reduced": 4359,
  "minus": 15718,
  "2018": 2760,
  "##rre": 14343,
  "colby": 18650,
  "680": 23944,
  "##unced": 22392,
  "ryan": 4575,
  "till": 6229,
  "recreational": 10517,
  "wonders": 16278,
  "mmm": 25391,
  "exported": 15612,
  "tulane": 27437,
  "wiltshire": 17045,
  "captivity": 16187,
  "downloads": 22956,
  "count": 4175,
  "adoptive": 24787,
  "minsk": 20790,
  "frozen": 7708,
  "extensions": 14305,
  "[unused624]": 629,
  "festival": 2782,
  "trois": 25527,
  "jimmie": 24671,
  "chapters": 9159,
  "baker": 6243,
  "550": 13274,
  "secular": 10644,
  "##inator": 23207,
  "sabah": 22515,
  "[unused124]": 129,
  "petitioned": 22527,
  "footprints": 24629,
  "yang": 8675,
  "\u09af": 1371,
  "arab": 5424,
  "viet": 19710,
  "##erty": 15010,
  "##if": 10128,
  "effect": 3466,
  "replacements": 23936,
  "nicknamed": 9919,
  "##mite": 23419,
  "pressure": 3778,
  "prophecy": 14951,
  "oxidation": 19577,
  "wave": 4400,
  "glamour": 22439,
  "spartak": 28560,
  "brandy": 17951,
  "causal": 28102,
  "own": 2219,
  "zoological": 26168,
  "##ues": 15808,
  "explores": 15102,
  "congo": 9030,
  "undertaking": 18457,
  "\u5916": 1809,
  "##gar": 6843,
  "freaking": 13847,
  "reference": 4431,
  "political": 2576,
  "alyssa": 26442,
  "##eim": 12112,
  "cult": 8754,
  "\u5b66": 1817,
  "gauge": 7633,
  "damned": 9636,
  "welcomed": 10979,
  "hungarian": 5588,
  "uncover": 26944,
  "thorough": 16030,
  "##lana": 16695,
  "produce": 3965,
  "avalon": 18973,
  "##ncy": 9407,
  "conductors": 23396,
  "substance": 9415,
  "miss": 3335,
  "spoken": 5287,
  "##cre": 16748,
  "##ity": 3012,
  "uae": 17641,
  "ctv": 28720,
  "vi": 6819,
  "sub": 4942,
  "taxonomic": 27691,
  "smacked": 19203,
  "##thed": 23816,
  "##ept": 23606,
  "icon": 12696,
  "poll": 8554,
  "grassy": 22221,
  "sesame": 23605,
  "tyrone": 18770,
  "##onal": 16026,
  "##oz": 18153,
  "##\u3057": 30183,
  "indoors": 24274,
  "farmer": 7500,
  "sao": 7509,
  "dipping": 23427,
  "surveying": 19654,
  "smithsonian": 15720,
  "greeting": 14806,
  "eager": 9461,
  "##jin": 14642,
  "tenderly": 26596,
  "tolerate": 19242,
  "##coat": 16531,
  "contributions": 5857,
  "christmas": 4234,
  "lame": 20342,
  "castile": 15656,
  "longest": 6493,
  "lessons": 8220,
  "commands": 10954,
  "hasan": 17000,
  "refined": 15514,
  "##gin": 11528,
  "##rad": 12173,
  "explodes": 27583,
  "prospect": 9824,
  "counters": 24094,
  "##ld": 6392,
  "normal": 3671,
  "walters": 19097,
  "##\u11bc": 30025,
  "gao": 17377,
  "innocent": 7036,
  "models": 4275,
  "kaitlyn": 28584,
  "pomeranian": 17717,
  "##sd": 16150,
  "concerts": 6759,
  "##ices": 23522,
  "journal": 3485,
  "dense": 9742,
  "##iano": 15668,
  "mana": 24951,
  "attain": 18759,
  "inner": 5110,
  "waistband": 27553,
  "\u6c11": 1892,
  "favourites": 28271,
  "commercials": 12698,
  "survive": 5788,
  "boarded": 17383,
  "antennae": 28624,
  "cyclist": 14199,
  "[unused776]": 781,
  "greenfield": 26713,
  "richards": 9712,
  "said": 2056,
  "informant": 28694,
  "supposed": 4011,
  "nay": 29349,
  "identifies": 14847,
  "elevators": 19406,
  "selling": 4855,
  "hybrid": 8893,
  "jarvis": 21072,
  "grandmother": 7133,
  "##alla": 25425,
  "[unused839]": 844,
  "groups": 2967,
  "[unused140]": 145,
  "##tor": 4263,
  "jimmy": 5261,
  "healy": 25706,
  "bea": 26892,
  "##mi": 4328,
  "operatives": 25631,
  "milan": 6954,
  "franks": 21310,
  "darwin": 11534,
  "envy": 21103,
  "thrive": 25220,
  "rarely": 6524,
  "##llus": 20159,
  "sailors": 11279,
  "##iae": 19001,
  "distinction": 7835,
  "boone": 15033,
  "comply": 14037,
  "inspection": 10569,
  "spoiled": 19582,
  "shares": 6661,
  "final": 2345,
  "raise": 5333,
  "educational": 4547,
  "glands": 23340,
  "deborah": 15555,
  "callahan": 25668,
  "[unused350]": 355,
  "gs": 28177,
  "stoke": 13299,
  "fallen": 5357,
  "\u1162": 1471,
  "opens": 7480,
  "hosted": 4354,
  "congressional": 7740,
  "stalin": 13125,
  "separation": 8745,
  "chao": 22455,
  "coven": 25248,
  "montevideo": 22460,
  "##phus": 25255,
  "##rid": 14615,
  "nyc": 16392,
  "buddy": 8937,
  "[unused32]": 33,
  "eduardo": 14846,
  "##ic": 2594,
  "##\u0452": 29758,
  "havilland": 23994,
  "augusto": 29085,
  "wang": 7418,
  "unconscious": 9787,
  "commanders": 11437,
  "tnt": 24048,
  "springer": 17481,
  "mayfair": 28387,
  "ngc": 27645,
  "adjutant": 20690,
  "##vsky": 15904,
  "beak": 23525,
  "tackled": 26176,
  "##\u045b": 29764,
  "##ulia": 20922,
  "gables": 27008,
  "sheath": 21867,
  "embroidered": 23590,
  "tulsa": 16631,
  "watering": 25813,
  "##ulate": 9869,
  "humor": 8562,
  "wellness": 25860,
  "leon": 6506,
  "ref": 25416,
  "canada": 2710,
  "punches": 17957,
  "kid": 4845,
  "distinguished": 5182,
  "many": 2116,
  "shuffle": 23046,
  "##\u0940": 29878,
  "talmud": 24380,
  "charcoal": 18872,
  "aaron": 7158,
  "winston": 10180,
  "##\u0441": 29747,
  "sudan": 10411,
  "mk": 12395,
  "##back": 5963,
  "unless": 4983,
  "\u0459": 1215,
  "##lized": 28931,
  "##ivar": 28739,
  "##\u2092": 30091,
  "[unused468]": 473,
  "x": 1060,
  "position": 2597,
  "handel": 21465,
  "wiping": 14612,
  "eton": 21687,
  "##nian": 11148,
  "##low": 8261,
  "divert": 27345,
  "34": 4090,
  "encountered": 8567,
  "\u307f": 1678,
  "federal": 2976,
  "harcourt": 22714,
  "fuck": 6616,
  "insights": 20062,
  "##stic": 10074,
  "dispersal": 27602,
  "leaped": 16900,
  "muffled": 15783,
  "bihar": 16178,
  "siena": 23754,
  "2019": 10476,
  "andrew": 4080,
  "shielded": 25474,
  "ibn": 7839,
  "##\u4eac": 30281,
  "sketch": 11080,
  "##zak": 20685,
  "##ored": 19574,
  "rebirth": 22785,
  "turtles": 16489,
  "sequencing": 24558,
  "instantly": 6880,
  "sal": 16183,
  "wiley": 18825,
  "sorority": 27600,
  "333": 21211,
  "##\u30fc": 30265,
  "tsunami": 19267,
  "stark": 9762,
  "lin": 11409,
  "clinton": 7207,
  "socrates": 26772,
  "benoit": 21721,
  "donated": 6955,
  "lynne": 26938,
  "spelled": 11479,
  "therapeutic": 17261,
  "schultz": 22378,
  "##ised": 5084,
  "reddish": 14182,
  "essence": 11305,
  "lump": 15116,
  "household": 4398,
  "floods": 14295,
  "intrinsic": 23807,
  "##\u0637": 29828,
  "[unused862]": 867,
  "murals": 19016,
  "textiles": 18762,
  "##ticus": 29587,
  "surfer": 27747,
  "[unused595]": 600,
  "wounds": 8710,
  "folly": 26272,
  "sweeney": 21178,
  "cao": 12966,
  "inhibition": 23586,
  "climbed": 6589,
  "car": 2482,
  "dimly": 25361,
  "emptiness": 23397,
  "[unused653]": 658,
  "##dale": 5634,
  "##planes": 26634,
  "mysteries": 15572,
  "crates": 27619,
  "mla": 18619,
  "accomplishment": 24718,
  "##\u03c8": 29738,
  "inspections": 29589,
  "[unused347]": 352,
  "andrey": 29219,
  "becky": 14407,
  "atlanta": 5865,
  "##itude": 18679,
  "##yl": 8516,
  "[unused206]": 211,
  "generated": 7013,
  "[unused890]": 895,
  "senate": 4001,
  "you": 2017,
  "1970s": 3955,
  "265": 20549,
  "invest": 15697,
  "premiership": 11264,
  "craftsmen": 25736,
  "affordable": 15184,
  "gt": 14181,
  "roberto": 10704,
  "alabama": 6041,
  "splitting": 14541,
  "entirely": 4498,
  "lucifer": 24184,
  "elaborate": 9603,
  "toby": 11291,
  "interim": 9455,
  "[unused603]": 608,
  "capitalist": 19640,
  "fishery": 22880,
  "partly": 6576,
  "sedan": 15134,
  "##ner": 3678,
  "shoot": 5607,
  "##ves": 6961,
  "##tiv": 29068,
  "mighty": 10478,
  "eastwood": 24201,
  "padua": 24941,
  "qualifier": 10981,
  "##oxide": 28479,
  "gently": 5251,
  "senators": 10153,
  "intervention": 8830,
  "cats": 8870,
  "##ich": 7033,
  "todd": 6927,
  "hereditary": 14800,
  "coal": 5317,
  "judy": 12120,
  "restroom": 28249,
  "##acio": 21361,
  "auburn": 12704,
  "delgado": 26532,
  "##mberg": 29084,
  "daggers": 24210,
  "##met": 11368,
  "##ol": 4747,
  "prologue": 18877,
  "packard": 24100,
  "lions": 7212,
  "amulet": 25087,
  "##zko": 29002,
  "bounded": 10351,
  "reduction": 7312,
  "freaked": 22783,
  "fargo": 23054,
  "jam": 9389,
  "##dry": 21190,
  "streamlined": 29445,
  "1560": 29185,
  "broadway": 5934,
  "vimes": 28482,
  "##venor": 26806,
  "undergoing": 14996,
  "##pro": 21572,
  "togo": 23588,
  "inserted": 12889,
  "500": 3156,
  "apes": 27754,
  "buyers": 17394,
  "bookstore": 21785,
  "veins": 9607,
  "mechanic": 15893,
  "attire": 20426,
  "maintain": 5441,
  "nsw": 11524,
  "pedersen": 27409,
  "nottinghamshire": 20126,
  "motions": 15323,
  "self": 2969,
  "torino": 24737,
  "##forth": 15628,
  "hitter": 18694,
  "peers": 12746,
  "entrance": 4211,
  "[unused117]": 122,
  "##jo": 5558,
  "##ization": 3989,
  "##meral": 28990,
  "agrarian": 23226,
  "rode": 8469,
  "[unused835]": 840,
  "##tour": 21163,
  "classmate": 23175,
  "meade": 26501,
  "##christ": 26654,
  "##zawa": 19708,
  "greet": 17021,
  "commentator": 12268,
  "##guchi": 16918,
  "[unused244]": 249,
  "auckland": 8666,
  "lucius": 15639,
  "[unused844]": 849,
  "##au": 4887,
  "status": 3570,
  "elisabeth": 12877,
  "##\u2077": 30076,
  "hume": 20368,
  "closet": 9346,
  "##\u0440": 16856,
  "##ulum": 25100,
  "rushing": 8375,
  "\u30e1": 1726,
  "peacefully": 21614,
  "##\u1d40": 30031,
  "hopes": 8069,
  "eastbound": 24773,
  "davy": 23255,
  "tablets": 17596,
  "gangster": 20067,
  "remaining": 3588,
  "mainz": 19876,
  "\u2077": 1541,
  "testified": 14914,
  "administrations": 27722,
  "echo": 9052,
  "stop": 2644,
  "deaf": 12419,
  "##ttal": 28200,
  "##lth": 24658,
  "toxic": 11704,
  "table": 2795,
  "tonic": 28157,
  "thistle": 24328,
  "airlines": 7608,
  "accountable": 26771,
  "superstar": 18795,
  "##i": 2072,
  "1999": 2639,
  "traffic": 4026,
  "\u0644": 1294,
  "chorus": 7165,
  "drives": 9297,
  "##\u0f60": 29969,
  "broadcaster": 11995,
  "dancing": 5613,
  "protruding": 23868,
  "mcguire": 23872,
  "##istan": 23137,
  "loses": 12386,
  "anthony": 4938,
  "##mate": 8585,
  "owners": 5608,
  "##\u677e": 30406,
  "\u093f": 1341,
  "angela": 10413,
  "##nostic": 28199,
  "dress": 4377,
  "adjective": 24931,
  "[unused548]": 553,
  "kara": 13173,
  "downwards": 28457,
  "grades": 7022,
  "fir": 21554,
  "##nock": 18057,
  "##lip": 15000,
  "muslim": 5152,
  "regarded": 5240,
  "pluto": 26930,
  "charity": 5952,
  "staff": 3095,
  "\u05d1": 1242,
  "deeply": 6171,
  "clap": 28618,
  "caller": 20587,
  "##och": 11663,
  "zaragoza": 25744,
  "##ghan": 22218,
  "sensible": 21082,
  "##weed": 18041,
  "bishopric": 20664,
  "bets": 29475,
  "##tery": 20902,
  "trademark": 11749,
  "alternative": 4522,
  "cod": 19429,
  "##grass": 19673,
  "spotted": 7282,
  "madeline": 16974,
  "##ssi": 18719,
  "marlins": 27055,
  "eugen": 29273,
  "chooses": 15867,
  "[unused268]": 273,
  "paused": 5864,
  "dubois": 26258,
  "parole": 17393,
  "surprised": 4527,
  "tandem": 18231,
  "gleam": 24693,
  "\u1107": 1460,
  "punjabi": 17498,
  "nexus": 26041,
  "educate": 16957,
  "\u30c3": 1711,
  "##bies": 20536,
  "[unused161]": 166,
  "##ml": 19968,
  "fishermen": 16532,
  "koch": 15259,
  "##llon": 22179,
  "##shore": 19208,
  "opener": 16181,
  "##nz": 14191,
  "\u2020": 1526,
  "##pot": 11008,
  "conan": 16608,
  "despite": 2750,
  "##ished": 13295,
  "officials": 4584,
  "\u0576": 1231,
  "boxers": 18508,
  "behold": 27541,
  "##\u30f3": 30263,
  "201": 16345,
  "##uso": 26658,
  "armando": 26716,
  "##\u2212": 22543,
  "suspicion": 10928,
  "sticks": 12668,
  "tissues": 14095,
  "gemma": 19073,
  "settlement": 4093,
  "skip": 13558,
  "##\u2116": 30106,
  "##gong": 17036,
  "frowns": 29303,
  "\u03c9": 1179,
  "[unused380]": 385,
  "250": 5539,
  "daughters": 5727,
  "328": 25256,
  "dept": 29466,
  "collapsing": 22724,
  "catalytic": 26244,
  "##morphism": 19539,
  "bridget": 19218,
  "##\u539f": 30313,
  "centennial": 15483,
  "damascus": 16094,
  "##sti": 16643,
  "##tituted": 29139,
  "unconventional": 23693,
  "wrestlemania": 28063,
  "[unused631]": 636,
  "encompasses": 13974,
  "mayhem": 26865,
  "before": 2077,
  "##puram": 17809,
  "324": 27234,
  "nicole": 9851,
  "manual": 6410,
  "faber": 21720,
  "consulted": 17535,
  "wasp": 19411,
  "dark": 2601,
  "arising": 17707,
  "johnstone": 24160,
  "drums": 3846,
  "[unused500]": 505,
  "tent": 9311,
  "criterion": 19229,
  "##sume": 23545,
  "##\u524d": 30302,
  "sears": 18493,
  "acheron": 21427,
  "pure": 5760,
  "extinct": 8548,
  "freedoms": 22467,
  "wink": 16837,
  "intentional": 21249,
  "qualifying": 6042,
  "cooled": 12981,
  "ferrara": 28635,
  "summer": 2621,
  "oxford": 4345,
  "waved": 7147,
  "\u5ca1": 1832,
  "promoting": 7694,
  "knots": 9439,
  "maynard": 22130,
  "goals": 3289,
  "easier": 6082,
  "racial": 5762,
  "benton": 18685,
  "situ": 26179,
  "##bbies": 27982,
  "chromosome": 16706,
  "##fields": 15155,
  "##gau": 20420,
  "mark": 2928,
  "slices": 25609,
  "kv": 24888,
  "childhood": 5593,
  "matched": 10349,
  "performance": 2836,
  "hiroshi": 26882,
  "instinctively": 16607,
  "##oth": 14573,
  "##\u300f": 30170,
  "bryson": 26845,
  "antigen": 28873,
  "relevance": 21923,
  "[unused315]": 320,
  "\u2605": 1620,
  "principal": 4054,
  "troopers": 26246,
  "\u30ab": 1700,
  "rendered": 10155,
  "clive": 14675,
  "choose": 5454,
  "adult": 4639,
  "almeida": 29555,
  "mina": 19808,
  "##\u00b4s": 21932,
  "glider": 18788,
  "ghetto": 17276,
  "##tula": 28970,
  "eli": 12005,
  "crossroads": 16760,
  "##ties": 7368,
  "supports": 6753,
  "carnival": 11485,
  "accelerated": 14613,
  "##\u305d": 30186,
  "anti": 3424,
  "[unused605]": 610,
  "seine": 16470,
  "congregations": 16850,
  "##hwa": 18663,
  "supporting": 4637,
  "marius": 20032,
  "presentations": 18216,
  "##\u2019": 30056,
  "##gel": 12439,
  "showcase": 13398,
  "litigation": 15382,
  "dorothea": 24052,
  "aunt": 5916,
  "bilbao": 25427,
  "##hem": 29122,
  "instructions": 8128,
  "regulation": 7816,
  "ryu": 19367,
  "joel": 8963,
  "##emi": 23238,
  "valet": 27238,
  "see": 2156,
  "mcconnell": 28514,
  "early": 2220,
  "issued": 3843,
  "##\u884c": 30471,
  "regular": 3180,
  "ranking": 5464,
  "##ncies": 14767,
  "cylinder": 7956,
  "murderer": 13422,
  "turf": 14585,
  "dolphins": 13600,
  "navarre": 21260,
  "jordanian": 26276,
  "[unused122]": 127,
  "classmates": 19846,
  "rainer": 28035,
  "gunnar": 26138,
  "\u0921": 1321,
  "\u5802": 1805,
  "egg": 8288,
  "locks": 11223,
  "silas": 18553,
  "lex": 17244,
  "##iki": 17471,
  "shaded": 25273,
  "##ers": 2545,
  "requested": 7303,
  "nacional": 10718,
  "nestor": 25397,
  "tammy": 19971,
  "townships": 13991,
  "##dran": 24914,
  "navigate": 22149,
  "airbus": 20901,
  "mistress": 10414,
  "rule": 3627,
  "94": 6365,
  "ff": 21461,
  "1828": 11517,
  "##west": 19650,
  "@": 1030,
  "capsule": 18269,
  "[unused692]": 697,
  "american": 2137,
  "##tura": 27431,
  "apps": 18726,
  "dug": 8655,
  "professors": 12655,
  "lastly": 22267,
  "values": 5300,
  "kill": 3102,
  "230": 11816,
  "kyiv": 25669,
  "professionals": 8390,
  "[unused982]": 987,
  "nazareth": 27192,
  "slung": 20078,
  "folder": 19622,
  "shepard": 22189,
  "##minating": 27932,
  "willingness": 19732,
  "bothering": 17067,
  "fines": 21892,
  "cache": 17053,
  "mystical": 17529,
  "lanterns": 26078,
  "##]": 29636,
  "slovenia": 10307,
  "1797": 14112,
  "mango": 24792,
  "reminded": 6966,
  "##7": 2581,
  "fairfield": 18986,
  "gunnery": 27919,
  "##39": 23499,
  "documentation": 12653,
  "crop": 10416,
  "susannah": 20471,
  "[unused40]": 41,
  "##\u3048": 30175,
  "\uff0e": 1991,
  "melbourne": 4940,
  "outfielder": 21033,
  "nerve": 9113,
  "provisions": 8910,
  "rallied": 24356,
  "practitioner": 18742,
  "##bow": 18912,
  "ck": 23616,
  "denote": 19090,
  "##ular": 7934,
  "blood": 2668,
  "elder": 6422,
  "elsewhere": 6974,
  "complicated": 8552,
  "farmhouse": 16870,
  "##tangled": 27898,
  "out": 2041,
  "##ge": 3351,
  "destined": 16036,
  "m1": 23290,
  "##\u03ba": 29726,
  "placement": 11073,
  "east": 2264,
  "shocks": 28215,
  "indicative": 24668,
  "planets": 11358,
  "quit": 8046,
  "constructed": 3833,
  "##tology": 23479,
  "regulator": 21618,
  "italians": 16773,
  "\u2076": 1540,
  "dowry": 29603,
  "volga": 26459,
  "queer": 19483,
  "textbooks": 18841,
  "rooms": 4734,
  "1891": 6607,
  "safety": 3808,
  "shout": 11245,
  "timetable": 23839,
  "proponents": 20401,
  "##writing": 18560,
  "horrors": 22812,
  "##dora": 24562,
  "lcd": 27662,
  "harness": 17445,
  "healed": 15027,
  "clancy": 24530,
  "[unused669]": 674,
  "yearbook": 24803,
  "accommodation": 11366,
  "##pate": 17585,
  "raju": 25098,
  "signature": 8085,
  "tricks": 12225,
  "modify": 19933,
  "welcome": 6160,
  "creators": 17277,
  "websites": 11744,
  "##hr": 8093,
  "civilized": 25825,
  "ara": 19027,
  "exchange": 3863,
  "rhodesia": 20340,
  "arlington": 13929,
  "halls": 9873,
  "seville": 18983,
  "repairs": 10315,
  "lips": 2970,
  "##ability": 8010,
  "contacted": 11925,
  "##eve": 18697,
  "coffee": 4157,
  "##hism": 23108,
  "lesions": 22520,
  "sweetie": 22872,
  "inspected": 20456,
  "boyle": 16694,
  "democracy": 7072,
  "##tila": 26065,
  "preaching": 17979,
  "hotel": 3309,
  "medicinal": 20632,
  "endurance": 14280,
  "##verse": 16070,
  "55": 4583,
  "marco": 8879,
  "circulation": 9141,
  "acceleration": 16264,
  "##tier": 17579,
  "[unused991]": 996,
  "guatemala": 11779,
  "storing": 23977,
  "trench": 14185,
  "dario": 26800,
  "ras": 20710,
  "brennan": 13962,
  "norwegian": 5046,
  "easily": 4089,
  "341": 28358,
  "##uel": 16284,
  "stumbled": 9845,
  "hitch": 27738,
  "reinstated": 18671,
  "kwan": 27741,
  "##yya": 19903,
  "##8": 2620,
  "nikola": 24794,
  "disposal": 13148,
  "derives": 12153,
  "distant": 6802,
  "nasser": 26099,
  "poole": 19107,
  "[unused174]": 179,
  "durham": 9296,
  "licensed": 7000,
  "knox": 11994,
  "[unused973]": 978,
  "sloppy": 28810,
  "cypress": 22183,
  "suppressed": 13712,
  "whenever": 7188,
  "wales": 3575,
  "bloomfield": 25584,
  "screen": 3898,
  "dodgers": 13391,
  "##zzy": 28753,
  "map": 4949,
  "##uted": 12926,
  "seller": 14939,
  "##scopic": 24895,
  "theorist": 24241,
  "##\u6c35": 30420,
  "towering": 20314,
  "sloane": 17558,
  "##mbled": 23931,
  "antibody": 27781,
  "carousel": 27628,
  "\u30d2": 1719,
  "motor": 5013,
  "chest": 3108,
  "##rou": 22494,
  "##bial": 21102,
  "kabul": 21073,
  "shepherd": 11133,
  "regeneration": 20045,
  "##ailed": 17440,
  "busiest": 20530,
  "agustin": 26889,
  "sp": 11867,
  "phased": 21718,
  "delightful": 26380,
  "\u30c8": 1714,
  "audition": 14597,
  "mafia": 13897,
  "frantic": 15762,
  "oath": 11292,
  "pavilion": 10531,
  "polish": 3907,
  "exceptionally": 17077,
  "chuckle": 15375,
  "gaelic": 11196,
  "every": 2296,
  "##naut": 24619,
  "dancer": 8033,
  "slate": 12796,
  "waived": 16301,
  "armagh": 24678,
  "eurovision": 12714,
  "outlaws": 23107,
  "chat": 11834,
  "##an": 2319,
  "non": 2512,
  "academic": 3834,
  "##fine": 23460,
  "former": 2280,
  "qur": 23183,
  "\u3061": 1662,
  "mercenaries": 19331,
  "clustered": 25221,
  "jackets": 17764,
  "expressway": 11720,
  "##\u9fb8": 30509,
  "arrival": 5508,
  "##wig": 16279,
  "yoko": 28758,
  "cheering": 24867,
  "##\u2011": 30049,
  "##\u10d9": 29982,
  "sneaking": 20727,
  "[unused259]": 264,
  "openly": 10132,
  "##koto": 24886,
  "chartered": 12443,
  "specimen": 11375,
  "combat": 4337,
  "parted": 10277,
  "enormous": 8216,
  "propulsion": 16404,
  "cigarette": 9907,
  "cypriot": 18543,
  "guardian": 6697,
  "reading": 3752,
  "trained": 4738,
  "[unused827]": 832,
  "balloon": 13212,
  "##linger": 23101,
  "wrestle": 25579,
  "##\u0938": 29874,
  "chronicles": 11906,
  "roast": 25043,
  "facilitates": 27777,
  "recurring": 10694,
  "skiing": 12701,
  "tribute": 7050,
  "evaluation": 9312,
  "left": 2187,
  "##rel": 16570,
  "##berry": 9766,
  "swelling": 18348,
  "restoring": 16487,
  "[unused638]": 643,
  "mysteriously": 29239,
  "deposed": 18298,
  "promenade": 26815,
  "##lling": 13112,
  "labyrinth": 24239,
  "spilling": 18054,
  "teens": 13496,
  "drenched": 25265,
  "900": 7706,
  "bond": 5416,
  "##js": 22578,
  "stroking": 14943,
  "\u6ca2": 1898,
  "possibility": 6061,
  "potsdam": 26554,
  "degrees": 5445,
  "algorithms": 13792,
  "ourselves": 9731,
  "dangerously": 20754,
  "any": 2151,
  "cyprus": 9719,
  "critically": 11321,
  "guilty": 5905,
  "plates": 7766,
  "1689": 22685,
  "yeast": 21957,
  "##tructing": 26310,
  "barbecue": 26375,
  "angry": 4854,
  "cope": 11997,
  "assurance": 16375,
  "gothenburg": 22836,
  "[unused397]": 402,
  "albania": 10407,
  "madly": 29179,
  "feed": 5438,
  "foxes": 24623,
  "construction": 2810,
  "bishop": 3387,
  "dq": 25410,
  "ge": 16216,
  "climb": 7105,
  "##path": 15069,
  "ottawa": 8166,
  "480": 17295,
  "errors": 10697,
  "basics": 24078,
  "##vale": 17479,
  "[unused625]": 630,
  "1987": 3055,
  "fabio": 25616,
  "##ologist": 8662,
  "moment": 2617,
  "mine": 3067,
  "casually": 13217,
  "##\u0dbb": 29941,
  "talent": 5848,
  "hawks": 12505,
  "fran": 23151,
  "##icon": 28524,
  "toilets": 21674,
  "##fted": 18915,
  "##mania": 27010,
  "xi": 8418,
  "##\u5317": 30307,
  "spec": 28699,
  "##+": 29622,
  "\u306e": 1671,
  "lecture": 8835,
  "stammered": 28532,
  "midland": 12240,
  "##za": 4143,
  "350": 8698,
  "susceptible": 18002,
  "kepler": 28219,
  "mali": 16007,
  "282": 26267,
  "feeding": 8521,
  "vegas": 7136,
  "kitchen": 3829,
  "divorce": 8179,
  "presenters": 25588,
  "##\u05d4": 29128,
  "freeze": 13184,
  "[unused971]": 976,
  "\u9673": 1972,
  "##zon": 11597,
  "mil": 23689,
  "[unused671]": 676,
  "##rrado": 27933,
  "christoph": 21428,
  "quantity": 11712,
  "growling": 22413,
  "##chs": 18069,
  "freaks": 29526,
  "wal": 24547,
  "replicate": 28024,
  "\u2074": 1538,
  "##ax": 8528,
  "strict": 9384,
  "clinched": 18311,
  "1964": 3546,
  "crossover": 16335,
  "contraction": 21963,
  "1783": 15331,
  "##ichi": 11319,
  "##nage": 27031,
  "1840": 8905,
  "rocco": 28167,
  "bernardino": 21370,
  "##oles": 29111,
  "regained": 11842,
  "kitten": 18401,
  "hike": 21857,
  "##oped": 24174,
  "tolerated": 25775,
  "renewable": 13918,
  "##iv": 12848,
  "lucy": 7004,
  "since": 2144,
  "##\u10d1": 29975,
  "[unused322]": 327,
  "subsidiary": 7506,
  "apocalyptic": 27660,
  "englishman": 25244,
  "relationships": 6550,
  "arrested": 4727,
  "distorted": 19112,
  "##hiro": 18334,
  "lyric": 13677,
  "1917": 4585,
  "torment": 21741,
  "turkic": 22926,
  "##onale": 22823,
  "##inium": 27585,
  "eyelashes": 25150,
  "reproduction": 14627,
  "axle": 17290,
  "hove": 25215,
  "cheung": 22632,
  "##\u2218": 30126,
  "##arty": 23871,
  "harbor": 6496,
  "512": 24406,
  "declaring": 13752,
  "##\u793a": 30449,
  "builders": 16472,
  "greaves": 27808,
  "development": 2458,
  "europa": 12124,
  "spring": 3500,
  "actor": 3364,
  "petra": 20953,
  "ordered": 3641,
  "galveston": 26630,
  "northwest": 4514,
  "[unused243]": 248,
  "\u1d2c": 1490,
  "runs": 3216,
  "256": 17273,
  "streamed": 18498,
  "collisions": 28820,
  "vladimir": 8748,
  "##\u0584": 29786,
  "##\u6c38": 30422,
  "##ease": 19500,
  "travelling": 8932,
  "dilapidated": 29283,
  "anhalt": 27088,
  "bushes": 14568,
  "164": 17943,
  "proposes": 17146,
  "lara": 13679,
  "##\u7fa9": 30462,
  "##500": 29345,
  "leverage": 21155,
  "squeeze": 11025,
  "ethical": 12962,
  "playback": 18245,
  "bra": 11655,
  "aggregate": 9572,
  "qualified": 4591,
  "##rber": 20473,
  "##cu": 10841,
  "mcmillan": 27436,
  "##lassified": 24938,
  "warily": 23625,
  "increases": 7457,
  "##ths": 26830,
  "danny": 6266,
  "##\u529b": 30304,
  "##alis": 13911,
  "tuberculosis": 15877,
  "blamed": 11248,
  "subcommittee": 18052,
  "[unused162]": 167,
  "##na": 2532,
  "roaring": 17197,
  "##hner": 28989,
  "posture": 16819,
  "##grounds": 28951,
  "analogous": 19639,
  "eagerly": 17858,
  "##tify": 27351,
  "awakening": 16936,
  "quad": 17718,
  "balkan": 17581,
  "auditory": 28042,
  "reprinted": 13603,
  "##oud": 19224,
  "[unused131]": 136,
  "murdered": 7129,
  "dubious": 22917,
  "##ege": 24746,
  "episode": 2792,
  "carrying": 4755,
  "ely": 20779,
  "neighbor": 11429,
  "meanwhile": 5564,
  "sold": 2853,
  "vinci": 23765,
  "pissed": 9421,
  "concord": 16557,
  "hunted": 14682,
  "tones": 12623,
  "briefly": 4780,
  "##eers": 22862,
  "##kaya": 20718,
  "repaired": 13671,
  "mona": 13813,
  "michael": 2745,
  "ferocious": 27863,
  "cecil": 11978,
  "announced": 2623,
  "meets": 6010,
  "white": 2317,
  "decreasing": 16922,
  "espionage": 21003,
  "\u3082": 1681,
  "##her": 5886,
  "shipbuilding": 16802,
  "##orro": 29459,
  "disturb": 22995,
  "niece": 12286,
  "##rasia": 27839,
  "wildlife": 6870,
  "blocked": 8534,
  "path": 4130,
  "##cture": 14890,
  "silly": 10021,
  "audit": 15727,
  "##p": 2361,
  "tobacco": 9098,
  "hillary": 18520,
  "##sfield": 15951,
  "internationally": 7587,
  "##cars": 20745,
  "\u0d9a": 1403,
  "baden": 12189,
  "\u661f": 1866,
  "suitable": 7218,
  "##yon": 14001,
  "lynn": 9399,
  "batch": 14108,
  "promote": 5326,
  "comrades": 19033,
  "##ib": 12322,
  "##rew": 15603,
  "existence": 4598,
  "turquoise": 28653,
  "schleswig": 21173,
  "makeshift": 19368,
  "troy": 9553,
  "atkinson": 18646,
  "##scribe": 29234,
  "thessaloniki": 23162,
  "interviews": 7636,
  "##nged": 21558,
  "swedish": 4467,
  "[unused881]": 886,
  "packaging": 14793,
  "based": 2241,
  "##aking": 15495,
  "##horn": 9769,
  "banda": 24112,
  "toad": 21344,
  "wish": 4299,
  "eruption": 17259,
  "nominated": 4222,
  "recited": 24843,
  "raining": 24057,
  "sings": 10955,
  "suites": 19796,
  "candles": 14006,
  "fund": 4636,
  "narcotics": 27290,
  "##neo": 23585,
  "talks": 7566,
  "leigh": 11797,
  "##kle": 19099,
  "rumble": 15658,
  "pregnant": 6875,
  "cbn": 21824,
  "locations": 5269,
  "baking": 21522,
  "##sei": 20240,
  "supplied": 8127,
  "##\u0142": 18818,
  "[unused367]": 372,
  "\u05dc": 1253,
  "##anger": 25121,
  "disastrous": 16775,
  "[unused495]": 500,
  "\u09c7": 1381,
  "caledonia": 19305,
  "myra": 23020,
  "ll": 2222,
  "attracted": 6296,
  "assumptions": 17568,
  "axe": 12946,
  "laurence": 10883,
  "bicycles": 21066,
  "drilled": 24311,
  "\u5206": 1775,
  "major": 2350,
  "adviser": 11747,
  "berkshire": 15570,
  "deal": 3066,
  "fred": 5965,
  "brodie": 27379,
  "praising": 15838,
  "1853": 8933,
  "##\u2193": 30114,
  "##\u967d": 30499,
  "arun": 28217,
  "scent": 6518,
  "beckett": 20599,
  "release": 2713,
  "changes": 3431,
  "##quet": 12647,
  "sustained": 8760,
  "[unused875]": 880,
  "vamps": 24064,
  "wholly": 12590,
  "helm": 16254,
  "##ssel": 21218,
  "troubles": 13460,
  "antibodies": 22931,
  "##rky": 15952,
  "[unused714]": 719,
  "stillness": 29435,
  "[unused0]": 1,
  "intend": 13566,
  "fast": 3435,
  "compressor": 29329,
  "upbringing": 24615,
  "webber": 19861,
  "##sy": 6508,
  "ir": 20868,
  "sensors": 13907,
  "confiscated": 17182,
  "[unused507]": 512,
  "yin": 18208,
  "emperors": 19655,
  "##lal": 13837,
  "denomination": 18683,
  "##eil": 24359,
  "##\u4e0a": 30268,
  "delivery": 6959,
  "pairs": 7689,
  "history": 2381,
  "##ort": 11589,
  "downloadable": 26720,
  "smell": 5437,
  "##[": 29634,
  "##lda": 15150,
  "##esis": 19009,
  "##hein": 26496,
  "sugarcane": 28910,
  "favourable": 18731,
  "##cina": 28748,
  "ingredient": 21774,
  "circus": 9661,
  "patch": 8983,
  "guy": 3124,
  "##una": 9521,
  "gloucestershire": 15905,
  "celine": 24550,
  "tucking": 25056,
  "powerhouse": 24006,
  "sea": 2712,
  "##phobic": 20200,
  "contemplated": 23133,
  "roofs": 15753,
  "-": 1011,
  "bromwich": 27888,
  "$": 1002,
  "sweetly": 22557,
  "currents": 14731,
  "##nism": 28113,
  "charities": 15430,
  "mold": 18282,
  "useful": 6179,
  "bars": 6963,
  "innings": 7202,
  "pirate": 11304,
  "silver": 3165,
  "1609": 28058,
  "fledgling": 25954,
  "##fera": 27709,
  "tae": 22297,
  "webb": 10923,
  "highland": 10983,
  "##ek": 5937,
  "##charged": 22620,
  "##orio": 27416,
  "1950": 3925,
  "##\u6d77": 30428,
  "unfortunately": 6854,
  "trondheim": 26331,
  "dh": 28144,
  "nothing": 2498,
  "layne": 22452,
  "diminished": 15911,
  "##nail": 25464,
  "ud": 20904,
  "##uan": 13860,
  "##\u0bc7": 29934,
  "bingham": 24579,
  "mr": 2720,
  "shen": 21882,
  "m": 1049,
  "negotiated": 13630,
  "obstruction": 27208,
  "relationship": 3276,
  "gutierrez": 20836,
  "[unused247]": 252,
  "##\u0964": 29880,
  "[unused826]": 831,
  "garion": 12523,
  "shipped": 12057,
  "province": 2874,
  "mickey": 11021,
  "typhoon": 15393,
  "baltic": 11275,
  "##nical": 20913,
  "coached": 8868,
  "##enne": 24336,
  "levin": 20206,
  "detect": 11487,
  "fortune": 7280,
  "plumage": 28764,
  "##xed": 19068,
  "[unused596]": 601,
  "founder": 3910,
  "##o": 2080,
  "##dham": 17661,
  "costs": 5366,
  "1661": 24046,
  "wildly": 13544,
  "pole": 6536,
  "reviewed": 8182,
  "natal": 17489,
  "\u05e6": 1263,
  "[unused221]": 226,
  "sewage": 19873,
  "tramway": 17050,
  "assist": 6509,
  "exchanges": 15800,
  "ancient": 3418,
  "##folk": 29284,
  "fiji": 11464,
  "mod": 16913,
  "saturdays": 18860,
  "##llar": 17305,
  "lucille": 28016,
  "[unused251]": 256,
  "##\u2286": 30138,
  "evolution": 6622,
  "musa": 23154,
  "excluding": 13343,
  "chloride": 19057,
  "##weather": 28949,
  "psychology": 6825,
  "[unused799]": 804,
  "##fu": 11263,
  "youths": 19634,
  "zack": 13658,
  "lisbon": 11929,
  "##aurus": 17342,
  "comparable": 12435,
  "wasps": 23146,
  "##odle": 26156,
  "envoy": 19918,
  "mobility": 12969,
  "sergeant": 6722,
  "worn": 6247,
  "[unused285]": 290,
  "##bley": 29538,
  "##amina": 27651,
  "railways": 7111,
  "fellowship": 7881,
  "tortricidae": 27683,
  "##mana": 24805,
  "##rzburg": 29136,
  "corruption": 7897,
  "aston": 14327,
  "annoyed": 11654,
  "afternoon": 5027,
  "##nesian": 20281,
  "pollard": 25513,
  "floors": 8158,
  "india": 2634,
  "widened": 8723,
  "repository": 22409,
  "\u2030": 1530,
  "kimberley": 25004,
  "syndicated": 13889,
  "inevitably": 21268,
  "\u201d": 1524,
  "hundreds": 5606,
  "approaches": 8107,
  "##nitz": 22792,
  "familiar": 5220,
  "tavi": 24283,
  "journalists": 8845,
  "repeated": 5567,
  "acknowledging": 21894,
  "portrayed": 6791,
  "80s": 16002,
  "136": 15407,
  "##tten": 25970,
  "pastry": 27060,
  "[unused649]": 654,
  "posse": 25751,
  "chemotherapy": 27144,
  "##rde": 25547,
  "##\u2228": 30130,
  "occasionally": 5681,
  "guerrero": 16938,
  "dazzling": 28190,
  "idaho": 9795,
  "theatres": 13166,
  "hail": 16889,
  "showcased": 22443,
  "basin": 6403,
  "##iche": 17322,
  "twin": 5519,
  "##\u1172": 30016,
  "isis": 18301,
  "neil": 6606,
  "arch": 7905,
  "rd": 16428,
  "noticeably": 25327,
  "indicates": 7127,
  "tomorrow": 4826,
  "reformer": 24767,
  "miracles": 17861,
  "\u0637": 1286,
  "consort": 13440,
  "colossal": 29523,
  "powers": 4204,
  "##writer": 15994,
  "[unused509]": 514,
  "##\u1d64": 30044,
  "charging": 13003,
  "volcanic": 10942,
  "\u667a": 1869,
  "194": 19955,
  "[unused55]": 56,
  "junk": 18015,
  "aka": 9875,
  "scented": 25738,
  "pricing": 20874,
  "[unused121]": 126,
  "enable": 9585,
  "[unused761]": 766,
  "gorgeous": 9882,
  "acknowledge": 13399,
  "pollution": 10796,
  "romero": 18290,
  "##ai": 4886,
  "await": 26751,
  "credentials": 22496,
  "reds": 12281,
  "categories": 7236,
  "amassed": 22151,
  "nigerian": 11884,
  "nashville": 8423,
  "sax": 19656,
  "priced": 21125,
  "##hta": 22893,
  "##uating": 24133,
  "##genesis": 23737,
  "calderon": 28129,
  "##car": 10010,
  "spare": 8622,
  "slab": 17584,
  "famed": 15607,
  "courier": 18092,
  "inauguration": 17331,
  "benedictine": 21139,
  "weave": 25308,
  "him": 2032,
  "##tana": 20496,
  "6th": 5351,
  "dominating": 21949,
  "stabilization": 28715,
  "october": 2255,
  "magnolia": 24659,
  "questioning": 11242,
  "psychedelic": 18147,
  "headlined": 25214,
  "##ness": 2791,
  "\u00a5": 1071,
  "score": 3556,
  "viewpoint": 21386,
  "##38": 22025,
  "microscope": 24635,
  "includes": 2950,
  "\u66f2": 1870,
  "menu": 12183,
  "contacts": 10402,
  "earliest": 5700,
  "colours": 8604,
  "[unused936]": 941,
  "sneakers": 28130,
  "speaking": 4092,
  "##tzer": 29546,
  "salmon": 11840,
  "kilometers": 7338,
  "issn": 23486,
  "conceded": 15848,
  "fraudulent": 27105,
  "interred": 13917,
  "clement": 12223,
  "drainage": 11987,
  "##rative": 18514,
  "[unused184]": 189,
  "sand": 5472,
  "investments": 10518,
  "discrete": 16246,
  "1734": 27367,
  "netherlands": 4549,
  "rammed": 27653,
  "valentine": 10113,
  "eaton": 17642,
  "robots": 13507,
  "stockings": 26412,
  "concepcion": 27331,
  "stadiums": 28244,
  "palette": 27396,
  "tapped": 10410,
  "##elling": 23918,
  "dealt": 9411,
  "centralized": 22493,
  "astronaut": 19748,
  "suggested": 4081,
  "burke": 9894,
  "jeremy": 7441,
  "##ater": 24932,
  "henley": 20768,
  "##\u30ad": 30227,
  "weakly": 17541,
  "heath": 9895,
  "##agi": 22974,
  "source": 3120,
  "friar": 25287,
  "35th": 20198,
  "##otype": 26305,
  "himalayas": 26779,
  "1804": 13140,
  "coloured": 11401,
  "currently": 2747,
  "exemplary": 27792,
  "1630": 24994,
  "##beam": 28302,
  "paired": 12739,
  "flint": 13493,
  "[unused794]": 799,
  "##meyer": 24344,
  "canceled": 13261,
  "yer": 20416,
  "semiconductor": 20681,
  "##wai": 21547,
  "##uven": 27346,
  "onwards": 9921,
  "digitally": 18397,
  "sample": 7099,
  "mustard": 23187,
  "1958": 3845,
  "hideout": 29588,
  "weaver": 14077,
  "loose": 6065,
  "races": 3837,
  "ignacio": 22988,
  "[unused38]": 39,
  "[unused280]": 285,
  "survivors": 8643,
  "tournament": 2977,
  "1927": 4764,
  "##enes": 28553,
  "cheered": 25471,
  "heading": 5825,
  "laundering": 28289,
  "geek": 29294,
  "##lli": 6894,
  "rhine": 10950,
  "##dial": 27184,
  "##en": 2368,
  "amanda": 8282,
  "\u0930": 1333,
  "newscast": 20306,
  "fitzpatrick": 26249,
  "##ima": 9581,
  "ceremonies": 10912,
  "soho": 23771,
  "satisfaction": 9967,
  "rebelled": 25183,
  "simpsons": 19047,
  "ambushed": 22168,
  "reigning": 16323,
  "\u1d40": 1495,
  "remind": 10825,
  "strengthen": 12919,
  "##skaya": 23070,
  "phoebe": 18188,
  "becoming": 3352,
  "delta": 7160,
  "editors": 10195,
  "audi": 20075,
  "animals": 4176,
  "\u25aa": 1618,
  "rooftop": 23308,
  "appointment": 6098,
  "skimmed": 28862,
  "fellow": 3507,
  "wen": 19181,
  "doctrines": 23252,
  "slowed": 9784,
  "dozens": 9877,
  "lawn": 10168,
  "##tta": 5946,
  "campos": 26925,
  "solutions": 7300,
  "rivera": 14043,
  "##aries": 12086,
  "zeus": 15208,
  "engages": 24255,
  "uncles": 27328,
  "##nne": 10087,
  "darker": 9904,
  "prescription": 20422,
  "##wart": 18367,
  "preferring": 21393,
  "raoul": 22063,
  "administrators": 15631,
  "bassist": 9858,
  "masjid": 27779,
  "wrongly": 29116,
  "clients": 7846,
  "##inge": 23496,
  "rave": 23289,
  "gaddafi": 28924,
  "404": 24837,
  "##iform": 22631,
  "ellington": 21630,
  "org": 8917,
  "paternal": 15112,
  "first": 2034,
  "\u5948": 1814,
  "1876": 7326,
  "fits": 16142,
  "dj": 6520,
  "aba": 19557,
  "##26": 23833,
  "##ulating": 10924,
  "##\u4e4b": 30275,
  "chang": 11132,
  "##ill": 8591,
  "240": 11212,
  "challenger": 12932,
  "goes": 3632,
  "yemen": 13968,
  "continually": 14678,
  "biotechnology": 20353,
  "[unused563]": 568,
  "rufus": 18316,
  "##eak": 25508,
  "##pod": 27633,
  "howell": 18473,
  "hua": 23064,
  "\u677e": 1880,
  "conversions": 25834,
  "downed": 20164,
  "villiers": 25333,
  "technologies": 6786,
  "optical": 9380,
  "stitch": 26035,
  "##aire": 14737,
  "infection": 8985,
  "village": 2352,
  "girlfriend": 6513,
  "ter": 28774,
  "##vin": 6371,
  "##imi": 27605,
  "moderately": 17844,
  "tyler": 7482,
  "isolation": 12477,
  "cleavage": 28691,
  "pick": 4060,
  "numb": 15903,
  "characters": 3494,
  "terrific": 27547,
  "alcoholic": 14813,
  "spanned": 18212,
  "##ows": 15568,
  "transformers": 19081,
  "##torm": 20654,
  "astros": 22058,
  "pancakes": 28470,
  "bodied": 22549,
  "rca": 12639,
  "expansive": 25145,
  "rebuilt": 7183,
  "afforded": 22891,
  "bony": 22678,
  "##\u1d50": 30038,
  "ting": 28642,
  "wound": 6357,
  "rotten": 11083,
  "##\u05d2": 29790,
  "finals": 4399,
  "##bro": 12618,
  "corrugated": 27186,
  "usl": 22448,
  "seamen": 28671,
  "donald": 6221,
  "store": 3573,
  "tom": 3419,
  "##irus": 26013,
  "shelter": 7713,
  "newspaper": 3780,
  "pods": 26723,
  "exists": 6526,
  "gerhard": 21037,
  "##brush": 18623,
  "##side": 7363,
  "proton": 20843,
  "##ape": 24065,
  "##uth": 14317,
  "1688": 24082,
  "luminous": 25567,
  "crises": 25332,
  "irina": 25404,
  "gp": 14246,
  "##\u5916": 30335,
  "yerevan": 23383,
  "unmarked": 25779,
  "1743": 25615,
  "##\u2191": 30112,
  "##\u057a": 29780,
  "##ocation": 23909,
  "baptist": 7550,
  "##ej": 20518,
  "mustered": 21900,
  "\u0bb2": 1392,
  "##jan": 8405,
  "##\u0dcf": 29944,
  "##pers": 7347,
  "\u02bc": 1146,
  "agreeing": 16191,
  "mergers": 28585,
  "looming": 23430,
  "covert": 19813,
  "strawberry": 16876,
  "divisions": 5908,
  "tabloid": 24173,
  "dripping": 14309,
  "exams": 13869,
  "shelves": 15475,
  "biochemistry": 22419,
  "reserved": 9235,
  "fence": 8638,
  "docked": 25727,
  "##z": 2480,
  "struggling": 8084,
  "dun": 24654,
  "belgian": 6995,
  "smirk": 15081,
  "##\u2297": 30140,
  "sweden": 4701,
  "openings": 16556,
  "mainline": 20575,
  "stimulation": 20858,
  "with": 2007,
  "cl": 18856,
  "optic": 22816,
  "squeezing": 15328,
  "nose": 4451,
  "tombstone": 26671,
  "penguin": 13987,
  "these": 2122,
  "stronghold": 16995,
  "146": 16333,
[...]
