{
  "blooded": 26064,
  "niall": 21889,
  "[unused491]": 496,
  "hassan": 13222,
  "jointly": 10776,
  "websites": 11744,
  "[unused32]": 33,
  "stars": 3340,
  "cites": 17248,
  "##\u110c": 30000,
  "blanket": 8768,
  "##gio": 11411,
  "genuine": 10218,
  "axe": 12946,
  "governance": 10615,
  "issuing": 15089,
  "billboard": 4908,
  "final": 2345,
  "##written": 15773,
  "shore": 5370,
  "addict": 26855,
  "ding": 22033,
  "forming": 5716,
  "perform": 4685,
  "interference": 11099,
  "slim": 11754,
  "1660": 17954,
  "##enberg": 11029,
  "engineers": 6145,
  "telecom": 18126,
  "owners": 5608,
  "##bots": 27014,
  "england": 2563,
  "crack": 8579,
  "\u208d": 1558,
  "##\u0637": 29828,
  "\u2099": 1568,
  "##pkins": 29531,
  "avoiding": 9992,
  "1998": 2687,
  "[unused168]": 173,
  "downing": 22501,
  "freeing": 22198,
  "##\u05d1": 29789,
  "streaks": 21295,
  "deliberate": 15063,
  "abrams": 23063,
  "reigns": 23481,
  "asserting": 27644,
  "333": 21211,
  "motioned": 13054,
  "obvious": 5793,
  "infinite": 10709,
  "alps": 13698,
  "havilland": 23994,
  "##rgy": 22637,
  "dail": 26181,
  "fours": 23817,
  "sweeps": 26981,
  "##arian": 12199,
  "admits": 14456,
  "preferring": 21393,
  "isil": 19600,
  "\u20b1": 1575,
  "yiddish": 20112,
  "rim": 11418,
  "empress": 10248,
  "josephine": 16117,
  "kidding": 12489,
  "##ogenic": 24278,
  "[unused94]": 95,
  "beaumont": 16210,
  "km": 2463,
  "##\u4f8d": 30291,
  "scarf": 18982,
  "mythical": 19336,
  "##vil": 14762,
  "peterson": 12001,
  "features": 2838,
  "isle": 8842,
  "senator": 5205,
  "##bbed": 15499,
  "locks": 11223,
  "##eti": 20624,
  "turks": 12896,
  "sy": 25353,
  "astronomy": 12799,
  "closet": 9346,
  "goblin": 22639,
  "concentrate": 10152,
  "spinning": 9419,
  "squared": 19942,
  "poked": 16826,
  "lahore": 15036,
  "##\u266f": 30154,
  "##tya": 21426,
  "confiscated": 17182,
  "pots": 18911,
  "directing": 9855,
  "espana": 20678,
  "##tsky": 26824,
  "raiders": 10642,
  "contraction": 21963,
  "occupied": 4548,
  "##hia": 12995,
  "include": 2421,
  "breaststroke": 28164,
  "moran": 17866,
  "dam": 5477,
  "mcgraw": 24179,
  "[unused893]": 898,
  "byrd": 17845,
  "##bbs": 17226,
  "##sta": 9153,
  "##hue": 20169,
  "##ouk": 27967,
  "austin": 5899,
  "##rled": 27501,
  "##vb": 26493,
  "continuity": 13717,
  "##over": 7840,
  "shook": 3184,
  "hissed": 11402,
  "proving": 13946,
  "oregon": 5392,
  "##\u10e0": 29987,
  "purchases": 17402,
  "\u1d62": 1507,
  "##atus": 15590,
  "##town": 4665,
  "bing": 17620,
  "1985": 3106,
  "rashid": 22080,
  "##weather": 28949,
  "import": 12324,
  "##eira": 21302,
  "benign": 28378,
  "puzzled": 14909,
  "kolkata": 13522,
  "capacities": 21157,
  "carleton": 22273,
  "[unused376]": 381,
  "sulfur": 17864,
  "sac": 17266,
  "##ttle": 26328,
  "\u05e1": 1258,
  "haji": 28174,
  "[unused618]": 623,
  "hole": 4920,
  "plastered": 21832,
  "plenty": 7564,
  "fuzzy": 18001,
  "felipe": 17095,
  "patio": 19404,
  "middleweight": 18741,
  "lets": 11082,
  "[unused910]": 915,
  "##tes": 4570,
  "predicted": 10173,
  "nagasaki": 27107,
  "nine": 3157,
  "relied": 13538,
  "wheeler": 12819,
  "stratford": 17723,
  "punishment": 7750,
  "bred": 13680,
  "scoop": 23348,
  "cases": 3572,
  "falcons": 14929,
  "[unused878]": 883,
  "##mata": 21022,
  "ballast": 28030,
  "benedictine": 21139,
  "barr": 19820,
  "prevalent": 15157,
  "plans": 3488,
  "##watch": 18866,
  "##ury": 13098,
  "exhaustion": 15575,
  "rites": 17105,
  "[unused807]": 812,
  "reduced": 4359,
  "tandem": 18231,
  "rca": 12639,
  "chiba": 27368,
  "juice": 10869,
  "1618": 29029,
  "phases": 12335,
  "crawford": 10554,
  "enrichment": 27226,
  "gulped": 25411,
  "statistical": 7778,
  "buena": 27493,
  "rhode": 9763,
  "identities": 15702,
  "pearce": 19560,
  "##\u6587": 30387,
  "pulses": 23894,
  "##king": 6834,
  "##ock": 7432,
  "anchor": 8133,
  "hose": 21290,
  "constituted": 11846,
  "artery": 16749,
  "former": 2280,
  "terminate": 20320,
  "dell": 12418,
  "mined": 21846,
  "##dd": 14141,
  "[unused351]": 356,
  "30th": 13293,
  "v8": 15754,
  "##rry": 12244,
  "doping": 23799,
  "stabbed": 13263,
  "titled": 4159,
  "tibet": 13319,
  "\u8449": 1943,
  "##nge": 15465,
  "prentice": 23429,
  "brunette": 27261,
  "1987": 3055,
  "dq": 25410,
  "recreational": 10517,
  "accomplish": 14570,
  "lyman": 27587,
  "meant": 3214,
  "##\u0921": 29857,
  "birthplace": 14508,
  "chorus": 7165,
  "204": 19627,
  "cooperation": 6792,
  "\u3072": 1673,
  "defender": 8291,
  "fiat": 18550,
  "galerie": 17941,
  "successes": 14152,
  "raids": 11217,
  "navigate": 22149,
  "37": 4261,
  "commentators": 15957,
  "emi": 12495,
  "ipa": 24531,
  "248": 24568,
  "1897": 6347,
  "texas": 3146,
  "sachs": 22818,
  "##cture": 14890,
  "nationalist": 8986,
  "cracked": 9630,
  "328": 25256,
  "excitement": 8277,
  "horribly": 27762,
  "drugged": 25483,
  "tents": 17732,
  "##aceous": 25560,
  "##rza": 24175,
  "cory": 18342,
  "wilkins": 22745,
  "footprints": 24629,
  "[unused197]": 202,
  "mariners": 18049,
  "neighbours": 14754,
  "racing": 3868,
  "entrusted": 18011,
  "cornwall": 10387,
  "##ors": 5668,
  "rep": 16360,
  "##awan": 25903,
  "situated": 4350,
  "##\u0646": 15915,
  "shrub": 15751,
  "broadband": 19595,
  "##ffy": 16329,
  "empathy": 26452,
  "tow": 15805,
  "routed": 19578,
  "mold": 18282,
  "[unused783]": 788,
  "sharif": 20351,
  "accommodation": 11366,
  "##ories": 18909,
  "inwardly": 28710,
  "nordic": 13649,
  "clutching": 14197,
  "tubular": 25147,
  "##utive": 28546,
  "describes": 5577,
  "milne": 24377,
  "settlement": 4093,
  "stream": 5460,
  "panther": 15133,
  "amendments": 16051,
  "midfielder": 8850,
  "5th": 4833,
  "itunes": 11943,
  "##\u535a": 30312,
  "disagreement": 18185,
  "wrestlemania": 28063,
  "##raj": 14220,
  "dwell": 23120,
  "dogs": 6077,
  "\u5b89": 1820,
  "detected": 11156,
  "adviser": 11747,
  "unlawful": 22300,
  "\u2f65": 1634,
  "performances": 4616,
  "physics": 5584,
  "[unused362]": 367,
  "galactic": 21375,
  "goethe": 23173,
  "disappeared": 5419,
  "##\u1110": 30003,
  "initiated": 7531,
  "requiring": 9034,
  "boeing": 10321,
  "amused": 11770,
  "sesame": 23605,
  "##ngen": 25997,
  "\u027e": 1126,
  "synagogue": 13067,
  "##qing": 19784,
  "maximize": 25845,
  "capt": 14408,
  "[unused721]": 726,
  "dairy": 11825,
  "champagne": 12327,
  "mindanao": 23669,
  "##rnik": 26437,
  "walsh": 11019,
  "##itaire": 29422,
  "barbie": 22635,
  "panel": 5997,
  "##brand": 23544,
  "hospitalized": 24735,
  "##gau": 20420,
  "\u0dbd": 1406,
  "\u0633": 1282,
  "otter": 22279,
  "nationalists": 17934,
  "ness": 23384,
  "[unused928]": 933,
  "designer": 5859,
  "tenants": 14665,
  "transformation": 8651,
  "maxi": 21510,
  "##andra": 29159,
  "decatur": 27783,
  "brewers": 20007,
  "con": 9530,
  "hulk": 16009,
  "street": 2395,
  "prohibit": 23469,
  "##osaurus": 25767,
  "multiple": 3674,
  "stripped": 10040,
  "likely": 3497,
  "spontaneously": 27491,
  "##\u11b7": 30023,
  "santa": 4203,
  "cadiz": 26342,
  "\u25a0": 1617,
  "##mento": 23065,
  "gorilla": 23526,
  "diplomatic": 8041,
  "falling": 4634,
  "mahmoud": 27278,
  "assisted": 7197,
  "spot": 3962,
  "induced": 10572,
  "contemplated": 23133,
  "abigail": 15983,
  "subgroup": 20576,
  "##\u1d4d": 30036,
  "beige": 28799,
  "storm": 4040,
  "across": 2408,
  "slaves": 7179,
  "##dable": 20782,
  "lights": 4597,
  "##\u8033": 30463,
  "thinner": 23082,
  "regimental": 17604,
  "baptism": 18336,
  "amnesia": 29222,
  "bazaar": 22774,
  "utility": 9710,
  "bomb": 5968,
  "##lts": 21593,
  "abuses": 21078,
  "leaning": 6729,
  "grimsby": 24470,
  "interpretations": 15931,
  "mcmahon": 17741,
  "\u2086": 1553,
  "##\u0621": 29815,
  "\u201e": 1525,
  "lettering": 25782,
  "disliked": 18966,
  "##charged": 22620,
  "##uma": 12248,
  "hutton": 20408,
  "latham": 28737,
  "##ested": 17944,
  "detector": 19034,
  "\u4e8b": 1751,
  "##ram": 6444,
  "##\u10dd": 29986,
  "1920s": 6641,
  "info": 18558,
  "surveys": 12265,
  "\u0e23": 1417,
  "conscription": 26329,
  "mistake": 6707,
  "organizers": 18829,
  "##bson": 27355,
  "andrey": 29219,
  "##\u00b0": 7737,
  "courtroom": 20747,
  "wires": 14666,
  "barge": 19398,
  "pines": 17527,
  "englishman": 25244,
  "jaime": 14519,
  "zoological": 26168,
  "defected": 26330,
  "1805": 13126,
  "##\u4fdd": 30292,
  "soda": 14904,
  "##ote": 12184,
  "submissions": 27842,
  "groundwater": 22761,
  "solo": 3948,
  "confusing": 16801,
  "[unused601]": 606,
  "combat": 4337,
  "monuments": 10490,
  "ever": 2412,
  "authors": 6048,
  "##\u674e": 30403,
  "underway": 14128,
  "thereof": 21739,
  "filling": 8110,
  "pillow": 10005,
  "adorned": 19189,
  "preliminary": 8824,
  "paw": 22195,
  "imp": 17727,
  "climate": 4785,
  "button": 6462,
  "association": 2523,
  "choi": 18151,
  "hurdle": 27630,
  "shadows": 6281,
  "agreeing": 16191,
  "citizen": 6926,
  "strongly": 6118,
  "ivory": 11554,
  "jakarta": 14426,
  "##ossa": 21842,
  "subscribers": 17073,
  "fk": 14352,
  "fray": 25975,
  "coffee": 4157,
  "saxe": 24937,
  "inaugural": 7725,
  "denial": 14920,
  "alla": 25699,
  "##lson": 14881,
  "telescopes": 28026,
  "dried": 9550,
  "rituals": 13549,
  "ignoring": 9217,
  "168": 16923,
  "substitutes": 29200,
  "pinnacle": 26007,
  "furiously": 20322,
  "enduring": 16762,
  "helplessly": 24942,
  "tae": 22297,
  "hume": 20368,
  "hagen": 24047,
  "##runa": 26605,
  "visiting": 5873,
  "receives": 8267,
  "\u771f": 1921,
  "\u201d": 1524,
  "1927": 4764,
  "\u539f": 1787,
  "##say": 24322,
  "##ative": 8082,
  "##vati": 20203,
  "\u1d56": 1504,
  "##lce": 23314,
  "bruises": 18438,
  "##oca": 24755,
  "communists": 13009,
  "\u0575": 1230,
  "illegitimate": 18102,
  "napkin": 20619,
  "noise": 5005,
  "...": 2133,
  "clubhouse": 22067,
  "weasel": 29268,
  "stakeholders": 22859,
  "afternoon": 5027,
  "reconcile": 21063,
  "67": 6163,
  "phoenix": 6708,
  "theater": 4258,
  "luisa": 25412,
  "##elled": 21148,
  "cited": 6563,
  "phonetic": 26664,
  "leash": 26834,
  "nicola": 17388,
  "intervals": 14025,
  "rainer": 28035,
  "pune": 16920,
  "senegal": 16028,
  "trent": 7990,
  "onset": 14447,
  "chan": 9212,
  "resign": 12897,
  "bundesliga": 14250,
  "mfa": 26913,
  "forcing": 6932,
  "disorders": 10840,
  "##boards": 15271,
  "leased": 12019,
  "aluminum": 13061,
  "unwanted": 18162,
  "sighed": 5489,
  "actress": 3883,
  "sky": 3712,
  "daytime": 12217,
  "fx": 23292,
  "les": 4649,
  "mbe": 20301,
  "iso": 11163,
  "tilting": 21788,
  "rourke": 24400,
  "walters": 19097,
  "flux": 19251,
  "brigade": 4250,
  "##ylus": 18871,
  "\u00a7": 1073,
  "grupo": 26678,
  "caravan": 17184,
  "##ego": 20265,
  "treasure": 8813,
  "franchise": 6329,
  "bahrain": 15195,
  "##ption": 16790,
  "cocktail": 18901,
  "kind": 2785,
  "munro": 20923,
  "christine": 10941,
  "routines": 23964,
  "airways": 13095,
  "errors": 10697,
  "repulsed": 24571,
  "prominently": 14500,
  "tourists": 9045,
  "rus": 22949,
  "organs": 11595,
  "papal": 12156,
  "treatments": 13441,
  "entertained": 21474,
  "minnie": 26188,
  "tales": 7122,
  "nylon": 27201,
  "##ulous": 16203,
  "##\u2033": 30067,
  "sequential": 25582,
  "##ace": 10732,
  "airplanes": 24042,
  "janet": 9965,
  "images": 4871,
  "dude": 12043,
  "480": 17295,
  "marge": 25532,
  "##ioms": 29178,
  "interact": 11835,
  "\u2660": 1623,
  "analyzing": 20253,
  "##aurus": 17342,
  "142": 16087,
  "drawers": 22497,
  "constantly": 7887,
  "berth": 17064,
  "dwyer": 29394,
  "##tree": 13334,
  "lesser": 8276,
  "gdp": 14230,
  "##tal": 9080,
  "claw": 15020,
  "##\u2113": 30105,
  "vertical": 7471,
  "vh1": 26365,
  "##12": 12521,
  "sellers": 19041,
  "mule": 20568,
  "pack": 5308,
  "##enting": 26951,
  "knights": 7307,
  "doncaster": 18895,
  "extra": 4469,
  "gained": 4227,
  "bill": 3021,
  "turnbull": 26439,
  "moritz": 28461,
  "rumours": 19200,
  "##\u66f2": 30396,
  "mesh": 20437,
  "hitler": 8042,
  "damascus": 16094,
  "\u00a2": 1068,
  "alignment": 12139,
  "nasa": 9274,
  "[unused379]": 384,
  "register": 4236,
  "##dav": 29045,
  "upward": 10745,
  "guzman": 22789,
  "dei": 14866,
  "##gart": 27378,
  "etched": 20286,
  "cruelty": 18186,
  "bracing": 25919,
  "overlook": 27590,
  "cathy": 18305,
  "cochrane": 22329,
  "astronomers": 26357,
  "autopsy": 24534,
  "descent": 6934,
  "intentional": 21249,
  "papa": 13008,
  "level": 2504,
  "odds": 10238,
  "ants": 16111,
  "generations": 8213,
  "rusty": 13174,
  "ashes": 11289,
  "what": 2054,
  "amount": 3815,
  "skilled": 10571,
  "expeditions": 15014,
  "burden": 10859,
  "##ita": 6590,
  "imaginary": 15344,
  "##bham": 25522,
  "fears": 10069,
  "infectious": 16514,
  "xiv": 15939,
  "siegfried": 25948,
  "movements": 5750,
  "facade": 8508,
  "norwich": 12634,
  "[unused691]": 696,
  "mushrooms": 23827,
  "railroads": 16197,
  "lines": 3210,
  "worcestershire": 20218,
  "187": 19446,
  "incorporating": 13543,
  "captured": 4110,
  "##\u21d2": 30119,
  "##ld": 6392,
  "##run": 15532,
  "powell": 8997,
  "wool": 12121,
  "7": 1021,
  "precious": 9062,
  "coordinate": 13530,
  "gmina": 7061,
  "conner": 17639,
  "##estinal": 19126,
  "flashed": 8373,
  "regiments": 10435,
  "\u300f": 1644,
  "glen": 8904,
  "pushed": 3724,
  "drummond": 19266,
  "##uled": 18696,
  "offspring": 13195,
  "incurred": 22667,
  "brent": 12895,
  "##uit": 14663,
  "##pment": 24073,
  "frequent": 6976,
  "##lok": 29027,
  "mass": 3742,
  "##dor": 7983,
  "latitude": 15250,
  "offenses": 25173,
  "howl": 22912,
  "marie": 5032,
  "trigger": 9495,
  "provence": 19923,
  "stagecoach": 26025,
  "nephew": 7833,
  "[unused606]": 611,
  "sank": 7569,
  "hotel": 3309,
  "never": 2196,
  "ears": 5551,
  "living": 2542,
  "boer": 19945,
  "\u0916": 1316,
  "decorate": 29460,
  "anglo": 7819,
  "ride": 4536,
  "hillside": 18573,
  "t": 1056,
  "rippled": 26862,
  "dayton": 14700,
  "##mons": 16563,
  "pool": 4770,
  "sinister": 16491,
  "ranging": 7478,
  "dark": 2601,
  "roxy": 23682,
  "suburban": 9282,
  "helicopter": 7739,
  "shelton": 22230,
  "office": 2436,
  "boring": 11771,
  "##nas": 11649,
  "announcement": 8874,
  "conventions": 12472,
  "pu": 16405,
  "di": 4487,
  "adi": 27133,
  "denounced": 17787,
  "kerr": 14884,
  "148": 16459,
  "proposed": 3818,
  "receiver": 8393,
  "snow": 4586,
  "##w": 2860,
  "\u062d": 1276,
  "saskatchewan": 10068,
  "\u306e": 1671,
  "issn": 23486,
  "birth": 4182,
  "emilia": 20417,
  "aviator": 24035,
  "##iba": 18410,
  "officials": 4584,
  "volunteer": 6951,
  "##azi": 16103,
  "##ishing": 21837,
  "embark": 28866,
  "keeper": 10684,
  "robbie": 12289,
  "bone": 5923,
  "blood": 2668,
  "swelling": 18348,
  "lau": 21360,
  "1643": 25534,
  "presbyterian": 10133,
  "liter": 23675,
  "whites": 12461,
  "\u207a": 1544,
  "devastation": 25594,
  "##\u0639": 29830,
  "timmy": 27217,
  "nude": 15287,
  "koreans": 24651,
  "mckinley": 22121,
  "hooves": 28399,
  "4000": 20143,
  "context": 6123,
  "klan": 26613,
  "##gy": 6292,
  "insert": 19274,
  "asleep": 6680,
  "rees": 22131,
  "sculpted": 19921,
  "##\u09a3": 29897,
  "lasers": 23965,
  "complete": 3143,
  "edna": 21051,
  "premiered": 5885,
  "##bb": 10322,
  "thrash": 27042,
  "invitation": 8468,
  "char": 25869,
  "roots": 6147,
  "##\u4e00": 30266,
  "vectors": 19019,
  "##horpe": 22044,
  "loretta": 28493,
  "dryly": 20825,
  "pendulum": 28300,
  "blocked": 8534,
  "gaddafi": 28924,
  "ice": 3256,
  "1880": 6756,
  "vickers": 18571,
  "forgive": 9641,
  "bacterial": 17341,
  "shivers": 28464,
  "##shima": 24772,
  "indirect": 14958,
  "garrett": 9674,
  "miranda": 9392,
  "soup": 11350,
  "apartments": 9620,
  "##anus": 20849,
  "##ened": 6675,
  "sat": 2938,
  "smartphone": 26381,
  "criticism": 6256,
  "establishes": 21009,
  "##oko": 16366,
  "[unused272]": 277,
  "##bag": 16078,
  "304": 23859,
  "launch": 4888,
  "onslaught": 28644,
  "reid": 9027,
  "jin": 9743,
  "[unused920]": 925,
  "leaving": 2975,
  "painter": 5276,
  "consortium": 12360,
  "##eria": 11610,
  "constable": 12294,
  "swimmer": 13361,
  "oder": 27215,
  "organic": 7554,
  "##cellular": 16882,
  "jakob": 19108,
  "tnt": 24048,
  "candy": 9485,
  "ignore": 8568,
  "outpost": 21080,
  "##ret": 13465,
  "pere": 23976,
  "testosterone": 25937,
  "335": 24426,
  "blair": 10503,
  "robe": 11111,
  "personality": 6180,
  "##\u0935": 29871,
  "##adi": 17190,
  "battling": 17773,
  "209": 19348,
  "##yles": 26274,
  "behaviors": 15592,
  "mccormick": 23213,
  "dynamite": 21719,
  "erotic": 14253,
  "##lun": 26896,
  "buffalo": 6901,
  "unofficially": 29322,
  "##\u0e15": 29947,
  "airfields": 25278,
  "reflecting": 10842,
  "calder": 19347,
  "francaise": 18427,
  "##pha": 21890,
  "minimal": 10124,
  "predicting": 29458,
  "##itated": 15198,
  "apologize": 12134,
  "##edes": 18352,
  "nyu": 27935,
  "narratives": 22143,
  "nigeria": 7387,
  "utrecht": 18361,
  "erskine": 27139,
  "john": 2198,
  "fronted": 23291,
  "russo": 17023,
  "platoon": 13799,
  "rat": 9350,
  "versatile": 22979,
  "bulky": 27446,
  "##rang": 24388,
  "##lake": 14530,
  "inconsistent": 20316,
  "1770": 17711,
  "success": 3112,
  "stranded": 15577,
  "##ped": 5669,
  "291": 27173,
  "restricting": 26996,
  "titus": 18828,
  "dash": 11454,
  "##\u1d62": 19109,
  "scattered": 7932,
  "himself": 2370,
  "anywhere": 5973,
  "stockport": 26284,
  "pretoria": 25366,
  "syed": 19740,
  "gloucestershire": 15905,
  "damian": 19507,
  "picks": 11214,
  "shang": 29382,
  "chimed": 27460,
  "stigma": 26453,
  "##ception": 24422,
  "secretary": 3187,
  "video": 2678,
  "realms": 18814,
  "scholars": 5784,
  "press": 2811,
  "glee": 18874,
  "starved": 26042,
  "104": 9645,
  "educators": 19156,
  "mars": 7733,
  "orb": 19607,
  "periods": 6993,
  "##zing": 6774,
  "incomes": 29373,
  "bloomberg": 22950,
  "kei": 26679,
  "egan": 27889,
  "\u76f8": 1919,
  "lock": 5843,
  "ordinance": 16692,
  "##mma": 14760,
  "atrium": 26204,
  "tho": 27793,
  "coloured": 11401,
  "operated": 3498,
  "##oles": 29111,
  "archived": 9749,
  "paterson": 19162,
  "warming": 12959,
  "lurking": 24261,
  "##dora": 24562,
  "##dies": 18389,
  "morris": 6384,
  "##\u099c": 29894,
  "minogue": 27736,
  "spine": 8560,
  "##ique": 7413,
  "prized": 25695,
  "1793": 12387,
  "winds": 7266,
  "##adt": 18727,
  "110": 7287,
  "practically": 8134,
  "##ound": 28819,
  "##\u52a0": 30305,
  "transfer": 4651,
  "saber": 25653,
  "artillery": 4893,
  "console": 10122,
  "iihf": 26904,
  "lough": 29504,
  "kings": 5465,
  "less": 2625,
  "antibodies": 22931,
  "peking": 27057,
  "zheng": 20985,
  "danny": 6266,
  "##nberg": 11144,
  "macdonald": 10406,
  "measure": 5468,
  "[unused435]": 440,
  "soldier": 5268,
  "##band": 12733,
  "overly": 15241,
  "fabio": 25616,
  "deserved": 10849,
  "##yl": 8516,
  "peoples": 7243,
  "types": 4127,
  "tapping": 15135,
  "comb": 22863,
  "##jali": 28948,
  "london": 2414,
  "\uff5e": 1995,
  "##xton": 14226,
  "##uin": 20023,
  "[unused571]": 576,
  "affection": 12242,
  "porsche": 16099,
  "request": 5227,
  "reciprocal": 28309,
  "manuscript": 8356,
  "huts": 23326,
  "effect": 3466,
  "airports": 13586,
  "casually": 13217,
  "marquis": 13410,
  "ode": 24040,
  "##pipe": 24548,
  "320": 13710,
  "discrete": 16246,
  "##\u0f42": 29962,
  "bungalow": 27563,
  "spectrum": 8674,
  "hong": 4291,
  "koch": 15259,
  "conrad": 10931,
  "jumps": 14523,
  "clinging": 17892,
  "##\u300e": 30169,
  "handwriting": 24149,
  "classical": 4556,
  "laird": 21964,
  "worsened": 27622,
  "rainy": 16373,
  "sticky": 15875,
  "gameplay": 11247,
  "turbulence": 29083,
  "##yala": 28617,
  "northamptonshire": 21367,
  "positioned": 10959,
  "rent": 9278,
  "##stra\u00dfe": 24967,
  "##rger": 25858,
  "wyoming": 10622,
  "##\u5065": 30294,
  "##typical": 27086,
  "trump": 8398,
  "820": 26667,
  "consultative": 28581,
  "[unused629]": 634,
  "impressed": 7622,
  "1653": 29309,
  "responsibilities": 10198,
  "seo": 27457,
  "settles": 27221,
  "matter": 3043,
  "backward": 8848,
  "consequently": 8821,
  "\u00bb": 1090,
  "favors": 21191,
  "vane": 23334,
  "simulator": 25837,
  "##mu": 12274,
  "dome": 8514,
  "ec": 14925,
  "##eman": 16704,
  "##iens": 24836,
  "chihuahua": 28480,
  "\u10db": 1448,
  "sorbonne": 28452,
  "##\u1107": 29996,
  "howard": 4922,
  "recognize": 6807,
  "faces": 5344,
  "1857": 8204,
  "charles": 2798,
  "separates": 18600,
  "migrant": 20731,
  "disorder": 8761,
  "550": 13274,
  "1600": 14883,
  "nehru": 23556,
  "##ttes": 14581,
  "##vel": 15985,
  "viva": 20022,
  "bulk": 9625,
  "##zai": 25290,
  "therapeutic": 17261,
  "hail": 16889,
  "willing": 5627,
  "canadiens": 21247,
  "methodist": 8938,
  "obsessed": 15896,
  "morgan": 5253,
  "ate": 8823,
  "\u05d0": 1241,
  "goalkeeper": 9653,
  "[unused570]": 575,
  "derive": 18547,
  "##tics": 14606,
  "##rian": 6862,
  "eurasian": 23399,
  "relegation": 9591,
  "1": 1015,
  "hunan": 27374,
  "sustainability": 15169,
  "dee": 9266,
  "restaurant": 4825,
  "gall": 26033,
  "myles": 27056,
  "calves": 28023,
  "resentment": 20234,
  "bull": 7087,
  "##\u0b9a": 29919,
  "attractions": 13051,
  "eugen": 29273,
  "##odon": 28716,
  "coalition": 6056,
  "supply": 4425,
  "pleading": 16418,
  "##nais": 28020,
  "temperature": 4860,
  "forts": 15421,
  "finland": 6435,
  "milo": 20359,
  "latest": 6745,
  "baths": 19692,
  "##ast": 14083,
  "criterion": 19229,
  "kingdoms": 12028,
  "stirred": 13551,
  "\u5ddd": 1835,
  "goose": 13020,
  "longitudinal": 20134,
  "avenue": 3927,
  "maitland": 25511,
  "predatory": 21659,
  "holidays": 11938,
  "gambia": 26728,
  "##ald": 19058,
  "adherents": 25712,
  "curls": 14484,
  "##yat": 26139,
  "##\u3078": 30201,
  "inactive": 16389,
  "maroon": 22222,
  "grow": 4982,
  "hm": 20287,
  "displaced": 12936,
  "[unused737]": 742,
  "organising": 21317,
  "potato": 14557,
  "##laze": 24472,
  "without": 2302,
  "[unused443]": 448,
  "[unused389]": 394,
  "chad": 9796,
  "##tera": 14621,
  "guam": 16162,
  "arc": 8115,
  "transportation": 5193,
  "1911": 5184,
  "tax": 4171,
  "hyderabad": 13624,
  "fest": 17037,
  "slack": 19840,
  "\u026c": 1121,
  "bury": 11010,
  "##tens": 25808,
  "critically": 11321,
  "swelled": 21851,
  "leapt": 13920,
  "##wn": 7962,
  "seal": 7744,
  "books": 2808,
  "unanimous": 13604,
  "\u90e1": 1959,
  "challenge": 4119,
  "horizon": 9154,
  "afc": 10511,
  "tonnes": 11000,
  "mandated": 16714,
  "traversed": 27797,
  "seller": 14939,
  "spraying": 29035,
  "pry": 29198,
  "zane": 6944,
  "fathers": 11397,
  "repertory": 21099,
  "massive": 5294,
  "repertoire": 13646,
  "ahmedabad": 27249,
  "vi": 6819,
  "larvae": 9673,
  "##\u025b": 29275,
  "##utz": 20267,
  "##aria": 10980,
  "packets": 23730,
  "popularized": 20339,
  "viewed": 7021,
  "\u5b9a": 1822,
  "experiencing": 13417,
  "##eville": 21187,
  "com": 4012,
  "cursed": 10678,
  "footed": 28856,
  "submitted": 7864,
  "[unused415]": 420,
  "christopher": 5696,
  "doubts": 13579,
  "commanding": 7991,
  "reflect": 8339,
  "floats": 24885,
  "[unused812]": 817,
  "beatrice": 14807,
  "tenth": 7891,
  "superstar": 18795,
  "pens": 25636,
  "##weight": 11179,
  "gabrielle": 16988,
  "owing": 11427,
  "[unused660]": 665,
  "##rgeon": 28242,
  "##folia": 21710,
  "gardens": 5822,
  "says": 2758,
  "logos": 25571,
  "stool": 14708,
  "construct": 9570,
  "meade": 26501,
  "gal": 14891,
  "\u05da": 1251,
  "monthly": 7058,
  "suggested": 4081,
  "##neo": 23585,
  "##\u0292": 29704,
  "vibrating": 24987,
  "kendra": 13812,
  "matrix": 8185,
  "looks": 3504,
  "[unused128]": 133,
  "tourism": 6813,
  "dotted": 20384,
  "##rain": 21166,
  "cyclists": 21912,
  "raiding": 23530,
  "sichuan": 20980,
  "michelle": 9393,
  "tai": 13843,
  "pursued": 9505,
  "hung": 5112,
  "expansion": 4935,
  "black": 2304,
  "worthless": 22692,
  "offshore": 12195,
  "crowley": 20748,
  "##skin": 29334,
  "jay": 6108,
  "sequencing": 24558,
  "sustainable": 9084,
  "letterman": 26593,
  "warmed": 17336,
  "diminished": 15911,
  "luke": 5355,
  "gaul": 26522,
  "##own": 12384,
  "pilasters": 26752,
  "incarnation": 15715,
  "hidalgo": 24715,
  "dutton": 28784,
  "endorsement": 20380,
  "##tao": 28555,
  "leary": 22986,
  "##mel": 10199,
  "atoms": 13353,
  "[unused39]": 40,
  "respected": 9768,
  "##rred": 20529,
  "cote": 17155,
  "instrument": 6602,
  "eroded": 23300,
  "##elli": 13348,
  "##\u00aa": 29653,
  "dancers": 10487,
  "metacritic": 14476,
  "\u211d": 1579,
  "rita": 11620,
  "1651": 29077,
  "lightly": 8217,
  "[unused449]": 454,
  "bedford": 12003,
  "analyses": 16478,
  "rejection": 13893,
  "200": 3263,
  "daylight": 11695,
  "symptoms": 8030,
  "brownish": 19437,
  "roche": 20162,
  "##owa": 21293,
  "yun": 22854,
  "pray": 11839,
  "shortly": 3859,
  "##ph": 8458,
  "beaches": 12212,
  "warwickshire": 18430,
  "gulp": 26546,
  "bowing": 26690,
  "##ump": 24237,
  "shrugged": 6345,
  "regardless": 7539,
  "\u03b5": 1159,
  "bearded": 23905,
  "dismissal": 15322,
  "scheduled": 5115,
  "##\u0445": 29750,
  "##ht": 11039,
  "##cini": 27085,
  "laps": 10876,
  "xiii": 15031,
  "##eses": 23072,
  "##brush": 18623,
  "governor": 3099,
  "distance": 3292,
  "gentry": 20262,
  "[unused779]": 784,
  "##bula": 28507,
  "tavi": 24283,
  "[unused911]": 916,
  "[unused240]": 245,
  "##tson": 25656,
  "##oy": 6977,
  "\u0f42": 1426,
  "##tism": 17456,
  "\u10dd": 1450,
  "hull": 6738,
  "squinting": 29156,
  "matt": 4717,
  "##\u30ad": 30227,
  "1844": 9730,
  "highlights": 11637,
  "advising": 23875,
  "balcony": 11673,
  "enthusiastic": 14727,
  "quantities": 12450,
  "paving": 28007,
  "certified": 7378,
  "tribal": 8807,
  "arching": 27335,
  "brightened": 28996,
  "##\u00bb": 29663,
  "dockyard": 24874,
  "stress": 6911,
  "uzbekistan": 17065,
  "##nington": 23155,
  "simulations": 24710,
  "##ologist": 8662,
  "##\u30ca": 30241,
  "alsace": 24922,
  "heck": 17752,
  "laurence": 10883,
  "dipping": 23427,
  "hurts": 13403,
  "speakers": 7492,
  "stuffing": 28652,
  "dresses": 14464,
  "glued": 22805,
  "1806": 12518,
  "beale": 28371,
  "##alia": 22786,
  "##weiler": 22384,
  "toes": 10393,
  "##\u09ac": 29904,
  "briefcase": 21793,
  "marker": 12115,
  "ron": 6902,
  "##cious": 18436,
  "arid": 17511,
  "322": 23768,
  "insurgents": 20541,
  "tombstone": 26671,
  "lazy": 13971,
  "clumsy": 22902,
  "grocery": 13025,
  "tehran": 13503,
  "tub": 14366,
  "hz": 22100,
  "swarm": 21708,
  "\u304b": 1651,
  "435": 24125,
  "filtered": 21839,
  "##\u524d": 30302,
  "innovative": 9525,
  "##gman": 25494,
  "250": 5539,
  "vowel": 12710,
  "reptiles": 20978,
  "osaka": 13000,
  "##mate": 8585,
  "[unused166]": 171,
  "rewards": 19054,
  "yuki": 24924,
  "void": 11675,
  "##mussen": 29134,
  "reich": 14365,
  "##cap": 17695,
  "remastered": 19484,
  "spread": 3659,
  "##ud": 6784,
  "schneider": 15159,
  "turquoise": 28653,
  "##ask": 19895,
  "womb": 26578,
  "christy": 21550,
  "volkswagen": 18817,
  "##cross": 16458,
  "abroad": 6917,
  "elk": 18995,
  "brethren": 17937,
  "reigned": 21236,
  "teller": 21322,
  "trusted": 9480,
  "third": 2353,
  "kuala": 15490,
  "750": 9683,
  "effortlessly": 29483,
  "inhibit": 26402,
  "##ske": 17140,
  "cruz": 8096,
  "inventions": 21644,
  "carnage": 27450,
  "mathematician": 13235,
  "tariffs": 26269,
  "intense": 6387,
  "tokugawa": 22065,
  "lever": 15929,
  "##pas": 19707,
  "unexpectedly": 14153,
  "##\u0997": 29891,
  "290": 17222,
  "autonomy": 12645,
  "avenge": 24896,
  "reforming": 29455,
  "throbbed": 27714,
  "zion": 19999,
  "jars": 25067,
  "ecosystem": 16927,
  "meteorological": 20557,
  "##war": 9028,
  "gujarat": 14288,
  "pulitzer": 17618,
  "##\u5f73": 30371,
  "\u0431": 1181,
  "monastic": 17361,
  "##mans": 15154,
  "humans": 4286,
  "\u0b95": 1382,
  "##flow": 12314,
  "expressing": 14026,
  "theological": 9208,
  "##meo": 26247,
  "##vyn": 23487,
  "rama": 14115,
  "##ander": 12243,
  "[unused69]": 70,
  "longer": 2936,
  "##rran": 28327,
  "represented": 3421,
  "has": 2038,
  "##asurable": 28329,
  "gorge": 14980,
  "\u1d4d": 1500,
  "moisture": 14098,
  "specialising": 23315,
  "titan": 16537,
  "reclaimed": 23119,
  "inability": 13720,
  "deemed": 8357,
  "##eca": 19281,
  "applications": 5097,
  "[unused771]": 776,
  "grasp": 10616,
  "giant": 5016,
  "ras": 20710,
  "##ine": 3170,
  "techno": 21416,
  "##izer": 17629,
  "based": 2241,
  "importantly": 14780,
  "inserted": 12889,
  "##\u0ba8": 29922,
  "##ards": 18117,
  "mrs": 3680,
  "cbe": 15852,
  "remember": 3342,
  "##arina": 27943,
  "nineteen": 11977,
  "pete": 6969,
  "macau": 16878,
  "relic": 24933,
  "nutrition": 14266,
  "hero": 5394,
  "kaye": 23686,
  "##nding": 15683,
  "probing": 28664,
  "##car": 10010,
  "421": 29403,
  "\u00a8": 1074,
  "starvation": 22611,
  "adequate": 11706,
  "metz": 24424,
  "focused": 4208,
  "shark": 11420,
  "\u10dc": 1449,
  "##sibility": 28255,
  "legs": 3456,
  "##stad": 16917,
  "botanic": 27761,
  "\u0bb3": 1393,
  "blazing": 17162,
  "mis": 28616,
  "silk": 6953,
  "##lette": 27901,
  "merton": 28169,
  "trace": 7637,
  "houston": 5395,
  "##vas": 12044,
  "detroit": 5626,
  "##her": 5886,
  "hoffmann": 24437,
  "\u65b0": 1862,
  "##missive": 27876,
  "rann": 26312,
  "##ott": 14517,
  "##ez": 9351,
  "##opsis": 22599,
  "catholic": 3234,
  "shrimp": 20130,
  "moon": 4231,
  "##tary": 18219,
  "reflex": 22259,
  "viceroy": 19007,
  "[unused639]": 644,
  "##zard": 26154,
  "ufo": 24321,
  "disasters": 18665,
  "burn": 6402,
  "##vik": 13309,
  "##\u027e": 29692,
  "birthday": 5798,
  "tam": 17214,
  "##\u2205": 30121,
  "outspoken": 22430,
  "accord": 15802,
  "persist": 29486,
  "glaring": 16124,
  "##dong": 17679,
  "broughton": 29187,
  "##ston": 7106,
  "configurations": 22354,
  "steve": 3889,
  "macedonian": 13037,
  "reassure": 24647,
  "gather": 8587,
  "aqua": 28319,
  "secrecy": 20259,
  "dollar": 7922,
  "stud": 16054,
  "dew": 24903,
  "##86": 20842,
  "ports": 8831,
  "asylum": 11386,
  "##rud": 28121,
  "##fen": 18940,
  "portable": 12109,
  "\u540d": 1795,
  "##ored": 19574,
  "##\u0578": 29779,
  "##\u7701": 30446,
  "continents": 17846,
  "spoil": 27594,
  "##rrie": 22155,
  "guidelines": 11594,
  "sparhawk": 13709,
  "aim": 6614,
  "torture": 8639,
  "[unused675]": 680,
  "reservoir": 8071,
  "uae": 17641,
  "hem": 19610,
  "quicker": 19059,
  "rosewood": 29528,
  "rana": 22175,
  "1838": 9931,
  "whispers": 11054,
  "screened": 12238,
  "##\u653f": 30386,
  "\u00ae": 1079,
  "##ic": 2594,
  "[unused336]": 341,
  "1931": 4739,
  "utc": 11396,
  "highs": 26836,
  "frightened": 10363,
  "1761": 21364,
  "##lli": 6894,
  "editorial": 8368,
  "\u201a": 1522,
  "focusing": 7995,
  "[unused152]": 157,
  "elites": 27021,
  "##sable": 19150,
  "anatolia": 23747,
  "implication": 25323,
  "sins": 15516,
  "novice": 23131,
  "traditional": 3151,
  "characterization": 23191,
  "airborne": 10519,
  "complexion": 28838,
  "palestinian": 9302,
  "1904": 5692,
  "prolonged": 15330,
  "marketing": 5821,
  "fable": 28458,
  "cloth": 8416,
  "consent": 9619,
  "national": 2120,
  "thru": 27046,
  "##skie": 23955,
  "plurality": 29018,
  "##riety": 27840,
  "buck": 10131,
  "motel": 14901,
  "replicate": 28024,
  "waved": 7147,
  "##all": 8095,
  "applicant": 23761,
  "etienne": 16821,
  "welfare": 7574,
  "cunningham": 13652,
  "moldova": 16772,
  "preach": 25250,
  "dubois": 26258,
  "##issa": 21205,
  "switzerland": 5288,
  "offensive": 5805,
  "guerra": 24698,
  "##orescence": 20030,
  "tens": 15295,
  "875": 27658,
  "##onga": 26356,
  "hughes": 8099,
  "distraction": 14836,
  "bodily": 20445,
  "\u0632": 1281,
  "[unused576]": 581,
  "jail": 7173,
  "p": 1052,
  "##gic": 12863,
  "frequencies": 13139,
  "main": 2364,
  "##nated": 23854,
  "copa": 10613,
  "orton": 25161,
  "reese": 15883,
  "stein": 14233,
  "pitching": 14696,
  "denis": 11064,
  "older": 3080,
  "##omo": 19506,
  "stefano": 19618,
  "halfway": 8576,
  "toys": 10899,
  "moshe": 27123,
  "[unused738]": 743,
  "immensely": 24256,
  "##rrell": 14069,
  "inspector": 7742,
  "bombardment": 10400,
  "prepare": 7374,
  "towing": 28379,
  "endangered": 10193,
  "sporting": 7419,
  "grossed": 17500,
  "wai": 23701,
  "shimmering": 22349,
  "remembrance": 19451,
  "fox": 4419,
  "##cheng": 21043,
  "teasing": 12216,
  "##ulia": 20922,
  "flower": 6546,
  "##ibly": 17296,
  "##idae": 6096,
  "wiltshire": 17045,
  "bra": 11655,
  "jessie": 10934,
  "trident": 26515,
  "porch": 7424,
  "danzig": 26669,
  "11th": 6252,
  "histories": 15215,
  "\u1d49": 1499,
  "exciting": 10990,
  "digest": 17886,
  "nina": 9401,
  "1727": 25350,
  "feels": 5683,
  "georgetown": 12982,
  "medallist": 28595,
  "reduce": 5547,
  "cover": 3104,
  "reminded": 6966,
  "curses": 23897,
  "illustrates": 24899,
  "pun": 26136,
  "hermes": 24127,
  "perished": 23181,
  "##\u2019": 30056,
  "both": 2119,
  "davey": 20436,
  "nationalism": 14594,
  "##ju": 9103,
  "staged": 9813,
  "jealousy": 14225,
  "1626": 28818,
  "straightened": 11168,
  "angela": 10413,
  "[unused924]": 929,
  "garfield": 20170,
  "enters": 8039,
  "\u0938": 1338,
  "##gh": 5603,
  "isaac": 7527,
  "raged": 28374,
  "##nation": 9323,
  "coefficients": 21374,
  "[unused303]": 308,
  "\u2605": 1620,
  "fringe": 13548,
  "greasy": 26484,
  "bas": 19021,
  "##arable": 25236,
  "like": 2066,
  "bt": 18411,
  "este": 28517,
  "owens": 14824,
  "valves": 17355,
  "[unused801]": 806,
  "inquisition": 24638,
  "padma": 23731,
  "beloved": 11419,
  "collaborative": 12317,
  "australian": 2827,
  "sikhs": 26697,
  "skeletons": 24365,
  "530": 23523,
  "##oda": 13390,
  "definitive": 15764,
  "enzyme": 9007,
  "##ord": 8551,
  "##hus": 9825,
  "somebody": 8307,
  "excavations": 14018,
  "##athan": 29246,
  "stats": 26319,
  "czech": 5569,
  "unfit": 29439,
  "cemetery": 4528,
  "chiefs": 9058,
  "refusal": 13948,
  "faux": 29276,
  "vaults": 28658,
  "##lberg": 22927,
  "fixtures": 17407,
  "settling": 9853,
  "specialised": 17009,
  "[unused6]": 7,
  "##29": 24594,
  "fraction": 12884,
  "hostilities": 17601,
  "rooster": 27681,
  "inquiries": 27050,
  "fatigue": 16342,
  "abused": 16999,
  "seduction": 26962,
  "assyrian": 19950,
  "keep": 2562,
  "walks": 7365,
  "crane": 11308,
  "fergus": 21023,
  "manifesto": 17124,
  "conductor": 7589,
  "##\u30ab": 30226,
  "[unused714]": 719,
  "203": 18540,
  "##\u0dbb": 29941,
  "laos": 15786,
  "chamber": 4574,
  "debuts": 26740,
  "##mobile": 17751,
  "westwood": 21730,
  "beaux": 20290,
  "pity": 12063,
  "mechanical": 6228,
  "revenge": 7195,
  "[unused621]": 626,
  "aerospace": 13395,
  "whitney": 9809,
  "##ola": 6030,
  "dinner": 4596,
  "believer": 24591,
  "des": 4078,
  "##chu": 20760,
  "granite": 9753,
  "buyer": 17634,
  "makeshift": 19368,
  "talented": 10904,
  "##ige": 25538,
  "survives": 13655,
  "##igny": 26978,
  "closure": 8503,
  "heat": 3684,
  "abdomen": 13878,
  "federation": 4657,
  "remembered": 4622,
  "[unused275]": 280,
  "##tel": 9834,
  "elijah": 14063,
  "\u30b7": 1706,
  "imminent": 17566,
  "headwaters": 25345,
  "backbone": 21505,
  "##ln": 19666,
  "mcnamara": 28340,
  "crate": 27297,
  "1876": 7326,
  "gala": 16122,
  "##pad": 15455,
  "shaved": 20665,
  "brought": 2716,
  "##uation": 14505,
  "##ckman": 24080,
  "parks": 6328,
  "##rdes": 26371,
  "clad": 13681,
  "remaining": 3588,
  "documentary": 4516,
  "##oj": 29147,
  "##ante": 12956,
  "listeners": 13810,
  "drainage": 11987,
  "resided": 12427,
  "telecommunication": 25958,
  "hungarian": 5588,
  "colorado": 5169,
  "that": 2008,
  "[unused885]": 890,
  "leaned": 4016,
  "yorkshire": 7018,
  "shifts": 12363,
  "homo": 24004,
  "191": 19871,
  "wheelbase": 29141,
  "lumpur": 17761,
  "[unused441]": 446,
  "om": 18168,
  "##ban": 8193,
  "hoover": 17443,
  "##t": 2102,
  "taped": 19374,
  "perpendicular": 19581,
  "fits": 16142,
  "##lovic": 29356,
  "maui": 28566,
  "235": 17825,
  "basalt": 26343,
  "harsh": 8401,
  "##arus": 29133,
  "entrepreneur": 10670,
  "pottery": 11378,
  "beginning": 2927,
  "avery": 12140,
  "legislative": 4884,
  "presumed": 14609,
  "##eased": 25063,
  "##io": 3695,
  "role": 2535,
  "held": 2218,
  "ferguson": 11262,
  "\u6cbb": 1900,
  "but": 2021,
  "fiance": 19154,
  "##lles": 20434,
  "operatic": 22534,
  "##rys": 24769,
  "lear": 26511,
  "##rous": 13288,
  "leap": 11679,
  "##\u58eb": 30333,
  "1939": 3912,
  "passed": 2979,
  "robotic": 20478,
  "liberals": 13350,
  "populated": 10357,
  "##\u062a": 29817,
  "links": 6971,
  "separately": 10329,
  "##jou": 23099,
  "##isan": 29196,
  "coordinates": 12093,
  "malvern": 28082,
  "##\u30e1": 30252,
  "origin": 4761,
  "##tative": 27453,
  "crook": 19302,
  "127": 13029,
  "laundry": 14533,
  "1773": 19916,
  "1620": 24259,
  "aggravated": 25817,
  "##\u0993": 29888,
  "teaming": 27025,
  "gettysburg": 22577,
  "annexation": 18985,
  "ignition": 17446,
  "cognitive": 10699,
  "conduct": 6204,
  "attractive": 8702,
  "besieged": 17923,
  "meeting": 3116,
  "losers": 23160,
  "promises": 10659,
  "##els": 9050,
  "graveyard": 16685,
  "loki": 24143,
  "##erly": 12561,
  "leverage": 21155,
  "fingerprints": 27556,
  "##tov": 26525,
  "huge": 4121,
  "willem": 18811,
  "leave": 2681,
  "peg": 25039,
  "hereditary": 14800,
  "thanked": 15583,
  "##\u044c": 23742,
  "crippled": 24433,
  "\u1da0": 1512,
  "[unused476]": 481,
  "##he": 5369,
  "hotspur": 25985,
  "##\u209b": 30098,
  "pyrenees": 22696,
  "##hak": 20459,
  "crambidae": 21585,
  "elmer": 21464,
  "##km": 22287,
  "##mite": 23419,
  "barney": 15377,
  "hussein": 16543,
  "##imeters": 28136,
  "overs": 15849,
  "speaks": 8847,
  "\u5e1d": 1838,
  "browser": 16602,
  "netherlands": 4549,
  "grey": 4462,
  "##\u7fa9": 30462,
  "itv": 11858,
  "60s": 20341,
  "[unused947]": 952,
  "##olved": 16116,
  "jem": 24193,
  "##\u98a8": 30503,
  "iv": 4921,
  "770": 29065,
  "answer": 3437,
  "saddam": 24111,
  "deny": 9772,
  "[unused236]": 241,
  "##valent": 24879,
  "[unused374]": 379,
  "lenses": 15072,
  "##\u0bb0": 29927,
  "\u2208": 1596,
  "weeks": 3134,
  "jubilee": 13078,
  "kilometer": 20595,
  "mussolini": 22554,
  "##oper": 25918,
  "backgrounds": 15406,
  "faye": 19243,
  "caves": 10614,
  "##tation": 12516,
  "\u2265": 1609,
  "##ability": 8010,
  "helping": 5094,
  "lighted": 26390,
  "##\u0627": 25573,
  "##art": 8445,
  "\u694a": 1883,
  "\u099b": 1357,
  "military": 2510,
  "##sb": 19022,
  "eastward": 17318,
  "beautifully": 17950,
  "mapped": 17715,
  "drones": 24633,
  "whisky": 21265,
  "m\u00b3": 14241,
  "rubbed": 7503,
  "1783": 15331,
  "artwork": 8266,
  "conditional": 18462,
  "##uca": 18100,
  "stalk": 23899,
  "cigarette": 9907,
  "\u0564": 1222,
  "##eh": 11106,
  "contributors": 16884,
  "turbulent": 22609,
  "pierre": 5578,
  "treasury": 9837,
  "vigorously": 22400,
  "voodoo": 21768,
  "economy": 4610,
  "223": 20802,
  "incoming": 14932,
  "dharma": 20669,
  "perhaps": 3383,
  "##fulness": 20938,
  "##ym": 24335,
  "president": 2343,
  "dunn": 14145,
  "warehouse": 9746,
  "vatican": 12111,
  "##\u0bb5": 29930,
  "##ieving": 25587,
  "##ulent": 27581,
  "translation": 5449,
  "noble": 7015,
  "charlton": 17821,
  "coated": 15026,
  "ren": 14916,
  "\u0449": 1204,
  "classes": 4280,
  "accident": 4926,
  "layers": 9014,
  "##runner": 23195,
  "##ditional": 27064,
  "cw": 19296,
  "##umble": 26607,
  "nearby": 3518,
  "##uh": 27225,
  "korean": 4759,
  "classification": 5579,
  "##uda": 14066,
  "steamboat": 24897,
  "##onus": 24891,
  "toppled": 27251,
  "merging": 16468,
  "[unused769]": 774,
  "disappearance": 13406,
  "dependency": 24394,
  "cleaning": 9344,
  "clown": 15912,
  "masked": 16520,
  "whoever": 9444,
  "##gens": 21230,
  "kang": 16073,
  "##gist": 24063,
  "bleed": 19501,
  "anthology": 9637,
  "inner": 5110,
  "surgical": 11707,
  "vulture": 27588,
  "mighty": 10478,
  "ensures": 21312,
  "##stein": 8602,
  "lithuanian": 10333,
  "often": 2411,
  "homer": 11525,
  "color": 3609,
  "\u06d2": 1310,
  "harvesting": 21534,
  "1817": 12529,
  "##\u1102": 29992,
  "wrath": 14532,
  "porte": 25927,
  "##scent": 27654,
  "##cier": 19562,
  "##phonic": 27385,
  "as": 2004,
  "venezuela": 8326,
  "exercise": 6912,
  "##etz": 26327,
  "##ern": 11795,
  "outstretched": 21059,
  "##cene": 17968,
  "dt": 26718,
  "chunk": 20000,
  "airplane": 13297,
  "indigo": 22472,
  "##lee": 10559,
  "ripe": 22503,
  "window": 3332,
  "##code": 16044,
  "celtics": 23279,
  "##zz": 13213,
  "bautista": 27845,
  "voter": 14303,
  "land": 2455,
  "altitudes": 21973,
  "owner": 3954,
  "quarrel": 26260,
  "suited": 10897,
  "stimulate": 23216,
  "##\u30c1": 30236,
  "bared": 23485,
  "czechoslovakia": 12833,
  "gunshot": 22077,
  "gui": 26458,
  "jerry": 6128,
  "novelist": 9974,
  "\u4e4b": 1749,
  "jameson": 22324,
  "##meyer": 24344,
  "curse": 8364,
  "impacts": 14670,
  "[unused619]": 624,
  "pew": 29071,
  "coroner": 22896,
  "crimean": 20516,
  "discretion": 19258,
  "armed": 4273,
  "busiest": 20530,
  "slate": 12796,
  "cheerfully": 27403,
  "eighth": 5964,
  "redesign": 25136,
  "confined": 12302,
  "eki": 23174,
  "conducted": 4146,
  "swans": 26699,
  "helmut": 24515,
  "cantonese": 22241,
  "settlers": 7322,
  "succeeds": 21645,
  "braking": 24427,
  "bread": 7852,
  "helix": 25743,
  "discharged": 14374,
  "##aker": 22626,
  "phillips": 8109,
  "magnetic": 8060,
  "renaming": 24944,
  "nightstand": 23135,
  "ritual": 8887,
  "undoubtedly": 17319,
  "\u0d9a": 1403,
  "##\u0456": 29760,
  "##print": 16550,
  "yue": 27163,
  "crest": 11146,
  "sanity": 20039,
  "morales": 17103,
  "sandra": 12834,
  "exploited": 18516,
  "ku": 13970,
  "\u5206": 1775,
  "milling": 22491,
  "lesson": 10800,
  "dawn": 6440,
  "marsh": 9409,
  "stating": 5517,
  "[unused205]": 210,
  "super": 3565,
  "augmented": 19335,
  "##bla": 28522,
  "[unused290]": 295,
  "[unused850]": 855,
  "pilot": 4405,
  "places": 3182,
  "seems": 3849,
  "\u0bc1": 1397,
  "sabah": 22515,
  "cove": 11821,
  "bubba": 19606,
  "disappointing": 15640,
  "##dt": 11927,
  "##has": 14949,
  "##eros": 27360,
  "finals": 4399,
  "\u4f8d": 1765,
  "\u05d4": 1245,
  "circulated": 17640,
  "shuddered": 13937,
  "collector": 10018,
  "heavier": 11907,
  "[unused312]": 317,
  "photograph": 9982,
  "[unused327]": 332,
  "variations": 8358,
  "parma": 19177,
  "residence": 5039,
  "empowered": 26480,
  "chaos": 8488,
  "leaked": 15748,
  "builders": 16472,
  "agenda": 11376,
  "##oic": 19419,
  "muster": 20327,
  "researcher": 10753,
  "##pm": 9737,
  "##ces": 9623,
  "[unused564]": 569,
  "relay": 8846,
  "jude": 12582,
  "[unused736]": 741,
  "surveyor": 17169,
  "av": 20704,
  "countryside": 10833,
  "##\u2082": 8229,
  "louisa": 15731,
  "coding": 16861,
  "##bit": 16313,
  "##gins": 16529,
  "[unused162]": 167,
  "hoisted": 27269,
  "suggestion": 10293,
  "coliseum": 18338,
  "##asa": 16782,
  "sadness": 12039,
  "assistants": 16838,
  "##sl": 14540,
  "##earing": 27242,
  "[unused329]": 334,
  "##ographic": 13705,
  "parochial": 28773,
  "##set": 13462,
  "clench": 26753,
  "catch": 4608,
  "peripheral": 15965,
  "happen": 4148,
  "inversion": 28527,
  "##ious": 6313,
  "promoting": 7694,
  "harbour": 7440,
  "usl": 22448,
  "##rba": 28483,
  "thin": 4857,
  "conspiracy": 9714,
  "loops": 15932,
  "winner": 3453,
  "fairchild": 24258,
  "\u092d": 1330,
  "narrated": 17356,
  "[unused237]": 242,
  "adults": 6001,
  "##fies": 14213,
  "aimed": 6461,
  "elaine": 15263,
  "attempting": 7161,
  "fields": 4249,
  "momentarily": 16032,
  "hiding": 6318,
  "[unused373]": 378,
  "quartermaster": 24688,
  "##its": 12762,
  "\u6771": 1879,
  "##kur": 18569,
  "assessing": 20077,
  "joanna": 15730,
  "visions": 12018,
  "constellation": 15300,
  "prohibition": 13574,
  "strive": 29453,
  "lethal": 12765,
  "giggle": 17565,
  "contributor": 12130,
  "manages": 9020,
  "[unused493]": 498,
  "mala": 28935,
  "lightweight": 12038,
  "##tious": 20771,
  "madame": 10602,
  "compton": 18592,
  "dominance": 13811,
  "owls": 22388,
  "oval": 9242,
  "##otti": 21325,
  "crank": 27987,
  "awakened": 20256,
  "rocker": 24779,
  "1759": 21667,
  "residency": 14079,
  "watkins": 17055,
  "honda": 11990,
  "\u0645": 1295,
  "garnered": 13056,
  "[unused655]": 660,
  "prosecuted": 21651,
  "doctrine": 8998,
  "##dium": 12811,
  "footballers": 27784,
  "##rson": 17753,
  "blackout": 26717,
  "##\u0e1e": 29950,
  "##qui": 15549,
  "##aa": 11057,
  "semifinals": 8565,
  "composing": 16572,
  "violated": 14424,
  "phenomena": 13352,
  "utmost": 27917,
  "sutra": 26567,
  "57th": 28623,
  "restless": 15035,
  "langdon": 15232,
  "everyone": 3071,
  "occurrence": 14404,
  "##ere": 7869,
  "##house": 4580,
  "##ccus": 27631,
  "##cino": 21081,
  "res": 24501,
  "unicorn": 21830,
  "brawl": 23244,
  "carla": 17081,
  "1500": 10347,
  "proceed": 10838,
  "##rva": 19146,
  "apocalyptic": 27660,
  "##|": 29641,
  "##rcle": 21769,
  "julien": 19290,
  "waived": 16301,
  "yuri": 14331,
  "##nea": 22084,
  "succeed": 9510,
  "##piece": 11198,
  "debts": 13930,
  "gia": 27699,
  "compare": 12826,
  "[unused898]": 903,
  "relative": 5816,
  "choosing": 10549,
  "invisible": 8841,
  "chasing": 11777,
  "lille": 22479,
  "relationship": 3276,
  "##rrigan": 28706,
  "eds": 11985,
  "borg": 28709,
  "emory": 25853,
  "tribe": 5917,
  "defects": 18419,
  "device": 5080,
  "tottenham": 18127,
  "##rito": 28414,
  "mohammed": 12619,
  "##cine": 16567,
  "marko": 28003,
  "neighborhood": 5101,
  "memorial": 3986,
  "conceived": 10141,
  "enrolled": 8302,
  "decker": 20946,
  "jett": 22962,
  "html": 16129,
  "##\u00dfe": 17499,
  "##ango": 23422,
  "telling": 4129,
  "gulf": 6084,
  "##\u09a7": 29901,
  "pilgrimage": 14741,
  "contracting": 21012,
  "circus": 9661,
  "justice": 3425,
  "proved": 4928,
  "lobby": 9568,
  "internationale": 21339,
  "section": 2930,
  "276": 25113,
  "fetch": 18584,
  "##uld": 21285,
  "jar": 15723,
  "##dents": 28986,
  "##\u0f62": 29970,
  "defeating": 6324,
  "trunks": 20509,
  "traitor": 17328,
  "costello": 21015,
  "hahn": 24266,
  "computing": 9798,
  "ek": 23969,
  "##pina": 26787,
  "sweatshirt": 28095,
  "triggering": 29170,
  "remington": 25282,
  "leroy": 19103,
  "264": 21611,
  "gin": 18353,
  "sneered": 28098,
  "viewer": 13972,
  "examines": 20798,
  "yukon": 19898,
  "\u0274": 1124,
  "nation": 3842,
  "##opers": 27342,
  "implies": 12748,
  "redesignated": 11836,
  "bathrooms": 28942,
  "else": 2842,
  "numerous": 3365,
  "means": 2965,
  "##usa": 10383,
  "11": 2340,
  "\u025b": 1115,
  "radical": 7490,
  "granny": 19794,
  "pulls": 8005,
  "##izing": 6026,
  "##\u2015": 30053,
  "love": 2293,
  "##bc": 9818,
  "persona": 16115,
  "europeans": 13481,
  "shatter": 27271,
  "instituto": 22596,
  "\u0646": 1296,
  "mutants": 23892,
  "independents": 23756,
  "olson": 21583,
  "sudbury": 26487,
  "hillary": 18520,
  "740": 25833,
  "simple": 3722,
  "ballads": 18456,
  "nationally": 9582,
  "##ways": 14035,
  "choked": 12444,
  "rue": 13413,
  "charitable": 11128,
  "sired": 26940,
  "shave": 27545,
  "dover": 13985,
  "rebelled": 25183,
  "scrapped": 14553,
  "trembling": 10226,
  "##gon": 7446,
  "centennial": 15483,
  "36": 4029,
  "brightest": 26849,
  "certification": 10618,
  "swearing": 25082,
  "larkin": 25570,
  "\u1102": 1456,
  "suffrage": 15178,
  "haifa": 21303,
  "refugees": 8711,
  "hostage": 13446,
  "heiress": 20020,
  "bank": 2924,
  "wipe": 13387,
  "az": 17207,
  "ventilation": 19536,
  "bahadur": 21715,
  "\u79be": 1927,
  "cutting": 6276,
  "coyote": 20457,
  "##raphy": 26228,
  "swat": 25414,
  "##meter": 22828,
  "1742": 25704,
  "grasped": 15517,
  "inflated": 29561,
  "vision": 4432,
  "\u30ad": 1701,
  "panting": 15601,
  "##\u5341": 30309,
  "sung": 7042,
  "experimenting": 23781,
  "static": 10763,
  "##under": 20824,
  "paws": 24392,
  "grind": 23088,
  "refurbishment": 24478,
  "seekers": 24071,
  "owes": 24381,
  "##nivorous": 29193,
  "juvenile": 11799,
  "mikey": 25998,
  "##uy": 26230,
  "##iger": 17071,
  "##hil": 19466,
  "batter": 23801,
  "jesuits": 20297,
  "liz": 9056,
  "##rgen": 25892,
  "argyll": 27365,
  "##rber": 20473,
  "update": 10651,
  "1830s": 20400,
  "[unused333]": 338,
  "regaining": 28657,
  "inuit": 25179,
  "squadrons": 11435,
  "##aly": 20766,
  "anita": 12918,
  "eminent": 14953,
  "situ": 26179,
  "damn": 4365,
  "lid": 11876,
  "valle": 20171,
  "irregularities": 28868,
  "hammersmith": 28420,
  "linguist": 22978,
  "allegiance": 14588,
  "gothenburg": 22836,
  "\u0294": 1139,
  "nottinghamshire": 20126,
  "sanskrit": 11353,
  "maintained": 5224,
  "\u064a": 1300,
  "[unused367]": 372,
  "successively": 24288,
  "fates": 26417,
  "ud": 20904,
  "ourselves": 9731,
  "neutron": 20393,
  "gunnery": 27919,
  "##q": 4160,
  "wishes": 8996,
  "reeling": 28515,
  "impending": 17945,
  "sold": 2853,
  "\u0254": 1112,
  "\u306b": 1668,
  "nawab": 26543,
  "[unused761]": 766,
  "replication": 21647,
  "melodic": 17187,
  "fish": 3869,
  "convention": 4680,
  "rudolph": 18466,
  "##udy": 20217,
  "##tl": 19646,
  "notch": 18624,
  "norma": 20692,
  "armagh": 24678,
  "##lines": 12735,
  "fordham": 27302,
  "\u7684": 1916,
  "mitchell": 6395,
  "##swick": 27720,
  "govern": 21208,
  "\u0280": 1127,
  "amounts": 8310,
  "##puram": 17809,
  "handheld": 27291,
  "##\u03c4": 29734,
  "##moral": 22049,
  "##sus": 13203,
  "bourgeois": 22846,
  "piss": 18138,
  "[unused176]": 181,
  "##\u2ea9": 30158,
  "showed": 3662,
  "assassination": 10102,
  "groaned": 9655,
  "authorization": 20104,
  "vogel": 27063,
  "california": 2662,
  "##gall": 22263,
  "##lard": 20822,
  "\u30e7": 1730,
  "##\u02b3": 29708,
  "biplane": 28686,
  "planet": 4774,
  "toned": 27604,
  "pin": 9231,
  "jun": 12022,
  "hallmark": 25812,
  "##da": 2850,
  "tending": 25069,
  "thyroid": 29610,
  "josiah": 24461,
  "suffers": 17567,
  "in": 1999,
  "galician": 28830,
  "##rce": 19170,
  "emphasis": 7902,
  "sherwood": 19427,
  "281": 22955,
  "81": 6282,
  "dive": 11529,
  "bois": 19651,
  "##yeh": 25673,
  "article": 3720,
  "guild": 9054,
  "complex": 3375,
  "tensor": 23435,
  "consolidated": 10495,
  "creep": 19815,
  "stronger": 6428,
  "conscious": 9715,
  "eun": 26070,
  "moaned": 12557,
  "##\u0f58": 29968,
  "hepatitis": 28389,
  "maya": 9815,
  "evade": 26399,
  "##tish": 24788,
  "##oop": 18589,
  "pt": 13866,
  "##fires": 26332,
  "fighting": 3554,
  "vampires": 6144,
  "child": 2775,
  "coventry": 13613,
  "##kou": 24861,
  "stared": 3592,
  "pure": 5760,
  "##\u30b3": 30230,
  "wiley": 18825,
  "andre": 7213,
  "sardinia": 21594,
  "frown": 11330,
  "1938": 4260,
  "nigerian": 11884,
  "\u3009": 1638,
  "buccaneers": 21629,
  "stanis\u0142aw": 26133,
  "reworked": 27575,
  "[unused717]": 722,
  "chelsea": 9295,
  "heal": 11005,
  "##ctic": 13306,
  "mariano": 22695,
  "detachments": 29568,
  "[unused670]": 675,
  "fibre": 20962,
  "checks": 14148,
  "variables": 10857,
  "organisations": 8593,
  "ceremonies": 10912,
  "alt": 12456,
  "formulation": 20219,
  "integers": 24028,
  "chris": 3782,
  "mrna": 28848,
  "petitions": 24320,
  "scala": 26743,
  "gen": 8991,
  "comedic": 21699,
  "mathias": 20494,
  "##wich": 12414,
  "[unused979]": 984,
  "sergio": 13983,
  "lana": 16554,
  "pigeons": 27567,
  "comments": 7928,
  "massey": 21402,
  "prejudice": 18024,
  "center": 2415,
  "525": 25621,
  "brussels": 9371,
  "[unused261]": 266,
  "brows": 11347,
  "impression": 8605,
  "[unused733]": 738,
  "signature": 8085,
  "coaster": 16817,
  "gaston": 18572,
  "1878": 7261,
  "serum": 20194,
  "easiest": 25551,
  "contributes": 16605,
  "227": 21489,
  "soul": 3969,
  "warden": 13745,
  "intensified": 15767,
  "holocaust": 11513,
  "infused": 29592,
  "##\u0131": 11722,
  "nakamura": 23981,
  "warns": 19428,
  "hate": 5223,
  "google": 8224,
  "##ura": 4648,
  "munchen": 25802,
  "disneyland": 25104,
  "grouped": 15131,
  "rotherham": 27456,
  "belonged": 6272,
  "splash": 17624,
  "ensign": 19890,
  "merge": 13590,
  "outsider": 21002,
  "salesman": 18968,
  "optimization": 20600,
  "libretto": 17621,
  "operatives": 25631,
  "tides": 22487,
  "##mony": 22847,
  "dolphin": 17801,
  "freely": 10350,
  "##gu": 12193,
  "shallow": 8467,
  "clarke": 8359,
  "marched": 9847,
  "breasts": 12682,
  "cargo": 6636,
  "##\u2666": 30153,
  "syndicated": 13889,
  "##erik": 27350,
  "precisely": 10785,
  "carving": 18441,
  "bye": 9061,
  "panthers": 12915,
  "altar": 9216,
  "##iving": 14966,
  "fellowships": 27298,
  "9": 1023,
  "consciously": 24447,
  "veins": 9607,
  "kangaroo": 21652,
  "[unused66]": 67,
  "kitty": 14433,
  "##ssen": 14416,
  "mccain": 19186,
  "rediscovered": 26733,
  "##\u667a": 30395,
  "1766": 21410,
  "acknowledged": 8969,
  "airline": 8582,
  "##kar": 6673,
  "##agne": 25440,
  "internationally": 7587,
  "singular": 13048,
  "feminist": 10469,
  "cora": 17195,
  "jennie": 27557,
  "50th": 12951,
  "##chi": 5428,
  "spend": 5247,
  "adele": 17623,
  "laureate": 17656,
  "##lies": 11983,
  "clapped": 18310,
  "possesses": 14882,
  "theologian": 17200,
  "311": 23532,
  "arranger": 13981,
  "##dgets": 28682,
  "dance": 3153,
  "737": 22061,
  "\u0438": 1188,
  "reef": 12664,
  "##iff": 13355,
  "discus": 26047,
  "schmidt": 12940,
  "them": 2068,
  "##bbe": 19473,
  "[unused745]": 750,
  "continued": 2506,
  "##\u9673": 30498,
  "sous": 27411,
  "any": 2151,
  "sunderland": 15518,
  "##dana": 25917,
  "ix": 11814,
  "representatives": 4505,
  "\u6c37": 1895,
  "crowds": 12783,
  "exact": 6635,
  "##gol": 24141,
  "thirst": 21810,
  "madhya": 20841,
  "mix": 4666,
  "rosenthal": 29062,
  "complications": 12763,
  "rendezvous": 20558,
  "##ehan": 24660,
  "bothering": 17067,
  "employs": 13495,
  "##esis": 19009,
  "circling": 18519,
  "sul": 21396,
  "100": 2531,
  "##od": 7716,
  "acheron": 21427,
  "ethical": 12962,
  "##cki": 18009,
  "136": 15407,
  "\u044e": 1209,
  "patients": 5022,
  "wise": 7968,
  "##wehr": 27156,
  "vow": 19076,
  "exploring": 11131,
  "martin": 3235,
  "##ssar": 25556,
  "taught": 4036,
  "mischievous": 25723,
  "##bly": 6321,
  "locals": 10575,
  "date": 3058,
  "intensive": 11806,
  "cypress": 22183,
  "##qa": 19062,
  "abbreviation": 22498,
  "modified": 6310,
  "seeker": 29444,
  "smacked": 19203,
  "strands": 14119,
  "frazier": 26551,
  "poorly": 9996,
  "\u2082": 1549,
  "\u092a": 1328,
  "opium": 21075,
  "flew": 5520,
  "arguing": 9177,
  "hamburger": 24575,
  "libel": 26201,
  "trustee": 13209,
  "##\u898b": 30474,
  "pow": 23776,
  "overlooking": 12549,
  "identical": 7235,
  "greenwood": 16827,
  "temporal": 15850,
  "unlikely": 9832,
  "merlin": 15993,
  "eighties": 27690,
  "\u0927": 1326,
  "noctuidae": 24893,
  "questionable": 21068,
  "additive": 29167,
  "##\u0569": 29771,
  "mining": 5471,
  "sh": 14021,
  "##tist": 16774,
  "fiancee": 19455,
  "atrocities": 23482,
  "utah": 6646,
  "tags": 22073,
  "robbers": 28019,
  "ascribed": 28025,
  "##stick": 21354,
  "##\u0bc1": 29933,
  "##nie": 8034,
  "merged": 5314,
  "started": 2318,
  "completion": 6503,
  "accredited": 11459,
  "comprehensive": 7721,
  "##ode": 10244,
  "lambert": 12838,
  "evaluate": 16157,
  "crescent": 13152,
  "bears": 6468,
  "stomped": 21918,
  "modeled": 14440,
  "auckland": 8666,
  "petroleum": 11540,
  "caroline": 7981,
  "woolf": 29572,
  "protection": 3860,
  "waller": 23550,
  "\u3046": 1648,
  "350": 8698,
  "patterson": 12424,
  "##rocity": 21735,
  "guise": 21980,
  "apologized": 17806,
  "full": 2440,
  "rutland": 27780,
  "laughing": 5870,
  "cricketer": 9490,
  "##thesis": 25078,
  "preferences": 18394,
  "frustrated": 10206,
  "asa": 17306,
  "hostility": 18258,
  "serbia": 7238,
  "inauguration": 17331,
  "\u3089": 1685,
  "illuminated": 14640,
  "##istle": 24242,
  "fuscous": 18121,
  "##dina": 18979,
  "victories": 9248,
  "broad": 5041,
  "##lone": 27165,
  "damned": 9636,
  "dong": 11947,
  "absorb": 16888,
  "175": 12862,
  "kids": 4268,
  "\u51fa": 1774,
  "worshipped": 22876,
  "zombies": 14106,
  "ss": 7020,
  "samsung": 19102,
  "##omic": 22026,
  "cradle": 18293,
  "excluding": 13343,
  "\u91d1": 1964,
  "seoul": 10884,
  "poem": 5961,
  "rely": 11160,
  "beverly": 12218,
  "##rle": 20927,
  "barges": 27712,
  "\u10d0": 1438,
  "alcohol": 6544,
  "careers": 10922,
  "lincolnshire": 16628,
  "descriptive": 22726,
  "cheated": 22673,
  "##ii": 6137,
  "barrett": 12712,
  "lakes": 6597,
  "speculative": 23250,
  "lagoon": 15825,
  "patterned": 25336,
  "sexual": 4424,
  "badminton": 14618,
  "thriving": 20319,
  "shaping": 20300,
  "debated": 15268,
  "appearances": 3922,
  "holmes": 9106,
  "relocating": 26811,
  "[unused282]": 287,
  "maddie": 17805,
  "##\u09b9": 29913,
  "republished": 24476,
  "velvet": 10966,
  "traps": 16735,
  "forbidden": 10386,
  "earl": 4656,
  "##icio": 27113,
  "coma": 16571,
  "skyla": 21738,
  "thorne": 14296,
  "condemning": 28525,
  "eh": 15501,
  "hired": 5086,
  "kaufman": 23699,
  "subscription": 15002,
  "goodness": 15003,
  "rankin": 25772,
  "##dent": 16454,
  "[unused227]": 232,
  "[unused153]": 158,
  "fell": 3062,
  "handling": 8304,
  "aiding": 24791,
  "durable": 25634,
  "\u3059": 1658,
  "marylebone": 28537,
  "##grating": 28183,
  "##mon": 8202,
  "fowler": 14990,
  "destinations": 14345,
  "weather": 4633,
  "##water": 5880,
  "indicated": 5393,
  "##wife": 19993,
  "conquer": 16152,
  "\u0ba8": 1386,
  "leonardo": 14720,
  "reaching": 4285,
  "literally": 6719,
  "##aus": 20559,
  "electrode": 28688,
  "gage": 10012,
  "assemblies": 17720,
  "colombo": 16224,
  "gill": 12267,
  "vulcan": 25993,
  "##\u0986": 29884,
  "greta": 26111,
  "##eum": 14820,
  "magician": 16669,
  "calais": 23116,
  "garry": 21507,
  "stockton": 19161,
  "skinner": 17451,
  "\u6b66": 1889,
  "##eley": 22352,
  "implementation": 7375,
  "uss": 7234,
  "gable": 13733,
  "generous": 12382,
  "bees": 13734,
  "twitter": 10474,
  "##mation": 28649,
  "##tani": 17681,
  "##\u0448": 29753,
  "##ito": 9956,
  "hesse": 16399,
  "acting": 3772,
  "##ave": 10696,
  "monk": 8284,
  "highest": 3284,
  "##atin": 20363,
  "ethnic": 5636,
  "##kova": 18810,
  "##duk": 28351,
  "##pts": 22798,
  "##saurus": 22244,
  "##\u306f": 30198,
  "neighbouring": 9632,
  "estranged": 24211,
  "##filtration": 28674,
  "acquired": 3734,
  "postdoctoral": 29272,
  "armored": 10612,
  "actively": 8851,
  "doses": 21656,
  "##ose": 9232,
  "gaps": 16680,
  "holes": 8198,
  "aryan": 26030,
  "railways": 7111,
  "revolt": 10073,
  "singer": 3220,
  "ukraine": 5924,
  "delicately": 28814,
  "fill": 6039,
  "##\u8cb4": 30479,
  "yellowstone": 29231,
  "##rie": 7373,
  "##land": 3122,
  "dioxide": 14384,
  "clearance": 14860,
  "umar": 27981,
  "brighter": 16176,
  "bed": 2793,
  "##zie": 14272,
  "##cloth": 23095,
  "frankenstein": 22478,
  "integrate": 17409,
  "\u028a": 1132,
  "strengthen": 12919,
  "##enay": 27727,
  "##rera": 24068,
  "\u1105": 1458,
  "smells": 14747,
  "groove": 14100,
  "outright": 13848,
  "\u0641": 1291,
  "wanting": 5782,
  "crowns": 24364,
  "gig": 15453,
  "##hya": 17915,
  "ideology": 13165,
  "broom": 23528,
  "##\u043d": 18947,
  "salon": 11090,
  "213": 19883,
  "verified": 20119,
  "##fm": 16715,
  "ballot": 10428,
  "##\u2500": 30142,
  "saul": 16897,
  "glacier": 10046,
  "/": 1013,
  "hundreds": 5606,
  "ymca": 26866,
  "devoted": 7422,
  "\u09b0": 1372,
  "gil": 13097,
  "##dar": 7662,
  "[unused802]": 807,
  "scratches": 25980,
  "plains": 8575,
  "evolutionary": 12761,
  "##pio": 22071,
  "helmets": 22674,
  "distribution": 4353,
  "##erence": 20935,
  "leiden": 20329,
  "reproduced": 22296,
  "decrease": 9885,
  "cheerful": 18350,
  "dresden": 12983,
  "danielle": 18490,
  "pe": 21877,
  "intercontinental": 18725,
  "287": 23090,
  "macintosh": 22228,
  "magnet": 16853,
  "coveted": 28821,
  "suspect": 8343,
  "burroughs": 25991,
  "prevented": 8729,
  "mast": 15429,
  "introducing": 10449,
  "nh": 18699,
  "orchard": 15623,
  "\u02b8": 1144,
  "saved": 5552,
  "edison": 17046,
  "gum": 16031,
  "charm": 11084,
  "martyr": 17216,
  "##\u0440": 16856,
  "286": 24921,
  "oblast": 10379,
  "tiffany": 14381,
  "disgusted": 17733,
  "if": 2065,
  "##\u5cf6": 30359,
  "##rdon": 28176,
  "relatives": 9064,
  "iowa": 5947,
  "lucknow": 23571,
  "##yar": 13380,
  "dreamed": 13830,
  "internally": 16058,
  "\u1d43": 1496,
  "stiffly": 27499,
  "murmured": 7152,
  "##\u09c7": 29917,
  "rubble": 17538,
  "##udge": 15979,
  "1721": 27689,
  "mouthful": 28462,
  "successors": 18530,
  "saunders": 15247,
  "initiate": 17820,
  "m2": 25525,
  "lame": 20342,
  "interchange": 8989,
  "brendan": 15039,
  "[unused586]": 591,
  "foundations": 10100,
  "tables": 7251,
  "era": 3690,
  "metallic": 12392,
  "bodyguard": 16174,
  "woven": 17374,
  "palatinate": 18990,
  "at": 2012,
  "awake": 8300,
  "regency": 15647,
  "##nu": 11231,
  "ups": 11139,
  "cheney": 23745,
  "##arney": 25831,
  "militias": 29271,
  "rna": 12987,
  "villains": 16219,
  "cellular": 12562,
  "gonzales": 24334,
  "romano": 22070,
  "bewildered": 24683,
  "##lism": 28235,
  "mil": 23689,
  "here": 2182,
  "##sser": 18116,
  "preferred": 6871,
  "lockheed": 17646,
  "ashe": 13402,
  "montpellier": 28153,
  "treasurer": 10211,
  "insistent": 29204,
  "philanthropist": 15246,
  "##\u02e3": 29718,
  "runner": 5479,
  "##urs": 9236,
  "automatically": 8073,
  "finishes": 12321,
  "musik": 28076,
  "yearly": 12142,
  "##haling": 23896,
  "##ager": 17325,
  "hanna": 10579,
  "##70": 19841,
  "poking": 21603,
  "hostile": 10420,
  "##\u043a": 23925,
  "fine": 2986,
  "howling": 22298,
  "saturated": 23489,
  "frequency": 6075,
  "[unused293]": 298,
  "dot": 11089,
  "chargers": 18649,
  "##bury": 4917,
  "asked": 2356,
  "stubborn": 14205,
  "bobbed": 29579,
  "960": 26637,
  "traveling": 7118,
  "throws": 11618,
  "treacherous": 26648,
  "[unused634]": 639,
  "contribute": 9002,
  "##bert": 8296,
  "residual": 21961,
  "coughed": 19055,
  "annoyed": 11654,
  "karnataka": 12092,
  "blackened": 25788,
  "##emia": 17577,
  "medals": 6665,
  "bursting": 21305,
  "florida": 3516,
  "cosmopolitan": 24686,
  "cease": 13236,
  "mated": 28795,
  "vhs": 17550,
  "designations": 26672,
  "siegel": 27996,
  "ingram": 23231,
  "##elo": 18349,
  "traveled": 6158,
  "tablet": 13855,
  "##imov": 25299,
  "afghanistan": 7041,
  "##hering": 22658,
  "nineteenth": 9137,
  "camille": 16675,
  "soprano": 10430,
  "shooter": 13108,
  "##\u7537": 30438,
  "centuries": 4693,
  "hindi": 9269,
  "designation": 8259,
  "imaging": 12126,
  "newmarket": 22489,
  "homosexuality": 15949,
  "reflected": 7686,
  "beaver": 13570,
  "throne": 6106,
  "masterpiece": 17743,
  "economics": 5543,
  "##uls": 28426,
  "toss": 10055,
  "historical": 3439,
  "farming": 7876,
  "kung": 18577,
  "extend": 7949,
  "##ct": 6593,
  "memo": 24443,
  "havoc": 22156,
  "hunt": 5690,
  "assumptions": 17568,
  "transmitted": 11860,
  "##49": 26224,
  "par": 11968,
  "##anor": 27869,
  "happiness": 8404,
  "islander": 12544,
  "raider": 27826,
  "\u2012": 1515,
  "annoyance": 17466,
  "unprecedented": 15741,
  "[unused650]": 655,
  "spouse": 18591,
  "stucco": 27443,
  "announced": 2623,
  "[unused722]": 727,
  "installing": 23658,
  "welcome": 6160,
  "indices": 29299,
  "alter": 11477,
  "expert": 6739,
  "##just": 29427,
  "##wo": 12155,
  "\u4eac": 1755,
  "synonymous": 22594,
  "spaniards": 20999,
  "lobbied": 26421,
  "soluble": 24345,
  "enable": 9585,
  "remainder": 6893,
  "##zbek": 28733,
  "510": 23475,
  "huddersfield": 19715,
  "\u30d2": 1719,
  "railway": 2737,
  "leather": 5898,
  "procession": 14385,
  "through": 2083,
  "[unused134]": 139,
  "pension": 11550,
  "tres": 24403,
  "compass": 16681,
  "formulated": 19788,
  "##erian": 27549,
  "architect": 4944,
  "recommendation": 12832,
  "jewellery": 21545,
  "throttle": 24420,
  "##rent": 22787,
  "connects": 8539,
  "engulfed": 24692,
  "##nell": 9091,
  "chill": 10720,
  "throughout": 2802,
  "interest": 3037,
  "darted": 14051,
  "##mide": 24284,
  "christian": 3017,
  "prophecy": 14951,
  "clubs": 4184,
  "havana": 15278,
  "max": 4098,
  "##guard": 18405,
  "##anto": 21634,
  "wielding": 26974,
  "##lmer": 23398,
  "gossip": 13761,
  "hello": 7592,
  "bela": 20252,
  "losses": 6409,
  "accession": 16993,
  "respond": 6869,
  "insisted": 7278,
  "walk": 3328,
  "##stic": 10074,
  "absorbed": 9063,
  "wink": 16837,
  "ic": 24582,
  "##kt": 25509,
  "macedonia": 11492,
  "##feit": 21156,
  "inside": 2503,
  "sl": 22889,
  "calmed": 20869,
  "cafe": 7668,
  "landowners": 20152,
  "xbox": 12202,
  "severn": 24753,
  "surfaces": 9972,
  "networking": 14048,
  "##\u0e40": 29959,
  "excited": 7568,
  "institutes": 12769,
  "##van": 6212,
  "plaintiff": 20579,
  "characterised": 17253,
  "tolerance": 13986,
  "vendors": 17088,
  "perennial": 14638,
  "oven": 17428,
  "sheffield": 8533,
  "garland": 17017,
  "carriage": 9118,
  "##region": 23784,
  "biomedical": 20906,
  "avid": 18568,
  "deliveries": 23534,
  "redevelopment": 15582,
  "##phobia": 24920,
  "niche": 18111,
  "caden": 23600,
  "miners": 11257,
  "connacht": 27062,
  "eternity": 12715,
  "musique": 25784,
  "finalist": 9914,
  "bounty": 17284,
  "##suka": 26544,
  "intermittent": 23852,
  "getting": 2893,
  "##oons": 27174,
  "cyclist": 14199,
  "amusing": 19142,
  "solid": 5024,
  "boilers": 20412,
  "femme": 26893,
  "##zak": 20685,
  "turbine": 14027,
  "tortured": 12364,
  "##sto": 16033,
  "ask": 3198,
  "convict": 20462,
  "irish": 3493,
  "apology": 12480,
  "transform": 10938,
  "[unused549]": 554,
  "dortmund": 23912,
  "inflicted": 17303,
  "##hed": 9072,
  "##sdale": 15145,
  "turf": 14585,
  "jericho": 17309,
  "wilcox": 23926,
  "skipping": 25978,
  "\u6c35": 1894,
  "penn": 9502,
  "torino": 24737,
  "holland": 7935,
  "invited": 4778,
  "unchanged": 15704,
  "graeme": 21840,
  "[unused86]": 87,
  "morphology": 19476,
  "fascination": 18987,
  "##ragan": 28905,
  "competence": 22219,
  "##ured": 12165,
  "marius": 20032,
  "\u00a4": 1070,
  "influencing": 25870,
  "astrid": 27376,
  "containing": 4820,
  "criticized": 6367,
  "offerings": 14927,
  "moderator": 29420,
  "item": 8875,
  "##gled": 11533,
  "excursion": 26144,
  "studied": 3273,
  "##dicate": 16467,
  "watery": 28259,
  "snack": 19782,
  "rookie": 8305,
  "antique": 14361,
  "sumo": 28193,
  "eponymous": 15248,
  "1984": 3118,
  "bitterly": 19248,
  "transitioned": 23946,
  "jang": 23769,
  "chilled": 23362,
  "yeomanry": 26883,
  "microscopy": 29105,
  "accumulate": 27598,
  "##\u2609": 30149,
  "##\u6cb3": 30425,
  "##vered": 25896,
  "scientist": 7155,
  "bologna": 14102,
  "[unused633]": 638,
  "fumbled": 20054,
  "butterfly": 9112,
  "gupta": 20512,
  "##\u2074": 30073,
  "vivo": 24269,
  "performed": 2864,
  "lindsey": 17518,
  "\u0e25": 1418,
  "joseph": 3312,
  "pleasantly": 27726,
  "corpus": 13931,
  "seth": 6662,
  "##raine": 26456,
  "metabolic": 21453,
  "##phus": 25255,
  "fans": 4599,
  "##encia": 27742,
  "young": 2402,
  "accessible": 7801,
  "buy": 4965,
  "mercantile": 25420,
  "petals": 15829,
  "trademark": 11749,
  "fishes": 21995,
  "[unused25]": 26,
  "sprang": 15627,
  "rivers": 5485,
  "##rail": 15118,
  "distracting": 25012,
  "\u0442": 1197,
  "structurally": 29060,
  "baird": 20866,
  "women": 2308,
  "distinctions": 25995,
  "belt": 5583,
  "##nham": 20465,
  "gerry": 14926,
  "##down": 7698,
  "adopted": 4233,
  "##och": 11663,
  "invasion": 5274,
  "dictatorship": 18944,
  "rust": 18399,
  "roma": 12836,
  "juniper": 29425,
  "patty": 17798,
  "##lers": 12910,
  "aspects": 5919,
  "investigate": 8556,
  "workshops": 9656,
  "plus": 4606,
  "\u044c": 1207,
  "##\u30f3": 30263,
  "\u3092": 1690,
  "[unused178]": 183,
  "antennae": 28624,
  "hale": 13084,
  "sixth": 4369,
  "pressures": 15399,
  "##avia": 15164,
  "\u09b6": 1374,
  "##\u6210": 30380,
  "options": 7047,
  "ambush": 15283,
  "97": 5989,
  "radioactive": 17669,
  "incredible": 9788,
  "resignation": 8172,
  "##dhi": 19114,
  "metaphor": 19240,
  "ring": 3614,
  "platinum": 8899,
  "kristen": 22435,
  "abnormalities": 28828,
  "mina": 19808,
  "distorted": 19112,
  "prefix": 17576,
  "\u222a": 1605,
  "lax": 27327,
  "introductions": 25795,
  "knit": 22404,
  "clyde": 12085,
  "elect": 11322,
  "exile": 8340,
  "veterans": 8244,
  "unincorporated": 7754,
  "puebla": 27452,
  "##bha": 22655,
  "distinguishes": 27343,
  "road": 2346,
  "\u7cf9": 1934,
  "##ical": 7476,
  "villa": 6992,
  "\u056c": 1226,
  "au": 8740,
  "##chase": 26300,
  "graph": 10629,
  "romania": 6339,
  "[unused105]": 110,
  "1867": 7517,
  "##gia": 10440,
  "ricky": 11184,
  "ndp": 21915,
  "gasped": 8535,
  "\u5dff": 1837,
  "loneliness": 20334,
  "costa": 6849,
  "pressed": 4508,
  "eastern": 2789,
  "upscale": 28276,
  "seminar": 18014,
  "taxes": 7773,
  "tension": 6980,
  "cheers": 21250,
  "opposing": 10078,
  "shrubs": 18812,
  "##zzle": 17644,
  "##kian": 28545,
  "##aint": 22325,
  "ernesto": 22428,
  "china": 2859,
  "navigable": 28538,
  "obsidian": 29042,
  "flynn": 13259,
  "protruding": 23868,
  "ely": 20779,
  "chartered": 12443,
  "amend": 27950,
  "dinamo": 22306,
  "[unused452]": 457,
  "demonstrate": 10580,
  "urging": 14328,
  "cadets": 15724,
  "recognizes": 14600,
  "##stream": 21422,
  "notes": 3964,
  "\u0272": 1123,
  "ru": 21766,
  "hearings": 19153,
  "creativity": 14842,
  "athletics": 6482,
  "andersson": 28643,
  "\u79c0": 1928,
  "musicals": 20103,
  "##graph": 14413,
  "##mond": 11442,
  "trams": 19216,
  "antiques": 27763,
  "##\u0bae": 29925,
  "grimace": 25898,
  "sensory": 16792,
  "crete": 19111,
  "##etched": 29574,
  "##\u6c35": 30420,
  "brady": 10184,
  "##ides": 8621,
  "protecting": 8650,
  "enrollment": 10316,
  "ox": 23060,
  "suarez": 22551,
  "adrenaline": 14963,
  "dinners": 29236,
  "kgb": 25467,
  "##polis": 17699,
  "hurry": 9241,
  "assent": 27195,
  "spotting": 27963,
  "##\u0985": 29883,
  "citation": 11091,
  "vegetation": 10072,
  "##elial": 24587,
  "4th": 4343,
  "opposed": 4941,
  "##graphy": 12565,
  "stance": 11032,
  "dune": 21643,
  "rodriguez": 9172,
  "pages": 5530,
  "ap": 9706,
  "died": 2351,
  "huskies": 29471,
  "developmental": 13908,
  "##oris": 21239,
  "slaughtered": 23044,
  "impress": 17894,
  "deeper": 6748,
  "appointments": 14651,
  "wraps": 19735,
  "culminated": 16943,
  "olive": 9724,
  "novak": 19580,
  "feared": 8615,
  "portions": 8810,
  "ticking": 28561,
  "humboldt": 19249,
  "joshi": 26645,
  "##ulsion": 23316,
  "campaigns": 8008,
  "##ryl": 23320,
  "gaa": 19930,
  "##ill": 8591,
  "##gly": 25643,
  "vessels": 6470,
  "registering": 25719,
  "side": 2217,
  "\u00ab": 1077,
  "billie": 18210,
  "##umatic": 25360,
  "katy": 17870,
  "magma": 28933,
  "mavericks": 28330,
  "ncaa": 5803,
  "rug": 20452,
  "framed": 10366,
  "argued": 5275,
  "porcelain": 17767,
  "##aceae": 18339,
  "##roller": 26611,
  "jade": 12323,
  "##anger": 25121,
  "palma": 23985,
  "[unused816]": 821,
  "\u10d8": 1445,
  "threats": 8767,
  "##20": 11387,
  "behaved": 26979,
  "responded": 5838,
  "pre": 3653,
  "retention": 20125,
  "bilingual": 17636,
  "electrons": 15057,
  "chief": 2708,
  "##num": 19172,
  "calls": 4455,
  "lawyer": 5160,
  "fletcher": 10589,
  "ricardo": 13559,
  "wilkinson": 16237,
  "##ser": 8043,
  "\u5c71": 1831,
  "immense": 14269,
  "##uni": 19496,
  "bbc": 4035,
  "[unused859]": 864,
  "relief": 4335,
  "reversal": 23163,
  "gay": 5637,
  "hypothesis": 10744,
  "\u043f": 1194,
  "pad": 11687,
  "shocks": 28215,
  "yoga": 13272,
  "careless": 23358,
  "##mona": 21781,
  "taliban": 16597,
  "big": 2502,
  "jurist": 22757,
  "parachute": 13561,
  "##usions": 22016,
  "aerodynamic": 28033,
  "hi": 7632,
  "fulfilling": 21570,
  "approach": 3921,
  "##gum": 22850,
  "oversight": 15709,
  "sidekick": 29240,
  "##hner": 28989,
  "##\u093f": 29877,
  "bays": 13933,
  "##e": 2063,
  "\u10e3": 1454,
  "knesset": 27899,
  "adjustments": 24081,
  "by": 2011,
  "frontiers": 28750,
  "neal": 11030,
  "informal": 11900,
  "overwhelmed": 13394,
  "proceeded": 8979,
  "##islaus": 25678,
  "willingness": 19732,
  "additions": 13134,
  "##ester": 20367,
  "zhu": 15503,
  "optimistic": 21931,
  "machines": 6681,
  "winter": 3467,
  "delayed": 8394,
  "anticipated": 11436,
  "##lellan": 25839,
  "rodeo": 18936,
  "ocean": 4153,
  "##rlin": 19403,
  "qualities": 11647,
  "##riam": 25557,
  "julia": 6423,
  "plum": 22088,
  "1400": 20652,
  "regard": 7634,
  "defined": 4225,
  "##position": 26994,
  "demographic": 15982,
  "walker": 5232,
  "##lated": 13776,
  "determines": 16463,
  "domes": 26193,
  "##tyle": 27983,
  "wnba": 25554,
  "nods": 11232,
  "boiling": 16018,
  "jaenelle": 20757,
  "disputes": 11936,
  "feeding": 8521,
  "skate": 17260,
  "[unused80]": 81,
  "terrorists": 15554,
  "##icon": 28524,
  "wakefield": 16045,
  "occurs": 5158,
  "[unused117]": 122,
  "nick": 4172,
  "dmitry": 22141,
  "graffiti": 17990,
  "nikita": 29106,
  "commandos": 25144,
  "mar": 9388,
  "stalled": 20659,
  "##wg": 27767,
  "uptown": 28539,
  "ideals": 15084,
  "depict": 17120,
  "wellness": 25860,
  "assisting": 13951,
  "##formed": 29021,
  "planes": 9738,
  "crates": 27619,
  "editing": 9260,
  "beds": 9705,
  "##\u09a4": 29898,
  "bloom": 13426,
  "frank": 3581,
  "hiv": 9820,
  "##oz": 18153,
  "jimi": 27624,
  "##nds": 18376,
  "fiji": 11464,
  "length": 3091,
  "##shot": 19040,
  "ingredient": 21774,
  "transporting": 18276,
  "##inian": 15830,
  "[unused978]": 983,
  "tucson": 17478,
  "##ind": 22254,
  "levant": 24485,
  "semiconductor": 20681,
  "candidates": 5347,
  "##ulin": 18639,
  "##ntino": 25318,
  "##iously": 19426,
  "compiled": 9227,
  "manitoba": 10512,
  "castle": 3317,
  "##stadt": 21543,
  "\u0997": 1355,
  "inappropriate": 15884,
  "##\u738b": 30435,
  "lease": 10084,
  "master": 3040,
  "266": 25162,
  "camera": 4950,
  "##aro": 10464,
  "biology": 7366,
  "commenting": 15591,
  "vicente": 17280,
  "sonora": 26647,
  "##puri": 24661,
  "\u03b1": 1155,
  "disadvantage": 20502,
  "separated": 5459,
  "\u30e2": 1727,
  ";": 1025,
  "handler": 28213,
  "ems": 29031,
  "evacuation": 13982,
  "sensitive": 7591,
  "\u03b4": 1158,
  "adjustable": 26404,
  "##\u0632": 29823,
  "done": 2589,
  "##nction": 27989,
  "maintains": 9319,
  "limitations": 12546,
  "knee": 6181,
  "tunes": 13281,
  "quivering": 26012,
  "##ry": 2854,
  "vulnerability": 18130,
  "disqualification": 27782,
  "##get": 18150,
  "sandwich": 11642,
  "pondered": 28347,
  "##iki": 17471,
  "indifference": 25920,
  "##rained": 27361,
  "pathways": 16910,
  "deleted": 17159,
  "##bell": 17327,
  "municipality": 3250,
  "breaks": 7807,
  "vegetarian": 23566,
  "advantages": 12637,
  "decade": 5476,
  "wonder": 4687,
  "##ils": 12146,
  "##\u09a5": 29899,
  "##pi": 8197,
  "allmusic": 10477,
  "##elle": 14774,
  "timing": 10984,
  "waterway": 23668,
  "[unused867]": 872,
  "##mana": 24805,
  "premio": 23031,
  "considerable": 6196,
  "worker": 7309,
  "circulating": 22458,
  "violation": 11371,
  "howell": 18473,
  "[unused991]": 996,
  "cm": 4642,
  "herrera": 23527,
  "tilted": 9939,
  "##ug": 15916,
  "elizabeth": 3870,
  "##chman": 19944,
  "stereo": 12991,
  "expression": 3670,
  "stick": 6293,
  "stake": 8406,
  "indies": 9429,
  "n": 1050,
  "##tick": 26348,
  "aiming": 13659,
  "venues": 9356,
  "invincible": 25018,
  "licked": 11181,
  "torso": 15190,
  "forbid": 27206,
  "williamson": 14333,
  "[unused952]": 957,
  "[unused871]": 876,
  "arm": 2849,
  "look": 2298,
  "substrates": 23725,
  "sidney": 11430,
  "rankings": 10385,
  "tito": 20712,
  "[unused342]": 347,
  "##omi": 20936,
  "##zcz": 29419,
  "enjoy": 5959,
  "##\u1d50": 30038,
  "settle": 7392,
  "famed": 15607,
  "##\u4eba": 30282,
  "banning": 21029,
  "hospitality": 15961,
  "encompassed": 24058,
  "rene": 10731,
  "incidents": 10444,
  "marian": 14042,
  "adventures": 7357,
  "##rco": 29566,
  "trade": 3119,
  "messengers": 28938,
  "##cci": 14693,
  "fission": 27521,
  "ramirez": 15206,
  "[unused597]": 602,
  "consume": 16678,
  "bulls": 12065,
  "allah": 16455,
  "cassette": 13903,
  "islanders": 16422,
  "##gration": 29397,
  "[unused669]": 674,
  "\u0446": 1201,
  "castile": 15656,
  "appellate": 23240,
  "911": 19989,
  "failing": 7989,
  "10th": 6049,
  "balkan": 17581,
  "##nad": 25389,
  "vietnamese": 9101,
  "causeway": 23336,
  "redesigned": 17051,
  "peat": 23366,
  "##books": 17470,
  "vance": 16672,
  "##isa": 14268,
  "ipad": 25249,
  "parapet": 27372,
  "##\u208d": 30087,
  "[unused965]": 970,
  "operator": 6872,
  "justine": 26377,
  "##\u06ba": 29843,
  "##cts": 16649,
  "rafe": 15819,
  "poems": 5878,
  "melting": 13721,
  "augusto": 29085,
  "\u09a7": 1365,
  "partial": 7704,
  "oxidation": 19577,
  "##\u3066": 30191,
  "makes": 3084,
  "lab": 6845,
  "reminiscent": 14563,
  "quarry": 12907,
  "##stellar": 29028,
  "franciscan": 19420,
  "[unused480]": 485,
  "valiant": 24329,
  "\u0e17": 1412,
  "dynamo": 17205,
  "clayton": 11811,
  "downtown": 5116,
  "stables": 16232,
  "buddies": 24115,
  "det": 20010,
  "grandma": 13055,
  "mosaic": 16061,
  "strategic": 6143,
  "##tors": 6591,
  "76": 6146,
  "##plify": 28250,
  "broker": 20138,
  "ops": 23092,
  "airbus": 20901,
  "rejecting": 21936,
  "##for": 29278,
  "interactions": 10266,
  "encompass": 25281,
  "exceed": 13467,
  "\u0268": 1118,
  "physiological": 19389,
  "agony": 12812,
  "docks": 15093,
  "rule": 3627,
  "##fted": 18915,
  "alistair": 23752,
  "blankly": 26344,
  "[unused595]": 600,
  "sparkle": 26831,
  "wi": 15536,
  "isa": 18061,
  "##ney": 5420,
  "quote": 14686,
  "##stan": 12693,
  "australia": 2660,
  "templar": 27850,
  "da": 4830,
  "desmond": 16192,
  "negligence": 27988,
  "prisoners": 5895,
  "##ffen": 18032,
  "mayfair": 28387,
  "unesco": 12239,
  "##ee": 4402,
  "[unused428]": 433,
  "v6": 25275,
  "wallace": 7825,
  "elimination": 9614,
  "relating": 8800,
  "actual": 5025,
  "marathon": 8589,
  "##inal": 13290,
  "motorcycles": 18580,
  "acoustic": 6490,
  "approaching": 8455,
  "authored": 8786,
  "##vah": 21927,
  "could": 2071,
  "[unused388]": 393,
  "iroquois": 23015,
  "killers": 15978,
  "pdf": 11135,
  "kc": 21117,
  "grande": 9026,
  "duchy": 11068,
  "##ttal": 28200,
  "collegiate": 9234,
  "randolph": 13031,
  "##gb": 18259,
  "functioned": 20903,
  "zur": 17924,
  "developer": 9722,
  "racer": 14878,
  "##\u4f0a": 30288,
  "##rians": 23543,
  "tears": 4000,
  "patrols": 14703,
  "\u09a1": 1360,
  "explores": 15102,
  "\u300d": 1642,
  "syndication": 26973,
  "hymn": 14825,
  "gasping": 17054,
  "message": 4471,
  "##ario": 16843,
  "istanbul": 9960,
  "very": 2200,
  "##\u20ac": 30102,
  "##dates": 27122,
  "\u7af9": 1933,
  "##nally": 26827,
  "wagons": 14525,
  "lawn": 10168,
  "##nh": 25311,
  "joked": 19700,
  "##\u5357": 30311,
  "tag": 6415,
  "unidentified": 20293,
  "[unused864]": 869,
  "##unk": 16814,
  "diverse": 7578,
  "faulkner": 25109,
  "##\uff08": 30513,
  "borne": 15356,
  "##shida": 25541,
  "[unused882]": 887,
  "parties": 4243,
  "tapes": 13324,
  "ngo": 17895,
  "##logic": 27179,
  "##lein": 19856,
  "operates": 5748,
  "##tology": 23479,
  "##oes": 22504,
  "[unused823]": 828,
  "##une": 9816,
  "holden": 9988,
  "six": 2416,
  "peterborough": 17587,
  "rating": 5790,
  "industries": 6088,
  "evans": 6473,
  "##ls": 4877,
  "##nets": 22781,
  "##cating": 18252,
  "##bbled": 12820,
  "##ythe": 26688,
  "baroque": 10456,
  "##nism": 28113,
  "culturally": 20547,
  "virtues": 21560,
  "delay": 8536,
  "displacement": 13508,
  "sloane": 17558,
  "2010": 2230,
  "same": 2168,
  "dug": 8655,
  "##ologists": 16886,
  "chloe": 9318,
  "paints": 23262,
  "flaws": 21407,
  "planck": 26486,
  "revered": 23886,
  "bike": 7997,
  "winslow": 26600,
  "gunther": 19384,
  "lux": 28359,
  "gaming": 10355,
  "comedians": 25119,
  "##\u308d": 30215,
  "##pur": 5311,
  "canning": 24549,
  "washing": 12699,
  "keepers": 24018,
  "mt": 11047,
  "misconduct": 23337,
  "##gue": 9077,
  "##ying": 14147,
  "momentary": 29089,
  "after": 2044,
  "generates": 19421,
  "masovian": 23703,
  "leslie": 8886,
  "guerre": 24613,
  "diagram": 16403,
  "##mia": 10092,
  "intruder": 22841,
  "mla": 18619,
  "\u540c": 1794,
  "[unused186]": 191,
  "1945": 3386,
  "undrafted": 21347,
  "bridgeport": 27986,
  "strolled": 20354,
  "##\u03c2": 19579,
  "abbas": 17532,
  "persistent": 14516,
  "knowledge": 3716,
  "aye": 13442,
  "whitley": 27007,
  "fashion": 4827,
  "admitted": 4914,
  "einstein": 15313,
  "arteries": 28915,
  "took": 2165,
  "marriages": 12743,
  "##kled": 19859,
  "##ngo": 16656,
  "weightlifting": 29305,
  "##als": 9777,
  "ascended": 19644,
  "reggae": 15662,
  "orr": 26914,
  "\u02bc": 1146,
  "oxygen": 7722,
  "severely": 8949,
  "pop": 3769,
  "covert": 19813,
  "federico": 20493,
  "working": 2551,
  "##zzo": 12036,
  "dwellers": 28857,
  "merchants": 10310,
  "pep": 27233,
  "##\u0291": 29703,
  "yell": 14315,
  "beit": 28236,
  "ceasefire": 26277,
  "addicted": 23042,
  "[unused656]": 661,
  "##don": 5280,
  "marking": 10060,
  "spartak": 28560,
  "decay": 13121,
  "mob": 11240,
  "adobe": 18106,
  "bran": 24905,
  "##con": 8663,
  "imagined": 8078,
  "hawaii": 7359,
  "intra": 26721,
  "cornerback": 26857,
  "whatsoever": 18971,
  "platt": 28005,
  "[unused652]": 657,
  "contradiction": 26917,
  "guards": 4932,
  "##dara": 25329,
  "1890s": 13678,
  "atletico": 16132,
  "compressed": 16620,
  "desired": 9059,
  "encountered": 8567,
  "15th": 6286,
  "reproduce": 21376,
  "prestige": 14653,
  "##tara": 27115,
  "fashioned": 13405,
  "twelve": 4376,
  "[unused492]": 497,
  "chocolate": 7967,
  "prefers": 19233,
  "##\u10da": 29983,
  "saxon": 10038,
  "toast": 15174,
  "emblem": 16199,
  "again": 2153,
  "executing": 23448,
  "sight": 4356,
  "homosexual": 15667,
  "overshadowed": 28604,
  "unitarian": 25477,
  "oxford": 4345,
  "vimes": 28482,
  "tighter": 12347,
  "astronaut": 19748,
  "##cken": 19766,
  "deepened": 20183,
  "harshly": 21052,
  "yi": 12316,
  "##ex": 10288,
  "fated": 27442,
  "##nished": 28357,
  "illustrated": 7203,
  "##hita": 23935,
  "concert": 4164,
  "commits": 27791,
  "chefs": 27828,
  "dom": 14383,
  "thierry": 26413,
  "simplicity": 17839,
  "specialists": 15744,
  "soap": 7815,
  "##oder": 27381,
  "\u5929": 1811,
  "[unused951]": 956,
  "grill": 18651,
  "roach": 20997,
  "overlapping": 20567,
  "sailor": 11803,
  "chairman": 3472,
  "##cence": 29320,
  "##\u79c0": 30454,
  "naked": 6248,
  "copy": 6100,
  "ascending": 22316,
  "uneven": 17837,
  "threads": 16457,
  "[unused364]": 369,
  "modest": 10754,
  "occupation": 6139,
  "patents": 13979,
  "orange": 4589,
  "erwin": 22209,
  "garcia": 7439,
  "interacting": 21935,
  "stated": 3090,
  "treatment": 3949,
  "feeder": 21429,
  "nicole": 9851,
  "refurbished": 18662,
  "ein": 16417,
  "continent": 9983,
  "scream": 6978,
  "werewolves": 18306,
  "teresa": 12409,
  "pointed": 4197,
  "288": 24841,
  "##neer": 19755,
  "recoil": 27429,
  "whitehead": 23257,
  "wembley": 16538,
  "pleaded": 12254,
  "phil": 6316,
  "##\u10db": 29984,
  "[unused959]": 964,
  "ata": 29533,
  "defendant": 13474,
  "glanced": 3887,
  "##grants": 27444,
  "\u2026": 1529,
  "##ceae": 9071,
  "##mani": 20799,
  "dustin": 24337,
  "##day": 10259,
  "orthodox": 6244,
  "example": 2742,
  "##ahl": 28083,
  "##acious": 20113,
  "prohibited": 10890,
  "forecast": 19939,
  "barrels": 13826,
  "dictionary": 9206,
  "structural": 8332,
  "protested": 11456,
  "joint": 4101,
  "gesture": 9218,
  "largest": 2922,
  "think": 2228,
  "tracked": 12808,
  "grange": 18203,
  "coward": 16592,
  "aired": 4836,
  "##ocks": 25384,
  "tucking": 25056,
  "ara": 19027,
  "aces": 20232,
  "\u0292": 1138,
  "senators": 10153,
  "newspaper": 3780,
  "historia": 19891,
  "museums": 9941,
  "registration": 8819,
  "##due": 20041,
  "##lizer": 28863,
  "undead": 17315,
  "ares": 23631,
  "spaced": 19835,
  "smash": 15132,
  "oman": 16640,
  "##urse": 28393,
  "##yam": 14852,
  "outgoing": 22011,
  "inspirational": 28676,
  "sermons": 20855,
  "psyche": 25774,
  "sentencing": 23280,
  "starbucks": 29500,
  "##lowe": 27663,
  "grim": 11844,
  "implementing": 14972,
  "##ata": 6790,
  "##lary": 28221,
  "bass": 3321,
  "planted": 8461,
  "ladies": 6456,
  "carefully": 5362,
  "replica": 15059,
  "mc": 11338,
  "crash": 5823,
  "[unused609]": 614,
  "acquisitions": 19530,
  "digits": 16648,
  "whore": 17219,
  "artworks": 22000,
  "gladstone": 21765,
  "ignored": 6439,
  "##sse": 11393,
  "##do": 3527,
  "eldest": 7310,
  "ache": 12336,
  "suv": 15620,
  "[unused7]": 8,
  "##taken": 25310,
  "mojo": 28017,
  "[unused494]": 499,
  "leveled": 22915,
  "malone": 16321,
  "prospects": 16746,
  "noted": 3264,
  "invaders": 17347,
  "duty": 4611,
  "clinton": 7207,
  "putnam": 20230,
  "willard": 19138,
  "furnace": 17533,
  "postgraduate": 15438,
  "surroundings": 11301,
  "caretaker": 17600,
  "technician": 16661,
  "marx": 13518,
  "shrewsbury": 18174,
  "\u5b97": 1821,
  "forehead": 6130,
  "##film": 23665,
  "slabs": 28761,
  "1971": 3411,
  "##43": 23777,
  "chord": 13924,
  "draw": 4009,
  "career": 2476,
  "involved": 2920,
  "zoology": 22405,
  "##fc": 11329,
  "sierra": 7838,
  "##age": 4270,
  "compilations": 22754,
  "hash": 23325,
  "pak": 22190,
  "targeting": 14126,
  "cork": 8513,
  "chain": 4677,
  "screenwriter": 11167,
  "\u306c": 1669,
  "sip": 10668,
  "snail": 10879,
  "##rick": 11285,
  "kellan": 19697,
  "specimen": 11375,
  "deity": 12764,
  "##raus": 25965,
  "transparency": 16987,
  "##hli": 27766,
  "vin": 19354,
  "##mis": 15630,
  "##\u5185": 30299,
  "minutes": 2781,
  "##piration": 16781,
  "surreal": 16524,
  "##inas": 15227,
  "telephone": 7026,
  "specialist": 8325,
  "takahashi": 25585,
  "callie": 20072,
  "curve": 7774,
  "baptized": 19775,
  "boosted": 28043,
  "glancing": 10167,
  "discarded": 15105,
  "rewarded": 14610,
  "apparatus": 14709,
  "mata": 22640,
  "historian": 5272,
  "\u11a8": 1484,
  "intel": 13420,
  "##uppe": 29547,
  "literature": 3906,
  "division": 2407,
  "spin": 6714,
  "tulsa": 16631,
  "32nd": 20628,
  "agnes": 11166,
  "civilian": 6831,
  "taps": 25316,
  "kilkenny": 17131,
  "marlborough": 22830,
  "hertfordshire": 18889,
  "gambling": 12219,
  "pairing": 22778,
  "prosecutor": 12478,
  "##power": 11452,
  "space": 2686,
  "hides": 17382,
  "1560": 29185,
  "##wyn": 11761,
  "##psis": 18409,
  "dissipated": 22572,
  "h": 1044,
  "56": 5179,
  "\u0925": 1324,
  "##\u0e2d": 29957,
  "##dern": 25888,
  "##iring": 24771,
  "ceiling": 5894,
  "eritrea": 26040,
  "[unused412]": 417,
  "\u09ae": 1370,
  "##so": 6499,
  "wandered": 13289,
  "objections": 17304,
  "curriculum": 8882,
  "##lund": 18028,
  "singled": 25369,
  "uploaded": 21345,
  "credentials": 22496,
  "##git": 23806,
  "maze": 15079,
  "usc": 15529,
  "accessories": 16611,
  "afforded": 22891,
  "cade": 18615,
  "bases": 7888,
  "warmth": 8251,
  "tobacco": 9098,
  "##6": 2575,
  "##dle": 10362,
  "sin": 8254,
  "perch": 21836,
  "feminine": 12320,
  "denote": 19090,
  "units": 3197,
  "worm": 15485,
  "sutherland": 14274,
  "tolerate": 19242,
  "rough": 5931,
  "offering": 5378,
  "quarter": 4284,
  "vacated": 15348,
  "did": 2106,
  "##rgos": 22280,
  "haunted": 11171,
  "##dington": 21504,
  "##\u062b": 29818,
  "##es": 2229,
  "overgrown": 26433,
  "nes": 24524,
  "temps": 29023,
  "international": 2248,
  "pam": 14089,
  "beyond": 3458,
  "fried": 13017,
  "teeth": 4091,
  "managed": 3266,
  "highland": 10983,
  "also": 2036,
  "##tility": 18724,
  "##hab": 25459,
  "orbit": 8753,
  "##tham": 22536,
  "akira": 21616,
  "mask": 7308,
  "##veda": 28614,
  "rufus": 18316,
  "adultery": 29169,
  "fury": 8111,
  "acquaintance": 18363,
  "##\u0baf": 29926,
  "alyssa": 26442,
  "reviewed": 8182,
  "laid": 4201,
  "1808": 13040,
  "nebraska": 8506,
  "users": 5198,
  "ventures": 13252,
  "strings": 7817,
  "\u72ac": 1908,
  "##cton": 28312,
  "##lto": 23223,
  "cairns": 21731,
  "sweaty": 19889,
  "##nology": 21020,
  "##\u0938": 29874,
  "sweating": 18972,
  "scraping": 23704,
  "ambassadors": 20986,
  "[unused623]": 628,
  "existence": 4598,
  "eddie": 5752,
  "##hes": 15689,
  "frightening": 17115,
  "host": 3677,
  "##ux": 5602,
  "##urbed": 29595,
  "bobo": 27418,
  "\u30ab": 1700,
  "cerambycidae": 13168,
  "manufacture": 9922,
  "stamford": 22469,
  "protected": 5123,
  "dad": 3611,
  "##line": 4179,
  "1665": 27676,
  "quarterfinals": 9237,
  "index": 5950,
  "everywhere": 7249,
  "##\u03b9\u03b1": 27432,
  "divine": 7746,
  "##aris": 23061,
  "saudi": 8174,
  "participates": 17257,
  "aground": 29406,
  "battle": 2645,
  "stormed": 16201,
  "ascot": 29036,
  "ravi": 16806,
  "instruction": 7899,
  "\u660e": 1865,
  "profits": 11372,
  "\u0445": 1200,
  "reception": 7684,
  "environmentally": 25262,
  "canadians": 16485,
  "\u00b3": 1083,
  "flexed": 24244,
  "vie": 20098,
  "##red": 5596,
  "perfection": 15401,
  "\u09a4": 1362,
  "spelling": 11379,
  "large": 2312,
  "years": 2086,
  "reformation": 13708,
  "##35": 19481,
  "flashing": 12659,
  "appetite": 18923,
  "##uder": 29190,
  "pinning": 22866,
  "seam": 25180,
  "lap": 5001,
  "backing": 5150,
  "jordanian": 26276,
  "finger": 4344,
  "arrives": 8480,
  "##onate": 21149,
  "##ined": 21280,
  "motorsports": 20711,
  "qing": 13282,
  "gaze": 3657,
  "##\uff1f": 30520,
  "galaxy": 9088,
  "johann": 8968,
  "##\u00f7": 29669,
  "##vert": 16874,
  "huffington": 26149,
  "##building": 25820,
  "[unused99]": 104,
  "ferreira": 26135,
  "symmetry": 14991,
  "madras": 12993,
  "combination": 5257,
  "passionate": 13459,
  "twilight": 13132,
  "##omp": 25377,
  "algorithms": 13792,
  "institut": 17126,
  "##riation": 18769,
  "[unused431]": 436,
  "outcome": 9560,
  "dragons": 8626,
  "bathed": 24614,
  "gnu": 27004,
  "newscasts": 24482,
  "##\u03b1": 14608,
  "arturo": 20520,
  "witches": 12566,
  "##\u304a": 30176,
  "enlist": 28845,
  "depleted": 22595,
  "runners": 7190,
  "freshmen": 26612,
  "bumped": 19030,
  "cup": 2452,
  "depths": 11143,
  "interests": 5426,
  "butte": 25024,
  "##ogen": 23924,
  "craft": 7477,
  "forest": 3224,
  "##hony": 27629,
  "letting": 5599,
  "##name": 18442,
  "##\u05d9": 29796,
  "thatcher": 21127,
  "inevitable": 13418,
  "supporter": 10129,
  "\u21a6": 1588,
  "hopping": 26397,
  "deportivo": 23696,
  "honest": 7481,
  "detection": 10788,
  "shows": 3065,
  "##main": 24238,
  "simultaneous": 17424,
  "prep": 17463,
  "600": 5174,
  "wished": 6257,
  "fearing": 14892,
  "1885": 6571,
  "shall": 4618,
  "expect": 5987,
  "verdi": 20580,
  "especially": 2926,
  "editions": 6572,
  "##hit": 16584,
  "##aco": 22684,
  "seater": 23392,
  "phd": 8065,
  "civilization": 10585,
  "sanctioned": 14755,
  "sg": 22214,
  "ponytail": 18865,
  "adventist": 25696,
  "underwater": 11564,
  "pentagon": 20864,
  "cub": 21987,
  "navigator": 20532,
  "##\u5317": 30307,
  "obtained": 4663,
  "academies": 20994,
  "##\u4fe1": 30293,
  "tradition": 4535,
  "intensely": 20531,
  "horne": 24084,
  "insulin": 22597,
  "patriotic": 14314,
  "nutritional": 28268,
  "everton": 18022,
  "approximately": 3155,
  "officially": 3985,
  "site": 2609,
  "iraq": 5712,
  "bankrupt": 17482,
  "##ole": 9890,
  "algorithm": 9896,
  "##rok": 27923,
  "\u6c11": 1892,
  "##zman": 24340,
  "##islav": 19834,
  "##uka": 15750,
  "alumnus": 19678,
  "away": 2185,
  "tunnel": 5234,
  "utilizing": 16911,
  "##rned": 21119,
  "mathematicians": 29374,
  "bayer": 26367,
  "barbecue": 26375,
  "taft": 19911,
  "alvarez": 16309,
  "lennon": 14294,
  "neumann": 22860,
  "potassium": 18044,
  "##ropolis": 23248,
  "secluded": 27044,
  "slip": 7540,
  "gran": 12604,
  "strengths": 20828,
  "loco": 28046,
  "[unused955]": 960,
  "punta": 27377,
  "carrie": 13223,
  "##sque": 17729,
  "mention": 5254,
  "galveston": 26630,
  "cheaper": 16269,
  "armenian": 7508,
  "widespread": 6923,
  "##ato": 10610,
  "salvage": 18340,
  "hundred": 3634,
  "gold": 2751,
  "clinics": 17865,
  "bowling": 9116,
  "unused": 15171,
  "converting": 16401,
  "onto": 3031,
  "##db": 18939,
  "gibraltar": 12272,
  "clung": 14752,
  "accusation": 19238,
  "anticipating": 26481,
  "\u6a4b": 1885,
  "##\u5bfa": 30353,
  "cleric": 29307,
  "biographer": 17121,
  "baha": 13253,
  "##rrard": 29599,
  "[unused824]": 829,
  "gym": 9726,
  "restriction": 16840,
  "median": 3991,
  "##erie": 17378,
  "morphological": 24012,
  "romeo": 12390,
  "}": 1065,
  "belongs": 7460,
  "weakness": 11251,
  "maha": 24404,
  "resigning": 24642,
  "\u116a": 1476,
  "engage": 8526,
  "detectives": 18145,
  "awarding": 21467,
  "aerial": 9682,
  "bridge": 2958,
  "preseason": 20038,
  "jung": 11810,
  "signage": 29404,
  "principality": 18018,
  "##cu": 10841,
  "hamid": 24811,
  "[unused36]": 37,
  "##ional": 19301,
  "gleam": 24693,
  "##ders": 13375,
  "sneakers": 28130,
  "peers": 12746,
  "grooves": 25880,
  "ebook": 26885,
  "wells": 7051,
  "carries": 7883,
  "wicket": 12937,
  "family": 2155,
  "tell": 2425,
  "vassal": 24351,
  "containers": 16143,
  "absorbing": 20998,
  "sikh": 17246,
  "fading": 14059,
  "lee": 3389,
  "ark": 15745,
  "pockets": 10306,
  "of": 1997,
  "havre": 28890,
  "##rade": 13662,
  "\u0f0d": 1425,
  "ferris": 23202,
  "stabilization": 28715,
  "##\u09b2": 29909,
  "dna": 6064,
  "rocket": 7596,
  "terminus": 7342,
  "##oc": 10085,
  "##oys": 27153,
  "##cise": 18380,
  "network": 2897,
  "myanmar": 12620,
  "##rut": 22134,
  "lover": 7089,
  "lucius": 15639,
  "hills": 4564,
  "genesis": 11046,
  "##rdan": 26992,
  "arise": 13368,
  "dreaming": 12802,
  "faculties": 18658,
  "\\": 1032,
  "passing": 4458,
  "handkerchief": 23975,
  "mad": 5506,
  "hbo": 14633,
  "##\u03c3": 29733,
  "landed": 5565,
  "lied": 9828,
  "##\u10d1": 29975,
  "vietnam": 5148,
  "spiders": 14160,
  "[unused724]": 729,
  "skating": 10080,
  "abel": 16768,
  "much": 2172,
  "jurgen": 23171,
  "##\u0909": 29849,
  "mel": 11463,
  "substitution": 20885,
  "##aya": 12186,
  "obscene": 27744,
  "##acker": 25418,
  "correspondent": 11370,
  "xu": 15990,
  "jack": 2990,
  "\u0259": 1114,
  "ito": 23333,
  "##tland": 19270,
  "[unused181]": 186,
  "wrists": 12150,
  "feldman": 26908,
  "##pathic": 25940,
  "corsica": 27047,
  "##ructured": 26134,
  "whitman": 21311,
  "##sies": 14625,
  "##hesive": 21579,
  "\u3002": 1636,
  "guitars": 7334,
  "kayla": 26491,
  "depended": 17292,
  "hopped": 17230,
  "[unused223]": 228,
  "##dilly": 28832,
  "mei": 19734,
  "footsteps": 9717,
  "##zzled": 17269,
  "\u30ef": 1736,
  "##made": 21565,
  "##dity": 25469,
  "##oted": 27428,
  "playing": 2652,
  "caller": 20587,
  "naga": 26539,
  "browning": 18778,
  "tenderly": 26596,
  "snuck": 24492,
  "diva": 25992,
  "bryce": 19757,
  "grants": 8624,
  "ta": 11937,
  "knockout": 11369,
  "hawthorn": 21671,
  "##cade": 21869,
  "[unused378]": 383,
  "offices": 4822,
  "lil": 13451,
  "scarborough": 18603,
  "tourist": 7538,
  "harcourt": 22714,
  "protector": 16167,
  "tong": 15740,
  "##truct": 18300,
  "fully": 3929,
  "##\u1d58": 30042,
  "\u751f": 1910,
  "qi": 18816,
  "chips": 11772,
  "extinguished": 27705,
  "schumacher": 22253,
  "##mering": 27851,
  "reverse": 7901,
  "interested": 4699,
  "978": 4891,
  "houghton": 21234,
  "perceptions": 23271,
  "voters": 7206,
  "clinch": 29119,
  "##\u5ba3": 30349,
  "##oses": 27465,
  "##ism": 2964,
  "[unused596]": 601,
  "treasures": 17605,
  "transcript": 24051,
  "brooding": 28902,
  "campus": 3721,
  "manfred": 19149,
  "sally": 8836,
  "##terol": 27833,
  "##\u03b4": 29722,
  "breed": 8843,
  "cbc": 13581,
  "intake": 13822,
  "frustrating": 25198,
  "fragrance": 24980,
  "jumper": 21097,
  "flutes": 28453,
  "96": 5986,
  "##obe": 20891,
  "control": 2491,
  "cyclic": 23750,
  "pistol": 8779,
  "training": 2731,
  "##titles": 27430,
  "##used": 13901,
  "##non": 8540,
  "cart": 11122,
  "mhz": 11413,
  "##hips": 19801,
  "heroism": 27117,
  "cavity": 17790,
  "libre": 21091,
  "cummings": 20750,
  "##liness": 20942,
  "flora": 10088,
  "legendary": 8987,
  "scandinavia": 20612,
  "troops": 3629,
  "calendar": 8094,
  "cream": 6949,
  "##inate": 14776,
  "\u9f8d": 1982,
  "[unused842]": 847,
  "subcommittee": 18052,
  "reality": 4507,
  "markus": 23030,
  "drift": 11852,
  "respectful": 26438,
  "reindeer": 29495,
  "personalities": 12857,
  "desire": 4792,
  "robbins": 18091,
  "maneuvers": 23802,
  "[unused580]": 585,
  "storyline": 9994,
  "capital": 3007,
  "drown": 19549,
  "emmett": 25685,
  "tone": 4309,
  "prodigy": 28334,
  "[unused64]": 65,
  "vidal": 29259,
  "spell": 6297,
  "pigeon": 16516,
  "duties": 5704,
  "defences": 16828,
  "##eron": 26534,
  "meadow": 13244,
  "[unused217]": 222,
  "partnering": 27001,
  "pl": 20228,
  "murdoch": 19954,
  "sack": 12803,
  "guarantees": 21586,
  "personnel": 5073,
  "230": 11816,
  "18th": 4985,
  "[unused315]": 320,
  "jerusalem": 6744,
  "contacted": 11925,
  "[unused729]": 734,
  "recycled": 22207,
  "possession": 6664,
  "accelerating": 29494,
  "##bara": 20709,
  "dared": 15048,
  "##ran": 5521,
  "libertadores": 27968,
  "bricks": 14219,
  "protect": 4047,
  "\u099f": 1359,
  "##\u25cf": 30146,
  "sham": 25850,
  "exchange": 3863,
  "980": 25195,
  "[unused759]": 764,
  "##uid": 21272,
  "anwar": 28372,
  "winked": 14217,
  "##kushima": 24917,
  "##leen": 24129,
  "industrialist": 21691,
  "##ulton": 22145,
  "afrikaans": 28673,
  "euclidean": 25826,
  "stade": 15649,
  "boost": 12992,
  "##lous": 15534,
  "##fl": 10258,
  "near": 2379,
  "[unused648]": 653,
  "demonstrations": 13616,
  "sweetie": 22872,
  "\u56db": 1798,
  "pinned": 11807,
  "parenting": 28586,
  "merger": 7660,
  "tingling": 23690,
  "blinds": 28279,
  "defaulted": 17265,
  "##eche": 27635,
  "prelate": 26595,
  "certificates": 17987,
  "310": 17196,
  "##\u0430\u043d": 28995,
  "belong": 7141,
  "##cola": 26289,
  "refugee": 13141,
  "##aman": 23093,
  "hokkaido": 20826,
  "weiss": 17889,
  "##wad": 26016,
  "##sos": 17063,
  "catalytic": 26244,
  "maria": 3814,
  "[unused210]": 215,
  "drawing": 5059,
  "rs": 12667,
  "swung": 7671,
  "individuals": 3633,
  "slices": 25609,
  "##ers": 2545,
  "plays": 3248,
  "newman": 10625,
  "bets": 29475,
  "dedicated": 4056,
  "divisions": 5908,
  "father": 2269,
  "euro": 9944,
  "dumb": 12873,
  "##bir": 17706,
  "\u5cf6": 1833,
  "liv": 22135,
  "undertaking": 18457,
  "##logies": 21615,
  "bail": 15358,
  "##kot": 23342,
  "acceleration": 16264,
  "nasser": 26099,
  "psalm": 22728,
  "##graphs": 27341,
  "quinlan": 28451,
  "gutierrez": 20836,
  "silenced": 25030,
  "upstairs": 8721,
  "salmon": 11840,
  "props": 24387,
  "bengali": 11267,
  "vocabulary": 16188,
  "publicized": 24928,
  "bin": 8026,
  "conservatives": 11992,
  "raaf": 22709,
  "groin": 20092,
  "jerked": 8245,
  "devotion": 13347,
  "meyrick": 15228,
  "pull": 4139,
  "quadrant": 29371,
  "prompt": 25732,
  "terrestrial": 12350,
  "rooftop": 23308,
  "\u21d2": 1591,
  "anthropologist": 21571,
  "bosses": 23029,
  "literacy": 8433,
  "don": 2123,
  "[unused145]": 150,
  "\u3044": 1647,
  "became": 2150,
  "entrances": 18084,
  "henri": 8863,
  "assembly": 3320,
  "goldberg": 18522,
  "##one": 5643,
  "horatio": 27752,
  "minds": 9273,
  "dr": 2852,
  "segments": 9214,
  "equatorial": 21333,
  "\u25cf": 1619,
  "tour": 2778,
  "22": 2570,
  "playboy": 18286,
  "##ru": 6820,
  "1689": 22685,
  "escaping": 13002,
  "[unused331]": 336,
  "stallion": 19122,
  "leipzig": 11222,
  "lids": 26122,
  "beers": 18007,
  "##may": 27871,
  "downhill": 19448,
  "##cum": 24894,
  "##30": 14142,
  "##thing": 20744,
  "widows": 24835,
  "deutsche": 11605,
  "christophe": 23978,
  "oceanic": 18955,
  "\u7fa9": 1936,
  "##a": 2050,
  "##wing": 9328,
  "1891": 6607,
  "monsoon": 19183,
  "\u5ca1": 1832,
  "[unused743]": 748,
  "dorset": 15367,
  "ana": 9617,
  "institution": 5145,
  "##logie": 27095,
  "constabulary": 23791,
  "brigadier": 9900,
  "diversified": 24908,
  "burma": 11050,
  "ready": 3201,
  "bolt": 10053,
  "audio": 5746,
  "##enes": 28553,
  "adapting": 25357,
  "abbreviated": 12066,
  "[unused760]": 765,
  "kitten": 18401,
  "admit": 6449,
  "demise": 13614,
  "##iya": 8717,
  "betray": 20895,
  "chronology": 17873,
  "spun": 7455,
  "biography": 8308,
  "\u5742": 1803,
  "commendation": 23039,
  "##right": 15950,
  "##ted": 3064,
  "##\u03b8": 29725,
  "rupert": 14641,
  "[unused107]": 112,
  "drew": 3881,
  "deafening": 28840,
  "##zal": 16739,
  "201": 16345,
  "excellent": 6581,
  "swirled": 19171,
  "micro": 12702,
  "helm": 16254,
  "dso": 22951,
  "flatly": 24295,
  "spare": 8622,
  "telegram": 23921,
  "[unused826]": 831,
  "supported": 3569,
  "brothers": 3428,
  "acceptable": 11701,
  "decreased": 10548,
  "07": 5718,
  "mascara": 27700,
  "mao": 15158,
  "associations": 8924,
  "newark": 12948,
  "canton": 8770,
  "teammates": 13220,
  "1649": 26538,
  "strengthening": 16003,
  "emanuel": 21135,
  "particles": 9309,
  "milano": 21613,
  "##tor": 4263,
  "flowed": 13230,
  "##oth": 14573,
  "reform": 5290,
  "[unused280]": 285,
  "knox": 11994,
  "argue": 7475,
  "consular": 27326,
  "##pg": 26952,
  "mankind": 14938,
  "##ensburg": 28812,
  "consoles": 22659,
  "##lty": 24228,
  "amiga": 24126,
  "##ick": 6799,
  "seats": 4272,
  "\u00a35": 27813,
  "ra": 10958,
  "jeremiah": 17526,
  "cellar": 15423,
  "baked": 17776,
  "precipitation": 13511,
  "fei": 24664,
  "1940s": 7675,
  "league": 2223,
  "##writer": 15994,
  "photo": 6302,
  "##hurst": 10510,
  "\u1111": 1468,
  "[unused446]": 451,
  "##\u3046": 30174,
  "##cial": 13247,
  "relies": 16803,
  "restoring": 16487,
  "viii": 9937,
  "pissed": 9421,
  "converts": 19884,
  "forums": 21415,
  "pressing": 7827,
  "gripping": 13940,
  "##cel": 29109,
  "midtown": 27219,
  "consonants": 19694,
  "domenico": 18638,
  "luxembourg": 10765,
  "##care": 16302,
  "##neck": 18278,
  "doe": 18629,
  "\u2666": 1626,
  "position": 2597,
  "recaptured": 23838,
  "\u10d9": 1446,
  "ultrasound": 27312,
  "performers": 9567,
  "##quin": 12519,
  "northbound": 20055,
  "stronghold": 16995,
  "switch": 6942,
  "##tically": 25084,
  "condemned": 10033,
  "##\u10d5": 29979,
  "layout": 9621,
  "1702": 26776,
  "spectacle": 21177,
  "##\u5206": 30301,
  "gospel": 8036,
  "declare": 13520,
  "rios": 25836,
  "astonishing": 26137,
  "hooper": 23717,
  "1877": 7557,
  "##\u5e1d": 30364,
  "motorway": 13119,
  "healed": 15027,
  "virgil": 17270,
  "comprise": 15821,
  "\u90e8": 1960,
  "##yoshi": 19196,
  "caress": 21753,
  "326": 28188,
  "nix": 23330,
  "fivb": 28423,
  "buffy": 18467,
  "allotted": 23932,
  "scotch": 18937,
  "outlet": 13307,
  "mannheim": 25116,
  "heart": 2540,
  "humming": 20364,
  "fis": 27424,
  "melville": 20154,
  "[unused800]": 805,
  "edged": 13011,
  "firstly": 15847,
  "poet": 4802,
  "2005": 2384,
  "pga": 14198,
  "lynne": 26938,
  "undertake": 16617,
  "rowland": 20539,
  "holstein": 18864,
  "\u30ea": 1732,
  "refrigerator": 18097,
  "skeptical": 18386,
  "##stle": 22516,
  "avatar": 22128,
  "\u06a9": 1304,
  "exceeds": 23651,
  "##\u208a": 30086,
  "1779": 17616,
  "battalions": 10157,
  "close": 2485,
  "##hered": 27190,
  "gear": 6718,
  "cosmetics": 25381,
  "boulder": 13264,
  "##uw": 25974,
  "clarence": 11805,
  "whipped": 12428,
  "sans": 20344,
  "ballet": 7250,
  "reducing": 8161,
  "##rup": 21531,
  "44": 4008,
  "glamour": 22439,
  "\u0f60": 1433,
  "narrative": 7984,
  "pharmaceuticals": 24797,
  "demonstrated": 7645,
  "##gel": 12439,
  "seize": 15126,
  "somewhat": 5399,
  "syllables": 20732,
  "##ucible": 21104,
  "##encies": 15266,
  "louisville": 11577,
  "reactions": 9597,
  "intends": 18754,
  "philipp": 20765,
  "blame": 7499,
  "darts": 17493,
  "sal": 16183,
  "ends": 4515,
  "improve": 5335,
  "geometry": 10988,
  "\u0444": 1199,
  "##ving": 6455,
  "451": 28161,
  "\uff1a": 1993,
  "confrontation": 13111,
  "[unused897]": 902,
  "intently": 16170,
  "[unused380]": 385,
  "negotiations": 7776,
  "snapping": 15790,
  "copies": 4809,
  "##den": 4181,
  "##thes": 24138,
  "coherent": 18920,
  "nissan": 16509,
  "bum": 26352,
  "facilitates": 27777,
  "shay": 18789,
  "1628": 28627,
  "spark": 12125,
  "member": 2266,
  "inherent": 16112,
  "erected": 7019,
  "mummy": 22788,
  "republics": 24822,
  "rests": 16626,
  "\u5bae": 1824,
  "tractors": 28292,
  "eaten": 8828,
  "192": 17613,
  "##\u00ac": 29655,
  "caution": 14046,
  "travelling": 8932,
  "multiplied": 28608,
  "modular": 19160,
  "novels": 6002,
  "films": 3152,
  "##lating": 22248,
  "gavin": 9448,
  "ashford": 26545,
  "reintroduced": 28263,
  "##rra": 11335,
  "crept": 13147,
  "fall": 2991,
  "february": 2337,
  "yale": 7996,
  "olympus": 26742,
  "inform": 12367,
  "trier": 25487,
  "decades": 5109,
  "massacre": 9288,
  "eating": 5983,
  "sequences": 10071,
  "##\u1161": 30006,
  "[unused328]": 333,
  "##oll": 14511,
  "scented": 25738,
  "##\u2502": 30143,
  "##39": 23499,
  "arabic": 5640,
  "ithaca": 27939,
  "penthouse": 22855,
  "bubbles": 17255,
  "inmates": 13187,
  "neo": 9253,
  "##we": 8545,
  "##\u677e": 30406,
  "reversed": 11674,
  "degrees": 5445,
  "##din": 8718,
  "sea": 2712,
  "##\u2f65": 30160,
  "pushes": 13956,
  "hermit": 24308,
  "##garh": 13484,
  "toward": 2646,
  "##wat": 24281,
  "suggesting": 9104,
  "imprint": 15738,
  "rebecca": 9423,
  "\u91cc": 1962,
  "pick": 4060,
  "##endra": 19524,
  "gloves": 11875,
  "cold": 3147,
  "tunisian": 22946,
  "assessments": 20794,
  "\u0ca8": 1400,
  "restoration": 6418,
  "reckless": 18555,
  "contain": 5383,
  "improper": 24156,
  "untitled": 24819,
  "tapestry": 25213,
  "##dine": 10672,
  "linguistic": 12158,
  "billings": 26124,
  "earned": 3687,
  "[unused213]": 218,
  "manuscripts": 10485,
  "skirt": 9764,
  "declaration": 8170,
  "##uta": 13210,
  "##jord": 24876,
  "##ove": 21818,
  "cello": 10145,
  "##pool": 16869,
  "continuous": 7142,
  "drummer": 7101,
  "nak": 17823,
  "masonry": 18103,
  "advisors": 18934,
  "class": 2465,
  "programmed": 16984,
  "advances": 9849,
  "richer": 26108,
  "attaining": 26615,
  "##ichi": 11319,
  "ward": 4829,
  "plots": 14811,
  "##ellant": 24178,
  "italianate": 25302,
  "chess": 7433,
  "##night": 15864,
  "experimentation": 21470,
  "blend": 12586,
  "renewable": 13918,
  "dripped": 22526,
  "esq": 25325,
  "taiwanese": 16539,
  "[unused397]": 402,
  "dangerous": 4795,
  "\u0127": 1103,
  "attitude": 7729,
  "statue": 6231,
  "16": 2385,
  "commodities": 21955,
  "##\u0e25": 29954,
  "##\u20b1": 30103,
  "##ew": 7974,
  "##tner": 18885,
  "##\u02e4": 29719,
  "punk": 7196,
  "[unused167]": 172,
  "commencing": 25819,
  "towns": 4865,
  "teatro": 16038,
  "norwood": 22804,
  "grimly": 22561,
  "##uba": 19761,
  "[unused672]": 677,
  "##xia": 14787,
  "7th": 5504,
  "pearls": 21944,
  "debating": 20767,
  "shaft": 9093,
  "[unused513]": 518,
  "attracting": 15411,
  "##inatory": 28230,
  "bryant": 12471,
  "[unused137]": 142,
  "defunct": 11984,
  "hamburg": 8719,
  "pattern": 5418,
  "gables": 27008,
  "rector": 10935,
  "##agawa": 20812,
  "cave": 5430,
  "##bal": 10264,
  "##dant": 28210,
  "crushing": 14527,
  "##gli": 25394,
  "sued": 12923,
  "##ywood": 26985,
  "indians": 6505,
  "##\u00f8": 16415,
  "wee": 16776,
  "fundamentally": 24670,
  "bypassed": 27539,
  "billion": 4551,
  "customs": 8205,
  "##win": 10105,
  "##ahu": 21463,
  "##ntal": 15758,
  "actor": 3364,
  "anhalt": 27088,
  "taxation": 14952,
  "premise": 18458,
  "ba": 8670,
  "offence": 15226,
  "##rot": 21709,
  "tasmanian": 21394,
  "revival": 6308,
  "1765": 20797,
  "give": 2507,
  "omar": 13192,
  "search": 3945,
  "wynn": 25328,
  "paramount": 11734,
  "introduces": 13999,
  "aggression": 14974,
  "currency": 9598,
  "gotten": 5407,
  "##\u2116": 30106,
  "database": 7809,
  "spokesperson": 15974,
  "[unused563]": 568,
  "renewal": 14524,
  "clasp": 23465,
  "somerville": 27209,
  "comprising": 9605,
  "##therapy": 20900,
  "##iidae": 15648,
  "dismounted": 29580,
  "round": 2461,
  "engineering": 3330,
  "repeat": 9377,
  "run": 2448,
  "meteor": 23879,
  "##llis": 21711,
  "mansion": 7330,
  "[unused291]": 296,
  "flare": 17748,
  "bakery": 18112,
  "mvp": 12041,
  "vaccine": 17404,
  "carter": 5708,
  "cute": 10140,
  "31st": 17089,
  "##fra": 27843,
  "modifying": 29226,
  "reading": 3752,
  "systemic": 22575,
  "jozef": 23258,
  "brightness": 18295,
  "freyja": 7075,
  "return": 2709,
  "##bies": 20536,
  "annex": 17827,
  "urbana": 27929,
  "mv": 19842,
  "botswana": 19414,
  "bronze": 4421,
  "##\u201d": 30059,
  "[unused238]": 243,
  "h\u2082o": 24833,
  "af": 21358,
  "civilizations": 24784,
  "##rh": 25032,
  "amy": 6864,
  "madam": 21658,
  "chances": 9592,
  "##oping": 17686,
  "##bio": 26282,
  "carvings": 22838,
  "own": 2219,
  "euroleague": 26093,
  "casa": 14124,
  "notified": 19488,
  "wizards": 16657,
  "1861": 6863,
  "117": 12567,
  "concrete": 5509,
  "peyton": 17931,
  "smarter": 25670,
  "machinery": 10394,
  "buffer": 17698,
  "##lani": 21141,
  "##\u099f": 29895,
  "stepfather": 21481,
  "malaysia": 6027,
  "[unused829]": 834,
  "yourself": 4426,
  "administratively": 23710,
  "professions": 22797,
  "##ision": 19969,
  "menon": 25111,
  "distinguishing": 20852,
  "hairs": 13606,
  "talks": 7566,
  "alligator": 28833,
  "treason": 14712,
  "smoothed": 17966,
  "envoy": 19918,
  "##\u02c8": 29715,
  "##pt": 13876,
  "dissolve": 21969,
  "mitsubishi": 19695,
  "receptions": 16466,
  "polish": 3907,
  "tangle": 24453,
  "reorganization": 17118,
  "enemy": 4099,
  "##cek": 25368,
  "adventurer": 29506,
  "clock": 5119,
  "efficiency": 8122,
  "irving": 12415,
  "auguste": 20758,
  "##kari": 20224,
  "robson": 23698,
  "passage": 6019,
  "stolen": 7376,
  "hauling": 23113,
  "##\u00d7": 26306,
  "assists": 8456,
  "merritt": 26701,
  "##rock": 16901,
  "miraculous": 26106,
  "1642": 24061,
  "excitedly": 23885,
  "certainly": 5121,
  "writers": 4898,
  "coffin": 13123,
  "##igen": 29206,
  "##nn": 10695,
  "filly": 22062,
  "depressed": 14777,
  "https": 16770,
  "chalk": 16833,
  "ill": 5665,
  "participated": 4194,
  "augusta": 13635,
  "##alic": 27072,
  "fertile": 14946,
  "pitchfork": 22355,
  "##\u300c": 30167,
  "whiskey": 13803,
  "cabaret": 19685,
  "spire": 19823,
  "athlete": 8258,
  "demographics": 28321,
  "atmosphere": 7224,
  "fracture": 19583,
  "comparisons": 18539,
  "##ke": 3489,
  "thong": 27468,
  "\u2205": 1593,
  "##im": 5714,
  "covenant": 16077,
  "countless": 14518,
  "moose": 17716,
  "bai": 21790,
  "[unused2]": 3,
  "story": 2466,
  "[unused529]": 534,
  "york": 2259,
  "bear": 4562,
  "twigs": 27964,
  "engined": 21235,
  "siberia": 16881,
  "\u5fc4": 1850,
  "tanner": 12780,
  "equivalent": 5662,
  "vaccines": 28896,
  "##dom": 9527,
  "secret": 3595,
  "##lkirk": 23913,
  "synth": 24203,
  "##pse": 29251,
  "converge": 28314,
  "elevation": 6678,
  "ferrari": 13632,
  "layla": 19786,
  "enjoyed": 5632,
  "##\u11ab": 30021,
  "lashes": 16008,
  "downward": 14047,
  "##eurs": 26744,
  "warily": 23625,
  "naval": 3987,
  "circuits": 13782,
  "##port": 6442,
  "galileo": 21514,
  "wiener": 25072,
  "clipped": 20144,
  "duane": 27319,
  "redeveloped": 28053,
  "surveillance": 9867,
  "charms": 24044,
  "##end": 10497,
  "nyc": 16392,
  "spartan": 20670,
  "1875": 7466,
  "##oh": 11631,
  "##\u30db": 30248,
  "raymond": 7638,
  "artistic": 6018,
  "sooner": 10076,
  "##\u8ecd": 30481,
  "laszlo": 28226,
  "awesome": 12476,
  "sorcerer": 23324,
  "[unused839]": 844,
  "structured": 14336,
  "aperture": 18892,
  "plainly": 24250,
  "##lace": 19217,
  "encouraged": 6628,
  "##eyer": 20211,
  "diner": 15736,
  "174": 19492,
  "bush": 5747,
  "kazakh": 25907,
  "weary": 16040,
  "##systems": 29390,
  "similarity": 14402,
  "mueller": 26774,
  "failure": 4945,
  "regulates": 26773,
  "fountains": 23497,
  "[unused889]": 894,
  "loyalist": 23414,
  "##\u09ae": 29906,
  "backs": 10457,
  "dh": 28144,
  "##\u5b87": 30345,
  "entities": 11422,
  "bf": 28939,
  "##aer": 27867,
  "flavor": 14894,
  "exposure": 7524,
  "messina": 27270,
  "tb": 26419,
  "classifications": 26739,
  "consists": 3774,
  "##rase": 23797,
  "girlfriend": 6513,
  "crore": 21665,
  "tre": 29461,
  "##\u10d3": 29977,
  "enclosure": 17539,
  "##zawa": 19708,
  "atkinson": 18646,
  "juno": 20788,
  "fetal": 25972,
  "massif": 24875,
  "ctv": 28720,
  "##dev": 24844,
  "homework": 19453,
  "industrial": 3919,
  "gordon": 5146,
  "faulty": 28927,
  "kylie": 9008,
  "amateur": 5515,
  "vows": 16495,
  "divorced": 9196,
  "goran": 28356,
  "stemmed": 27674,
  "1791": 14362,
  "madonna": 11284,
  "porto": 13809,
  "\u209a": 1569,
  "reinforce": 19444,
  "\u2084": 1551,
  "entity": 9178,
  "870": 28864,
  "suez": 21974,
  "argentine": 8511,
  "##tres": 19168,
  "bled": 23919,
  "iran": 4238,
  "puppet": 13997,
  "\u00b2": 1082,
  "pomeranian": 17717,
  "195": 17317,
  "knob": 16859,
  "terrible": 6659,
  "\u571f": 1801,
  "##roving": 22046,
  "gabled": 26182,
  "gp": 14246,
  "sykes": 23531,
  "akron": 22735,
  "##rnier": 28484,
  "hearst": 25419,
  "\u30ca": 1715,
  "\u00d7": 1095,
  "shri": 14880,
  "##uchi": 15217,
  "trains": 4499,
  "accidents": 13436,
  "punjabi": 17498,
  "recruiting": 14357,
  "riverside": 12497,
  "muscle": 6740,
  "emigrated": 11367,
  "naia": 29511,
  "underneath": 7650,
  "runs": 3216,
  "greek": 3306,
  "\u0bc7": 1398,
  "[unused189]": 194,
  "evolved": 7964,
  "tchaikovsky": 25900,
  "arthur": 4300,
  "children": 2336,
  "actresses": 19910,
  "sobbed": 25960,
  "leagues": 8121,
  "issued": 3843,
  "unusually": 12890,
  "demi": 27668,
  "~": 1066,
  "hurled": 24025,
  "##word": 18351,
  "##rook": 25399,
  "[unused561]": 566,
  "geelong": 18664,
  "messenger": 11981,
  "uniform": 6375,
  "##pus": 12207,
  "##\u0b95": 29918,
  "madeline": 16974,
  "contest": 5049,
  "locating": 26339,
  "suites": 19796,
  "##rating": 15172,
  "cables": 15196,
  "disputed": 11621,
  "karin": 24537,
  "neighbourhoods": 27535,
  "obliged": 14723,
  "fluctuations": 28892,
  "##mental": 26901,
  "disaster": 7071,
  "recruit": 13024,
  "##cina": 28748,
  "mercy": 8673,
  "miles": 2661,
  "seymour": 13254,
  "gross": 7977,
  "minh": 19538,
  "informant": 28694,
  "soccer": 4715,
  "verses": 11086,
  "##orin": 28741,
  "patti": 22732,
  "lips": 2970,
  "functional": 8360,
  "tugging": 17100,
  "shattered": 10909,
  "##tum": 11667,
  "##ot": 4140,
  "aleksandr": 24020,
  "escort": 8620,
  "cancelled": 8014,
  "[unused811]": 816,
  "[unused9]": 10,
  "wash": 9378,
  "[unused615]": 620,
  "uhf": 20131,
  "frowned": 7335,
  "rite": 14034,
  "litigation": 15382,
  "horns": 11569,
  "##ammed": 27479,
  "##llin": 21202,
  "seychelles": 27438,
  "glory": 8294,
  "##lewood": 26580,
  "lyon": 10241,
  "\u05e3": 1260,
  "pillars": 13766,
  "frescoes": 23360,
  "inmate": 24467,
  "renovations": 15576,
  "wikipedia": 16948,
  "discouraged": 22585,
  "188": 19121,
  "21": 2538,
  "stale": 26729,
  "beans": 13435,
  "##bedo": 28759,
  "discuss": 6848,
  "nope": 16780,
  "##minated": 26972,
  "conferred": 15186,
  "zero": 5717,
  "bamboo": 15216,
  "smiley": 27420,
  "judith": 12924,
  "calculus": 19276,
  "anthony": 4938,
  "##utnant": 24620,
  "je": 15333,
  "subdistrict": 24150,
  "[unused384]": 389,
  "and": 1998,
  "armenians": 20337,
  "cousin": 5542,
  "reds": 12281,
  "fragmented": 26872,
  "ferrer": 28390,
  "rory": 14285,
  "1738": 28009,
  "lo": 8840,
  "moaning": 22653,
  "tamara": 21772,
  "columbian": 25882,
  "domed": 29208,
  "##\u0965": 29881,
  "versions": 4617,
  "outdoors": 19350,
  "[unused295]": 300,
  "##listic": 27348,
  "wiped": 8342,
  "striking": 8478,
  "youngest": 6587,
  "burton": 9658,
  "##tee": 17389,
  "drawn": 4567,
  "lucia": 12337,
  "stanton": 15845,
  "angelo": 12262,
  "valor": 27314,
  "moderately": 17844,
  "proposals": 10340,
  "[unused405]": 410,
  "relieve": 15804,
  "cum": 13988,
  "funeral": 6715,
  "##lman": 12624,
  "##\u0274": 29690,
  "unopposed": 17123,
  "##rner": 18703,
  "gardiner": 21143,
  "documentaries": 15693,
  "\u2191": 1584,
  "[unused663]": 668,
  "##tis": 7315,
  "unfamiliar": 16261,
  "optimal": 15502,
  "attained": 12754,
  "customer": 8013,
  "158": 17696,
  "##pping": 14853,
  "##ffer": 12494,
  "##istles": 28738,
  "\u6751": 1878,
  "adjusted": 10426,
  "28th": 15538,
  "ribbon": 10557,
  "gearbox": 22227,
  "bjp": 24954,
  "parana": 28383,
  "audrey": 14166,
  "witness": 7409,
  "aarhus": 29173,
  "##vo": 6767,
  "##\u4eee": 30287,
  "seeming": 16064,
  "traditions": 7443,
  "slow": 4030,
  "##ache": 15395,
  "cracking": 15729,
  "equestrian": 19191,
  "##bh": 23706,
  "diagrams": 26309,
  "##mbit": 28878,
  "brushing": 12766,
  "##pheus": 22809,
  "##pie": 14756,
  "oclc": 12258,
  "capitalist": 19640,
  "##fish": 7529,
  "kawasaki": 27324,
  "educator": 11490,
  "coincided": 18616,
  "##tlan": 28922,
  "hurrying": 27951,
  "##iology": 20569,
  "flock": 19311,
  "90": 3938,
  "gamble": 18503,
  "clasped": 16763,
  "presiding": 18131,
  "bayou": 24818,
  "##po": 6873,
  "prosperity": 14165,
  "ryder": 11731,
  "eagerly": 17858,
  "jane": 4869,
  "380": 17014,
  "gaga": 23332,
  "##aha": 23278,
  "presumably": 10712,
  "##reus": 23446,
  "blackwell": 18776,
  "casualty": 19844,
  "##uate": 20598,
  "tense": 9049,
  "bride": 8959,
  "azure": 24296,
  "alfredo": 19423,
  "warrington": 23051,
  "clicks": 29225,
  "authorities": 4614,
  "thirty": 4228,
  "dominic": 11282,
  "##\u30a6": 30222,
  "object": 4874,
  "thorough": 16030,
  "nwa": 15737,
  "coral": 11034,
  "favorable": 11119,
  "mama": 9588,
  "indicative": 24668,
  "until": 2127,
  "uniformly": 27423,
  "float": 14257,
  "nudged": 18666,
  "diverted": 18356,
  "summoned": 11908,
  "mughal": 17877,
  "crisis": 5325,
  "lombardy": 27728,
  "folklore": 13104,
  "1961": 3777,
  "hub": 9594,
  "ned": 12311,
  "hee": 18235,
  "spells": 11750,
  "items": 5167,
  "say": 2360,
  "yoo": 26823,
  "assured": 8916,
  "alarmed": 19260,
  "##\u0cb0": 29937,
  "springer": 17481,
  "##ins": 7076,
  "##ifying": 11787,
  "hazel": 14015,
  "[unused357]": 362,
  "[unused33]": 34,
  "##cm": 27487,
  "margins": 17034,
  "creative": 5541,
  "##zek": 24506,
  "tobin": 28096,
  "1708": 27337,
  "##oge": 23884,
  "whisper": 7204,
  "prefect": 19402,
  "monarchy": 12078,
  "trajectory": 22793,
  "midway": 12213,
  "##pe": 5051,
  "islands": 3470,
  "##sities": 24279,
  "##rella": 21835,
  "bert": 14324,
  "string": 5164,
  "tenderness": 24605,
  "1936": 4266,
  "felix": 8383,
  "##\u10d0": 29974,
  "audition": 14597,
  "[unused613]": 618,
  "piled": 17835,
  "[unused847]": 852,
  "smallpox": 25765,
  "##zine": 21254,
  "\u0937": 1337,
  "##pu": 14289,
  "##ania": 13241,
  "mouthed": 20521,
  "kilometres": 3717,
  "##ters": 7747,
  "blouse": 18149,
  "whipping": 23016,
  "##dorff": 26559,
  "##etic": 16530,
  "##ears": 26492,
  "gladly": 24986,
  "peaceful": 9379,
  "##zko": 29002,
  "confluence": 13693,
  "##deh": 25383,
  "consisted": 5031,
  "mattress": 13342,
  "muller": 12304,
  "medina": 15761,
  "debate": 5981,
  "originate": 21754,
  "##rino": 17815,
  "\u1165": 1472,
  "waving": 12015,
  "##roids": 29514,
  "paddington": 26318,
  "[unused106]": 111,
  "belize": 18867,
  "clues": 15774,
  "[unused922]": 927,
  "[unused267]": 272,
  "\u6b63": 1888,
  "jackson": 4027,
  "go": 2175,
  "##47": 22610,
  "flats": 14201,
  "elle": 15317,
  "##dra": 7265,
  "cecil": 11978,
  "##hma": 22444,
  "##\u6a39": 30410,
  "tissues": 14095,
  "warren": 6031,
  "spitfire": 28323,
  "alderman": 18977,
  "including": 2164,
  "duplicate": 24473,
  "poker": 11662,
  "sharon": 10666,
  "1813": 12169,
  "secure": 5851,
  "repetitive": 23563,
  "##hid": 27511,
  "those": 2216,
  "dorm": 19568,
  "menu": 12183,
  "omega": 14827,
  "recordings": 5633,
  "##200": 28332,
  "see": 2156,
  "autumn": 7114,
  "[unused490]": 495,
  "carly": 18431,
  "\u00b7": 1087,
  "##ator": 8844,
  "##\u062f": 15394,
  "accompaniment": 22205,
  "##gging": 12588,
  "marsden": 29558,
  "##rano": 20770,
  "younger": 3920,
  "karim": 25461,
  "culinary": 20560,
  "natalia": 21521,
  "rpg": 22531,
  "choking": 18329,
  "##zquez": 22938,
  "apartheid": 17862,
  "estonia": 10692,
  "luckily": 15798,
  "##crat": 23185,
  "doubtful": 21888,
  "examiner": 19684,
  "49th": 25726,
  "choral": 14564,
  "sectional": 27197,
  "collaborating": 20295,
  "##36": 21619,
  "curator": 13023,
  "fifties": 25942,
  "insists": 16818,
  "##\u044d": 29756,
  "closely": 4876,
  "oilers": 19778,
  "carts": 25568,
  "##erate": 22139,
  "tinged": 22683,
  "##\u5916": 30335,
  "tattoo": 11660,
  "##nco": 15305,
  "crap": 10231,
  "barrier": 8803,
  "##head": 4974,
  "affordable": 15184,
  "purge": 24694,
  "displeasure": 28606,
  "romance": 7472,
  "heel": 12073,
  "bce": 10705,
  "commented": 7034,
  "kiran": 22403,
  "characteristics": 6459,
  "##cot": 24310,
  "##good": 24146,
  "owns": 8617,
  "shrine": 9571,
  "##\u2011": 30049,
  "lens": 10014,
  "synchronized": 25549,
  "suicide": 5920,
  "tide": 10401,
  "limo": 23338,
  "cain": 11557,
  "##51": 22203,
  "lest": 26693,
  "##mount": 20048,
  "espn": 10978,
  "elliot": 11759,
  "questioning": 11242,
  "tianjin": 26216,
  "[unused60]": 61,
  "coven": 25248,
  "harmonies": 28594,
  "inexpensive": 23766,
  "sacked": 14159,
  "##\u2194": 30115,
  "spit": 13183,
  "beethoven": 15461,
  "directorial": 21635,
  "tq": 28816,
  "with": 2007,
  "wind": 3612,
  "##lett": 20897,
  "garde": 14535,
  "##\u0564": 29769,
  "sales": 4341,
  "rods": 19485,
  "verification": 22616,
  "recycling": 17874,
  "recession": 19396,
  "##\u27e9": 30156,
  "invariant": 23915,
  "covers": 4472,
  "##vsky": 15904,
  "1964": 3546,
  "##bon": 11735,
  "gets": 4152,
  "georgia": 4108,
  "[unused103]": 108,
  "relentless": 21660,
  "[unused214]": 219,
  "##iano": 15668,
  "lifeboat": 23450,
  "mecklenburg": 22007,
  "ax": 22260,
  "adler": 17969,
  "session": 5219,
  "nasty": 11808,
  "partnerships": 13797,
  "allegedly": 9382,
  "filing": 15242,
  "##tained": 28055,
  "##ciency": 29125,
  "##dp": 18927,
  "##\u05e5": 29808,
  "[unused558]": 563,
  "haggard": 27912,
  "distributing": 20083,
  "##ert": 8743,
  "explodes": 27583,
  "##ear": 14644,
  "##\u02e2": 29717,
  "persistence": 28297,
  "unhappy": 12511,
  "fix": 8081,
  "##cope": 16186,
  "suburb": 7575,
  "worried": 5191,
  "dublin": 5772,
  "##pa": 4502,
  "lived": 2973,
  "reissued": 14805,
  "coached": 8868,
  "information": 2592,
  "rang": 8369,
  "distributor": 16632,
  "##and": 5685,
  "lesbian": 11690,
  "swept": 7260,
  "##yle": 12844,
  "circled": 14867,
  "##mum": 27147,
  "guillaume": 20061,
  "##\u0bbf": 29932,
  "exclaimed": 12713,
  "##gc": 18195,
  "assassins": 18364,
  "prisoner": 7267,
  "blast": 8479,
  "reclamation": 27389,
  "##ype": 18863,
  "despair": 13905,
  "surpassing": 27097,
  "##la": 2721,
  "employers": 12433,
  "[unused402]": 407,
  "blur": 14819,
  "reduction": 7312,
  "dealt": 9411,
  "pollen": 22482,
  "instincts": 16160,
  "\u3086": 1683,
  "\u624c": 1859,
  "[unused203]": 208,
  "xvi": 16855,
  "restrictive": 25986,
  "cumberland": 12310,
  "lehman": 28444,
  "university": 2118,
  "voting": 6830,
  "ang": 17076,
  "##wt": 26677,
  "gretchen": 21625,
  "[unused194]": 199,
  "regarded": 5240,
  "realization": 12393,
  "april": 2258,
  "406": 27433,
  "inferior": 14092,
  "highlight": 12944,
  "liverpool": 6220,
  "vivid": 14954,
  "pan": 6090,
  "yearning": 29479,
  "sample": 7099,
  "seminary": 8705,
  "gigs": 20929,
  "232": 20666,
  "thrilling": 26162,
  "byte": 24880,
  "eleventh": 11911,
  "decimal": 26066,
  "navarro": 23524,
  "juan": 5348,
  "##dian": 11692,
  "julian": 6426,
  "44th": 26409,
  "gaining": 8550,
  "gazes": 23514,
  "delays": 14350,
  "##walk": 17122,
  "##real": 22852,
  "knighted": 19572,
  "eugene": 8207,
  "root": 7117,
  "bending": 14457,
  "verlag": 14552,
  "institute": 2820,
  "\u1d40": 1495,
  "[unused569]": 574,
  "\u1172": 1480,
  "fontaine": 25749,
  "##scope": 26127,
  "intervening": 26623,
  "[unused926]": 931,
  "gustavo": 24801,
  "conditioning": 14372,
  "heaven": 6014,
  "##dio": 20617,
  "curated": 17940,
  "insurance": 5427,
  "[unused531]": 536,
  "interception": 17385,
  "slacks": 27786,
  "bless": 19994,
  "[unused298]": 303,
  "athenian": 26956,
  "silesia": 21872,
  "mclaughlin": 23720,
  "##rant": 17884,
  "theft": 11933,
  "hiatus": 14221,
  "##tford": 26341,
  "grandparents": 14472,
  "detained": 14620,
  "deluxe": 15203,
  "danger": 5473,
  "brenda": 15507,
  "##ste": 13473,
  "tolkien": 23602,
  "north": 2167,
  "##ooped": 20671,
  "administrators": 15631,
  "grimes": 24865,
  "squares": 14320,
  "bite": 6805,
  "mexican": 4916,
  "guided": 8546,
  "created": 2580,
  "kochi": 27603,
  "##rigue": 27611,
  "mcgee": 22034,
  "##40": 12740,
  "iconic": 14430,
  "257": 24368,
  "igor": 14661,
  "harder": 6211,
  "explode": 15044,
  "ibrahim": 13477,
  "##riding": 21930,
  "choreographer": 17334,
  "page": 3931,
  "blanchard": 26870,
  "kumar": 9600,
  "weighted": 18215,
  "lancaster": 10237,
  "inhuman": 29582,
  "murderous": 25303,
  "##jhl": 29001,
  "##\u30ce": 30243,
  "rev": 7065,
  "pena": 19409,
  "##uge": 22890,
  "##ling": 2989,
  "roofs": 15753,
  "collecting": 9334,
  "denmark": 5842,
  "erupted": 12591,
  "stories": 3441,
  "will": 2097,
  "desktop": 15363,
  "flair": 22012,
  "amazing": 6429,
  "controversial": 6801,
  "bc": 4647,
  "gm": 13938,
  "relevant": 7882,
  "visas": 24487,
  "defeat": 4154,
  "##dner": 28001,
  "entrepreneurship": 20213,
  "302": 22060,
  "stretches": 14082,
  "solitude": 22560,
  "diplomat": 11125,
  "examining": 12843,
  "##gas": 12617,
  "none": 3904,
  "pup": 26781,
  "hezbollah": 25713,
  "unpublished": 19106,
  "##dded": 19520,
  "quiz": 19461,
  "victorious": 13846,
  "##chemical": 15869,
  "rustic": 27471,
  "suppressed": 13712,
  "##genic": 16505,
  "##zen": 10431,
  "brandenburg": 16426,
  "[unused31]": 32,
  "pursuits": 23719,
  "myrtle": 21381,
  "injuries": 6441,
  "diffuse": 28105,
  "##\u00b6": 29660,
  "schuster": 24253,
  "\u305f": 1661,
  "mp3": 23378,
  "majority": 3484,
  "toledo": 13163,
  "portraying": 17274,
  "hon": 10189,
  "aleppo": 22973,
  "stark": 9762,
  "goa": 15244,
  "smoothing": 27045,
  "murdered": 7129,
  "tones": 12623,
  "fossil": 10725,
  "sweeping": 12720,
  "intentions": 11174,
  "##bant": 29604,
  "azerbaijani": 18325,
  "piccolo": 29368,
  "\u4e0d": 1744,
  "complain": 17612,
  "past": 2627,
  "casino": 9270,
  "##oese": 23379,
  "##isse": 23491,
  "[unused587]": 592,
  "##hman": 13890,
  "[unused799]": 804,
  "amulet": 25087,
  "released": 2207,
  "wu": 8814,
  "outing": 26256,
  "##rries": 26801,
  "##entes": 26933,
  "straw": 13137,
  "##lid": 21273,
  "299": 25926,
  "##\u1da0": 30047,
  "wadi": 28380,
  "##uf": 16093,
  "##hof": 14586,
  "##lch": 29358,
  "##tec": 26557,
  "dramatically": 12099,
  "\u3080": 1679,
  "sending": 6016,
  "deportation": 23702,
  "nellie": 25365,
  "\u0e01": 1409,
  "entrance": 4211,
  "drunken": 15967,
  "##pone": 29513,
  "##stituting": 21532,
  "envisioned": 18035,
  "suicidal": 26094,
  "intimidated": 28028,
  "portugal": 5978,
  "interior": 4592,
  "##nor": 12131,
  "ultimatum": 29227,
  "caucus": 13965,
  "shitty": 28543,
  "##tie": 9515,
  "pioneers": 13200,
  "##arded": 28037,
  "acquisition": 7654,
  "##wright": 26460,
  "intercity": 20651,
  "overlap": 17702,
  "sarajevo": 18354,
  "##\u091f": 29856,
  "regent": 11315,
  "beard": 10154,
  "##\u00bf": 29666,
  "assignments": 14799,
  "punched": 11696,
  "astoria": 29285,
  "assault": 6101,
  "lovers": 10205,
  "describing": 7851,
  "studios": 4835,
  "shortest": 20047,
  "hourly": 21462,
  "##\u03ba": 29726,
  "##slow": 26338,
  "charley": 20430,
  "lars": 16357,
  "leadership": 4105,
  "##ail": 12502,
  "seventy": 10920,
  "facades": 28708,
  "##iste": 27870,
  "##itas": 24317,
  "##hart": 10686,
  "gunners": 29000,
  "headline": 17653,
  "multinational": 20584,
  "brass": 8782,
  "bonuses": 29563,
  "unnecessary": 14203,
  "reins": 19222,
  "peck": 18082,
  "bessie": 29298,
  "penned": 17430,
  "nazis": 13157,
  "##bius": 17028,
  "##dhar": 25632,
  "compiling": 21953,
  "dixon": 11357,
  "speaker": 5882,
  "territories": 6500,
  "damon": 11317,
  "hosting": 9936,
  "harrisburg": 24569,
  "##ctable": 23576,
  "ranges": 8483,
  "##rington": 17281,
  "os": 9808,
  "solution": 5576,
  "\u306f": 1672,
  "names": 3415,
  "##dry": 21190,
  "1672": 27253,
  "undone": 25757,
  "strewn": 25259,
  "hana": 26048,
  "bedside": 19475,
  "camps": 7958,
  "##hiro": 18334,
  "29": 2756,
  "bump": 16906,
  "pratt": 13208,
  "anatomy": 13336,
  "sophisticated": 12138,
  "sharma": 14654,
  "producing": 5155,
  "fascist": 14870,
  "samuel": 5212,
  "appealed": 12068,
  "fought": 4061,
  "hawaiian": 12188,
  "##meister": 28824,
  "##iling": 16281,
  "name": 2171,
  "webb": 10923,
  "fierce": 9205,
  "keeps": 7906,
  "babylon": 17690,
  "pedestrians": 24946,
  "##dl": 19422,
  "##hea": 20192,
  "1977": 3355,
  "cuban": 9642,
  "objects": 5200,
  "belongings": 20033,
  "shankar": 17429,
  "efficient": 8114,
  "transmission": 6726,
  "rabbits": 20403,
  "##\u0443": 29748,
  "catholicism": 16138,
  "liquidation": 28763,
  "lit": 5507,
  "##rat": 8609,
  "obsolete": 15832,
  "##can": 9336,
  "##etta": 16549,
  "noon": 11501,
  "##bri": 23736,
  "malaria": 19132,
  "weeds": 20777,
  "##gin": 11528,
  "ranking": 5464,
  "ulster": 11059,
  "accountability": 17842,
  "##rell": 16230,
  "##eric": 22420,
  "##ivision": 24607,
  "cu": 12731,
  "requests": 11186,
  "460": 17267,
  "administration": 3447,
  "removal": 8208,
  "assurance": 16375,
  "##church": 22743,
  "\u0bb5": 1394,
  "241": 22343,
  "depiction": 15921,
  "fa": 6904,
  "posing": 20540,
  "422": 29269,
  "shelly": 28360,
  "[unused400]": 405,
  "alien": 7344,
  "scratching": 20291,
  "sword": 4690,
  "dates": 5246,
  "##lite": 22779,
  "##rder": 26764,
  "##hein": 26496,
  "paula": 13723,
  "inch": 4960,
  "ada": 15262,
  "diary": 9708,
  "divert": 27345,
  "##leg": 23115,
  "labeling": 28847,
  "##eto": 18903,
  "[unused302]": 307,
  "exported": 15612,
  "rf": 21792,
  "output": 6434,
  "##kill": 15872,
  "##\u0254": 29679,
  "[unused980]": 985,
  "pantheon": 24152,
  "moi": 25175,
  "##tu": 8525,
  "speedway": 10688,
  "eligibility": 11395,
  "[unused594]": 599,
  "distract": 15886,
  "slipped": 5707,
  "elderly": 9750,
  "##oo": 9541,
  "travel": 3604,
  "dispersal": 27602,
  "jewel": 13713,
  "antilles": 27695,
  "erratic": 24122,
  "sprawled": 21212,
  "shareholder": 18668,
  "tao": 20216,
  "##\u3044": 30173,
  "saxophonist": 19977,
  "nipple": 14298,
  "referred": 3615,
  "mig": 19117,
  "##rwood": 20941,
  "##\u0438": 10325,
  "conflict": 4736,
  "tank": 4951,
  "way": 2126,
  "blushing": 25771,
  "pang": 20657,
  "carthage": 21959,
  "renumbered": 27855,
  "##ches": 8376,
  "notable": 3862,
  "##igraphy": 23132,
  "[unused990]": 995,
  "gilbert": 7664,
  "##culus": 28703,
  "\u5149": 1770,
  "bolted": 18088,
  "lei": 26947,
  "##ntly": 20630,
  "alloys": 28655,
  "bangs": 28490,
  "blown": 10676,
  "##eno": 16515,
  "interpreted": 10009,
  "##ero": 10624,
  "sava": 28350,
  "mckay": 16225,
  "##ao": 7113,
  "lister": 27177,
  "judicial": 8268,
  "chimneys": 28885,
  "harness": 17445,
  "[unused118]": 123,
  "spending": 5938,
  "##ui": 10179,
  "179": 20311,
  "differs": 12980,
  "sensation": 8742,
  "substance": 9415,
  "guyana": 18786,
  "imperfect": 29238,
  "coli": 27441,
  "##kura": 28260,
  "constitutes": 17367,
  "flawless": 27503,
  "##hta": 22893,
  "above": 2682,
  "activity": 4023,
  "battered": 17548,
  "timetable": 23839,
  "\u30c3": 1711,
  "1826": 11931,
  "aix": 28443,
  "courage": 8424,
  "nouns": 19211,
  "fares": 27092,
  "\u10d4": 1442,
  "elected": 2700,
  "che": 18178,
  "rolls": 9372,
  "centralized": 22493,
  "1916": 4947,
  "gaping": 21226,
  "##iating": 15370,
  "soyuz": 29412,
  "thinks": 6732,
  "##trick": 22881,
  "underworld": 13607,
  "shovel": 24596,
  "landon": 20642,
  "nik": 23205,
  "\u9234": 1965,
  "magna": 20201,
  "creates": 9005,
  "patricia": 10717,
  "grady": 19011,
  "servicing": 26804,
  "outrage": 19006,
  "ellington": 21630,
  "festivals": 7519,
  "fists": 10006,
  "48th": 27787,
  "##pati": 24952,
  "celeste": 21113,
  "ee": 25212,
  "raj": 11948,
  "gloria": 10778,
  "compares": 22963,
  "##aia": 27131,
  "[unused309]": 314,
  "##kovich": 28195,
  "\u2016": 1519,
  "awarded": 3018,
  "##zily": 28431,
  "strengthened": 13949,
  "abbot": 11428,
  "traces": 10279,
  "1737": 26738,
  "1798": 13036,
  "\u30d5": 1720,
  "intercept": 19115,
  "angus": 13682,
  "disagree": 21090,
  "peeking": 28222,
  "regret": 9038,
  "fixing": 15887,
  "lineman": 24062,
  "jocelyn": 23786,
  "##mies": 28397,
  "soloists": 27516,
  "canonical": 18562,
  "sacrifices": 18502,
  "thence": 23166,
  "wolverine": 22162,
  "avon": 16131,
  "##\u6e05": 30429,
  "wears": 11651,
  "clips": 15281,
  "rowan": 14596,
  "musician": 5455,
  "cedric": 26170,
  "##iah": 12215,
  "improves": 24840,
  "338": 27908,
  "##mm": 7382,
  "aligned": 13115,
  "\u0642": 1292,
  "drafted": 7462,
  "freshly": 20229,
  "##ostal": 29381,
  "##ratic": 23671,
  "pioneered": 16193,
  "associate": 5482,
  "foster": 6469,
  "counts": 9294,
  "##\u570b": 30326,
  "carmen": 11425,
  "rec": 28667,
  "vial": 28475,
  "yet": 2664,
  "1624": 28531,
  "debris": 11385,
  "theatre": 3004,
  "patterns": 7060,
  "supervise": 28589,
  "pistols": 18248,
  "30": 2382,
  "hilda": 21589,
  "prague": 8634,
  "##zog": 28505,
  "##\u5b97": 30347,
  "\u30c6": 1713,
  "benefits": 6666,
  "bullshit": 14636,
  "online": 3784,
  "apologies": 25380,
  "between": 2090,
  "sahara": 19604,
  "[unused143]": 148,
  "meanings": 15383,
  "operators": 9224,
  "showdown": 24419,
  "neural": 15756,
  "pcs": 27019,
  "sounding": 9391,
  "[unused876]": 881,
  "charleston": 10907,
  "cinderella": 21686,
  "colleague": 11729,
  "\u03be": 1168,
  "scrambled": 13501,
  "noah": 7240,
  "middle": 2690,
  "pickup": 15373,
  "##ons": 5644,
  "melissa": 9606,
  "splinter": 27546,
  "thwarted": 28409,
  "mediterranean": 7095,
  "##tangle": 23395,
  "1744": 25846,
  "gives": 3957,
  "bitten": 19026,
  "sacramento": 11932,
  "jump": 5376,
  "justin": 6796,
  "nhs": 17237,
  "leak": 17271,
  "254": 22234,
  "externally": 27223,
  "fae": 17282,
  "participating": 8019,
  "subdued": 20442,
  "\u6625": 1867,
  "##men": 3549,
  "##sworth": 12255,
  "candles": 14006,
  "[unused512]": 517,
  "payments": 10504,
  "win": 2663,
  "diversion": 20150,
  "##kr": 21638,
  "heinz": 17655,
  "insider": 25297,
  "hesitant": 20221,
  "cocky": 24995,
  "retracted": 28214,
  "##chers": 21844,
  "communications": 4806,
  "oddly": 15056,
  "references": 7604,
  "##lak": 23451,
  "symmetrical": 23476,
  "friends": 2814,
  "foreigner": 29524,
  "ubiquitous": 28498,
  "thunder": 8505,
  "3rd": 3822,
  "admire": 19837,
  "##ndra": 17670,
  "christoph": 21428,
  "##ens": 6132,
  "1701": 26059,
  "chicago": 3190,
  "antoinette": 28429,
  "governments": 6867,
  "##\u06d2": 29846,
  "excavated": 15199,
  "[unused939]": 944,
  "\u1d63": 1508,
  "israel": 3956,
  "##tius": 22638,
  "##ably": 8231,
  "##\u0434": 29742,
  "viktor": 13489,
  "alice": 5650,
  "italian": 3059,
  "covent": 29456,
  "unique": 4310,
  "morally": 28980,
  "stretched": 7121,
  "sprawling": 24199,
  "norm": 13373,
  "cheng": 15898,
  "wilson": 4267,
  "##aki": 8978,
  "##z": 2480,
  "flags": 9245,
  "pathway": 12732,
  "death": 2331,
  "regarding": 4953,
  "##oor": 16506,
  "deserves": 17210,
  "##imate": 21499,
  "##urai": 24804,
  "dispute": 7593,
  "ticked": 26019,
  "##iso": 19565,
  "pinch": 18392,
  "##onal": 16026,
  "hiking": 13039,
  "taste": 5510,
  "exercised": 17747,
  "hodgson": 26107,
  "mister": 12525,
  "\u208a": 1557,
  "##haus": 13821,
  "shirt": 3797,
  "##tidae": 21861,
  "highway": 3307,
  "##ning": 5582,
  "voluntary": 10758,
  "unfolded": 23959,
  "werner": 14121,
  "hamlet": 8429,
  "vargas": 20556,
  "##elles": 22869,
  "superhuman": 27061,
  "guest": 4113,
  "##resh": 21898,
  "peter": 2848,
  "muir": 23110,
  "childhood": 5593,
  "[unused527]": 532,
  "##rio": 9488,
  "mabel": 19486,
  "demo": 9703,
  "rye": 20926,
  "rates": 6165,
  "cords": 24551,
  "shove": 14738,
  "manor": 6952,
  "##mac": 22911,
  "##\u0ba4": 29921,
  "##sation": 26652,
  "1901": 5775,
  "##coming": 18935,
  "rifle": 5883,
  "ambushed": 22168,
  "infections": 15245,
  "writings": 7896,
  "##enter": 29110,
  "##nish": 24014,
  "##chev": 16179,
  "ft": 3027,
  "boss": 5795,
  "assumption": 11213,
  "captives": 21496,
  "detecting": 25952,
  "##frame": 15643,
  "canteen": 26449,
  "executive": 3237,
  "abuse": 6905,
  "de": 2139,
  "recommend": 16755,
  "##dre": 16200,
  "521": 26963,
  "albrecht": 25542,
  "blah": 27984,
  "emission": 15760,
  "##ir": 4313,
  "groningen": 29070,
  "bertrand": 20586,
  "pot": 8962,
  "breakout": 25129,
  "1815": 10679,
  "##ol": 4747,
  "ci": 25022,
  "##spar": 27694,
  "##folk": 29284,
  "##dak": 23597,
  "##yde": 18124,
  "tall": 4206,
  "creaked": 28068,
  "sipping": 24747,
  "##cup": 15569,
  "galleries": 11726,
  "archaic": 19261,
  "scraped": 20378,
  "##\u0e19": 29949,
  "calgary": 10112,
  "bradshaw": 23762,
  "delaware": 8452,
  "parcel": 20463,
  "[unused642]": 647,
  "horned": 26808,
  "rents": 28206,
  "privy": 14452,
  "wheels": 7787,
  "matilda": 17981,
  "regal": 21279,
  "journalist": 4988,
  "timbers": 26238,
  "handy": 18801,
  "##se": 3366,
  "265": 20549,
  "estimates": 10035,
  "inca": 27523,
  "insane": 9577,
  "eased": 10987,
  "whoa": 23281,
  "angry": 4854,
  "homicide": 18268,
  "utilization": 27891,
  "careful": 6176,
  "our": 2256,
  "grading": 26886,
  "2008": 2263,
  "slogan": 14558,
  "indo": 11424,
  "nickelodeon": 20814,
  "enclave": 25867,
  "fourth": 2959,
  "clears": 28837,
  "sting": 12072,
  "simplified": 11038,
  "tallest": 13747,
  "curtain": 11002,
  "styling": 20724,
  "redskins": 17461,
  "obtain": 6855,
  "##keeping": 18321,
  "\u6226": 1856,
  "##rich": 13149,
  "holster": 29447,
  "\u2212": 1597,
  "##cea": 21456,
  "willie": 9893,
  "educating": 25088,
  "empowerment": 23011,
  "vitro": 25714,
  "frail": 25737,
  "sporadic": 24590,
  "##ital": 18400,
  "services": 2578,
  "odi": 21045,
  "1864": 6717,
  "visitor": 10367,
  "whether": 3251,
  "posters": 14921,
  "##dder": 20791,
  "specialty": 12233,
  "[unused401]": 406,
  "except": 3272,
  "##\u0642": 29834,
  "eireann": 29157,
  "1850s": 16488,
  "\u0437": 1187,
  "commit": 10797,
  "nepali": 23418,
  "##raya": 29539,
  "equivalence": 27841,
  "dennis": 6877,
  "soy": 25176,
  "elder": 6422,
  "envy": 21103,
  "nowhere": 7880,
  "continuum": 22961,
  "ornaments": 24005,
  "disappearing": 14489,
  "##\u203f": 30069,
  "on": 2006,
  "tessa": 13167,
  "grimm": 24287,
  "umbrella": 12977,
  "monsieur": 21380,
  "[unused472]": 477,
  "loose": 6065,
  "1979": 3245,
  "watershed": 12547,
  "##rky": 15952,
  "occasionally": 5681,
  "derek": 7256,
  "1839": 10011,
  "destroy": 6033,
  "require": 5478,
  "buys": 23311,
  "##pen": 11837,
  "dominate": 16083,
  "totals": 21948,
  "##dation": 20207,
  "jean": 3744,
  "gina": 17508,
  "##channel": 26058,
  "fisherman": 19949,
  "apologetic": 29352,
  "humane": 23369,
  "organise": 22933,
  "ford": 4811,
  "##\u6c5f": 30423,
  "bedrooms": 18390,
  "tightening": 18711,
  "botany": 17018,
  "##moto": 15319,
  "transylvania": 20816,
  "prison": 3827,
  "jedi": 27273,
  "v": 1058,
  "mosque": 8806,
  "absence": 6438,
  "doris": 15467,
  "[unused821]": 826,
  "##unda": 18426,
  "arcs": 29137,
  "##inen": 21820,
  "backwards": 11043,
  "resisting": 22363,
  "translit": 28468,
  "[unused466]": 471,
  "##ure": 5397,
  "extant": 12905,
  "gnome": 25781,
  "##\u0f51": 29964,
  "dissatisfied": 25956,
  "warship": 21905,
  "laurent": 14718,
  "[unused207]": 212,
  "\u092c": 1329,
  "hardy": 9532,
  "##ella": 8411,
  "revolutionaries": 24517,
  "emilio": 18644,
  "laugh": 4756,
  "contrasting": 22133,
  "\u02e4": 1154,
  "regards": 12362,
  "mongol": 17450,
  "##ids": 9821,
  "14": 2403,
  "drip": 27304,
  "sabine": 18578,
  "##hoff": 17896,
  "80": 3770,
  "nacional": 10718,
  "##\u5b66": 30343,
  "##orough": 26388,
  "tsunami": 19267,
  "sub": 4942,
  "reaper": 19559,
  "mater": 16289,
  "protesting": 21248,
  "woman": 2450,
  "knowles": 22815,
  "theaters": 12370,
  "slowing": 18068,
  "migrated": 13447,
  "certificate": 8196,
  "milton": 9660,
  "##gaon": 27073,
  "abandon": 10824,
  "wanda": 20848,
  "##\u99ac": 30506,
  "pride": 6620,
  "fein": 27132,
  "tracing": 16907,
  "scotia": 9676,
  "beauty": 5053,
  "prescribed": 16250,
  "halftime": 22589,
  "watering": 25813,
  "^": 1034,
  "quarterback": 9074,
  "fond": 13545,
  "span": 8487,
  "plotting": 20699,
  "halted": 12705,
  "every": 2296,
  "##\u8fb6": 30482,
  "tuesday": 9857,
  "[unused735]": 740,
  "goodman": 14514,
  "##tok": 18715,
  "instinct": 12753,
  "chesterfield": 22699,
  "brace": 17180,
  "70s": 17549,
  "wide": 2898,
  "anxious": 11480,
  "##\u00b4s": 21932,
  "##rel": 16570,
  "##ren": 7389,
  "cope": 11997,
  "glove": 15913,
  "##pis": 18136,
  "##\u6ca2": 30424,
  "pausing": 20490,
  "mca": 22432,
  "groaning": 24781,
  "##nal": 12032,
  "replay": 15712,
  "plotted": 27347,
  "brit": 28101,
  "shelters": 17177,
  "nfc": 22309,
  "arenas": 26434,
  "##\u9999": 30505,
  "domination": 17882,
  "##gni": 29076,
  "adjoining": 13562,
  "edit": 10086,
  "kits": 18628,
  "tips": 10247,
  "finally": 2633,
  "##bill": 24457,
  "storing": 23977,
  "1635": 27426,
  "secrets": 7800,
  "enhance": 11598,
  "##breaker": 21204,
  "630": 23609,
  "ground": 2598,
  "##\u045a": 29763,
  "resources": 4219,
  "ville": 20184,
  "ugly": 9200,
  "facilities": 4128,
  "##hett": 28499,
  "spots": 7516,
  "sir": 2909,
  "thor": 15321,
  "##\u0647": 14157,
  "demoted": 25692,
  "gracie": 19005,
  "chaotic": 19633,
  "mw": 12464,
  "onwards": 9921,
  "prelude": 19508,
  "squash": 18794,
  "jason": 4463,
  "canceled": 13261,
  "\u110b": 1463,
  "aldo": 28163,
  "candace": 22905,
  "##usia": 24118,
  "##press": 20110,
  "gallagher": 17297,
  "sunlight": 9325,
  "ioc": 25941,
  "bishop": 3387,
  "fitzroy": 21870,
  "shaw": 8233,
  "[unused815]": 820,
  "readings": 15324,
  "waltz": 17569,
  "##tail": 14162,
  "\u300c": 1641,
  "focuses": 7679,
  "##uj": 23049,
  "tendencies": 20074,
  "1787": 16057,
  "##met": 11368,
  "heaving": 23907,
  "crumbling": 24827,
  "luciano": 24512,
  "privilege": 14293,
  "etc": 4385,
  "##ora": 6525,
  "##amy": 24079,
  "dime": 27211,
  "##gley": 22971,
  "##heater": 27847,
  "##\u060c": 29814,
  "rosen": 21701,
  "[unused277]": 282,
  "english": 2394,
  "ligand": 27854,
  "##\u2044": 30070,
  "monetary": 12194,
  "ultimate": 7209,
  "bet": 6655,
  "retreat": 7822,
  "titanium": 23431,
  "##\u5fd7": 30377,
  "voted": 5444,
  "jews": 5181,
  "exploits": 20397,
  "landing": 4899,
  "##owe": 29385,
  "availability": 11343,
  "##lass": 27102,
  "differentiate": 21032,
  "oscar": 7436,
  "##\u0250": 29676,
  "disciplined": 28675,
  "1871": 7428,
  "pedersen": 27409,
  "waldo": 28806,
  "yu": 9805,
  "evident": 10358,
  "1848": 7993,
  "dana": 11271,
  "##nne": 10087,
  "aaron": 7158,
  "fires": 8769,
  "feeds": 14172,
  "just": 2074,
  "##sible": 19307,
  "colliery": 19462,
  "illumination": 21203,
  "adolescents": 25947,
  "blanc": 18698,
  "##loh": 24729,
  "aforementioned": 17289,
  "inspiration": 7780,
  "##tones": 11115,
  "brooklyn": 6613,
  "tend": 7166,
  "fry": 14744,
  "##ductive": 26638,
  "guy": 3124,
  "bancroft": 29351,
  "ego": 13059,
  "mail": 5653,
  "tremble": 20627,
  "\u0940": 1342,
  "##^": 29637,
  "earthquake": 8372,
  "honorary": 5756,
  "occurred": 4158,
  "\u611b": 1853,
  "##nzo": 25650,
  "discovery": 5456,
  "geese": 28519,
  "[unused600]": 605,
  "##rov": 12298,
  "##raction": 25533,
  "##esses": 26636,
  "4": 1018,
  "inquired": 24849,
  "stinging": 22748,
  "basics": 24078,
  "leah": 14188,
  "brien": 9848,
  "bastion": 26829,
  "una": 14477,
  "vfl": 13480,
  "bianca": 18051,
  "stacks": 20829,
  "##lab": 20470,
  "##holders": 17794,
  "[unused921]": 926,
  "hugs": 24459,
  "intrusion": 24554,
  "crews": 10604,
  "##ute": 10421,
  "municipalities": 7602,
  "switched": 7237,
  "masks": 15806,
  "reefs": 21484,
  "fee": 7408,
  "outfielder": 21033,
  "dancer": 8033,
  "[PAD]": 0,
  "discovers": 9418,
  "ensemble": 7241,
  "munster": 11348,
  "psycho": 18224,
  "##il": 4014,
  "worse": 4788,
  "momma": 23603,
  "referring": 7727,
  "townspeople": 27938,
  "payroll": 26854,
  "restart": 23818,
  "secretive": 28607,
  "snyder": 17840,
  "[unused149]": 154,
  "[unused568]": 573,
  "163": 17867,
  "areas": 2752,
  "ucla": 12389,
  "netflix": 20907,
  "##firm": 27972,
  "belmont": 17449,
  "##lbert": 23373,
  "impose": 17607,
  "heirs": 15891,
  "killings": 16431,
  "worthy": 11007,
  "wills": 17234,
  "paul": 2703,
  "hyde": 11804,
  "tilt": 17010,
  "aachen": 29093,
  "180": 8380,
  "##ndon": 19333,
  "medications": 20992,
  "grams": 20372,
  "[unused208]": 213,
  "pembroke": 21457,
  "malaya": 19979,
  "##abi": 28518,
  "inspect": 22459,
  "##ological": 10091,
  "donna": 10972,
  "martian": 20795,
  "sized": 7451,
  "warring": 28509,
  "blinded": 20641,
  "##iction": 28097,
  "loving": 8295,
  "fatally": 26292,
  "kala": 26209,
  "3": 1017,
  "##eza": 28640,
  "nascar": 11838,
  "mackenzie": 11407,
  "nova": 6846,
  "icelandic": 14024,
  "turkish": 5037,
  "##ring": 4892,
  "muriel": 27616,
  "sourced": 23184,
  "persuade": 13984,
  "lighter": 9442,
  "##\u05e8": 29811,
  "##gaard": 18839,
  "council": 2473,
  "connected": 4198,
  "##ility": 15148,
  "grapes": 16575,
  "salim": 27490,
  "yugoslavia": 8936,
  "agricultural": 4910,
  "clauses": 24059,
  "##raphic": 20721,
  "##los": 10483,
  "lavish": 22689,
  "relativity": 20805,
  "celia": 18020,
  "freestyle": 9817,
  "segregation": 18771,
  "##thal": 24090,
  "nguyen": 16577,
  "modify": 19933,
  "###": 29614,
  "##woman": 10169,
  "##proof": 18907,
  "conversion": 7584,
  "wreath": 29586,
  "scares": 29421,
  "alike": 11455,
  "burgess": 17754,
  "novelty": 21160,
  "[unused645]": 650,
  "beautiful": 3376,
  "##rga": 28921,
  "##bread": 27035,
  "muscles": 6650,
  "juliette": 24696,
  "servicemen": 26714,
  "counterpart": 13637,
  "slammed": 7549,
  "botanist": 17098,
  "1903": 5778,
  "##27": 22907,
  "afterlife": 25115,
  "breach": 12510,
  "##ane": 7231,
  "lulu": 21744,
  "emotionally": 14868,
  "bo": 8945,
  "northeastern": 8763,
  "##4": 2549,
  "##\u4ecb": 30285,
  "##hiff": 25798,
  "finances": 16156,
  "department": 2533,
  "##apple": 23804,
  "1919": 4529,
  "health": 2740,
  "fees": 9883,
  "##uding": 24539,
  "conditioned": 22442,
  "mates": 14711,
  "steal": 8954,
  "trickle": 26027,
  "##duction": 16256,
  "standing": 3061,
  "bassett": 28303,
  "sandals": 24617,
  "electromagnetic": 17225,
  "featuring": 3794,
  "creation": 4325,
  "streamed": 18498,
  "##ros": 7352,
  "titular": 12960,
  "kai": 11928,
  "[unused487]": 492,
  "lie": 4682,
  "##\u02bf": 29714,
  "job": 3105,
  "abd": 19935,
  "torre": 22047,
  "sanitary": 25480,
  "uttered": 20947,
  "mlb": 10901,
  "##imum": 28591,
  "promoted": 3755,
  "\u221a": 1600,
  "distinguish": 10782,
  "unmanned": 24075,
  "noodles": 27130,
  "francoise": 28979,
  "##hd": 14945,
  "##illo": 10486,
  "shane": 8683,
  "magdalene": 26890,
  "revue": 17480,
  "slide": 7358,
  "##edo": 26010,
  "sprinted": 25156,
  "patrons": 13497,
  "jarvis": 21072,
  "group": 2177,
  "mccall": 25790,
  "##kyu": 23076,
  "[unused287]": 292,
  "creed": 16438,
  "snakes": 12971,
  "\u2091": 1561,
  "alejandro": 16810,
  "walled": 17692,
  "##well": 4381,
  "pathogen": 26835,
  "raided": 18784,
  "georg": 12062,
  "won": 2180,
  "##nock": 18057,
  "gerais": 29220,
  "either": 2593,
  "blessings": 24618,
  "trial": 3979,
  "##cultural": 29415,
  "loves": 7459,
  "##jon": 14339,
  "undergoes": 29129,
  "##\u4ec1": 30284,
  "spacecraft": 12076,
  "narrows": 25142,
  "##rigues": 22934,
  "planetary": 17700,
  "libby": 19533,
  "##llen": 12179,
  "shiva": 12535,
  "tal": 21368,
  "hey": 4931,
  "mum": 12954,
  "hawke": 24882,
  "comics": 5888,
  "diocesan": 18680,
  "fitted": 7130,
  "##ans": 6962,
  "paris": 3000,
  "edmond": 21773,
  "rotate": 24357,
  "kwan": 27741,
  "beck": 10272,
  "##ising": 9355,
  "##ensis": 9911,
  "ascent": 16354,
  "midfield": 23071,
  "windy": 27370,
  "betting": 19244,
  "##cated": 12921,
  "recommended": 6749,
  "oricon": 22237,
  "west": 2225,
  "ganga": 28646,
  "[unused424]": 429,
  "##ophone": 25232,
  "09": 5641,
  "reunion": 10301,
  "excelled": 23081,
  "emancipation": 22656,
  "frames": 11048,
  "scoring": 4577,
  "published": 2405,
  "judging": 13325,
  "imagination": 9647,
  "##olic": 23518,
  "zionist": 21379,
  "enemies": 6716,
  "irrigation": 12442,
  "bishopric": 20664,
  "##ault": 23505,
  "[unused3]": 4,
  "##eft": 29218,
  "##umber": 29440,
  "##\u2081": 11871,
  "balls": 7395,
  "##city": 12972,
  "kneeling": 16916,
  "##berger": 14859,
  "[unused322]": 327,
  "month": 3204,
  "percentage": 7017,
  "tip": 5955,
  "figuring": 23218,
  "lizards": 23898,
  "##lative": 26255,
  "million": 2454,
  "##cans": 26642,
  "##chenko": 25872,
  "realized": 3651,
  "rallies": 22867,
  "wanted": 2359,
  "protections": 28548,
  "##bic": 13592,
  "hatred": 11150,
  "poke": 26202,
  "vanishing": 24866,
  "buttons": 11287,
  "##lip": 15000,
  "regulation": 7816,
  "excavation": 16456,
  "standardization": 28648,
  "ceramic": 14692,
  "sb": 24829,
  "npr": 21411,
  "gasps": 23813,
  "apartment": 4545,
  "pink": 5061,
  "hindwings": 15998,
  "##zo": 6844,
  "caucasian": 23368,
  "elders": 13376,
  "colloquially": 23992,
  "mercedes": 10793,
  "chung": 15972,
  "inducing": 29290,
  "domestically": 27143,
  "archer": 11024,
  "1957": 3890,
  "catalan": 13973,
  "caps": 9700,
  "cactus": 23265,
  "prop": 17678,
  "car": 2482,
  "sore": 14699,
  "fredrik": 25454,
  "eye": 3239,
  "unaware": 11499,
  "peru": 7304,
  "1849": 9037,
  "honors": 7836,
  "[unused200]": 205,
  "ing": 13749,
  "39th": 22702,
  "##gnan": 28207,
  "cheyenne": 17778,
  "expeditionary": 15372,
  "unlike": 4406,
  "[unused853]": 858,
  "constituencies": 13315,
  "[unused35]": 36,
  "tours": 7562,
  "ulrich": 19619,
  "presence": 3739,
  "sarawak": 21546,
  "guo": 22720,
  "woke": 8271,
  "tod": 28681,
  "00pm": 27995,
  "switches": 15924,
  "jerking": 22387,
  "energies": 19320,
  "\u2013": 1516,
  "##zoo": 23221,
  "##bian": 15599,
  "##lled": 11001,
  "mtv": 8692,
  "draft": 4433,
  "lemon": 14380,
  "##lai": 19771,
  "hackett": 28630,
  "cunning": 23626,
  "attendant": 16742,
  "marne": 25823,
  "ligament": 25641,
  "though": 2295,
  "##nan": 7229,
  "odessa": 19693,
  "1752": 24736,
  "guard": 3457,
  "megan": 12756,
  "solve": 9611,
  "perception": 10617,
  "residue": 21755,
  "sustaining": 22663,
  "zhao": 15634,
  "ran": 2743,
  "\u1106": 1459,
  "tribunal": 12152,
  "laser": 9138,
  "conservatoire": 29233,
  "##stems": 29189,
  "inclination": 21970,
  "ono": 21058,
  "vamps": 24064,
  "06": 5757,
  "[unused136]": 141,
  "interceptions": 18387,
  "benefactor": 27398,
  "er": 9413,
  "stabilized": 27697,
  "##rgan": 16998,
  "taxonomy": 25274,
  "equipment": 3941,
  "eisenhower": 16551,
  "##sit": 28032,
  "modules": 14184,
  "##nar": 11802,
  "##uration": 18924,
  "generation": 4245,
  "opus": 16895,
  "connell": 17199,
  "[unused10]": 11,
  "##ropriation": 26121,
  "transmitting": 23820,
  "sources": 4216,
  "password": 20786,
  "##dro": 22196,
  "##ify": 8757,
  "##bt": 19279,
  "andy": 5557,
  "anti": 3424,
  "superficial": 23105,
  "councils": 10784,
  "##fat": 27753,
  "notion": 9366,
  "[unused794]": 799,
  "upgrade": 12200,
  "##\u0996": 29890,
  "##feld": 8151,
  "[unused185]": 190,
  "##\u2099": 19110,
  "protein": 5250,
  "principals": 27928,
  "croatia": 8097,
  "exhibits": 10637,
  "claremont": 23716,
  "traded": 7007,
  "paralyzed": 22348,
  "##kers": 11451,
  "dipped": 13537,
  "khyber": 28416,
  "footing": 22849,
  "southland": 29121,
  "celebrities": 12330,
  "permits": 14245,
  "sweep": 11740,
  "\u5b50": 1816,
  "[unused377]": 382,
  "credits": 6495,
  "pursed": 21954,
  "appointing": 28050,
  "sumner": 23922,
  "stevie": 17458,
  "detrimental": 29172,
  "hungary": 5872,
  "forcibly": 20951,
  "toilets": 21674,
  "rancho": 18123,
  "crops": 8765,
  "affiliation": 12912,
  "sorting": 22210,
  "farmer": 7500,
  "bay": 3016,
  "www": 7479,
  "bony": 22678,
  "##ira": 7895,
  "envelope": 11255,
  "##unas": 23904,
  "##ancy": 11656,
  "slab": 17584,
  "dimly": 25361,
  "2013": 2286,
  "arrow": 8612,
  "##take": 15166,
  "##lvis": 28530,
  "cary": 20533,
  "##34": 22022,
  "##most": 11800,
  "eastbound": 24773,
  "chapter": 3127,
  "marguerite": 15334,
  "kapoor": 17129,
  "requirements": 5918,
  "absolute": 7619,
  "first": 2034,
  "nanny": 19174,
  "cautiously": 15151,
  "##uen": 24997,
  "laguna": 18169,
  "edward": 3487,
  "4a": 26424,
  "barley": 21569,
  "controlled": 4758,
  "reissue": 17173,
  "##\u793a": 30449,
  "gasoline": 13753,
  "thousand": 4595,
  "##venor": 26806,
  "thompson": 5953,
  "marin": 16400,
  "##\u026a": 29685,
  "##\u10d8": 29981,
  "significantly": 6022,
  "1741": 25280,
  "partisans": 20762,
  "building": 2311,
  "##riated": 25475,
  "\u30a7": 1697,
  "##ovic": 9142,
  "##lic": 10415,
  "shipbuilding": 16802,
  "olsen": 18997,
  "parish": 3583,
  "modernization": 20181,
  "operate": 5452,
  "##ingham": 16445,
  "wildcats": 19495,
  "##physical": 23302,
  "##xie": 16898,
  "##\u30ed": 30261,
  "wreck": 12006,
  "spielberg": 28740,
  "framing": 20241,
  "##85": 27531,
  "revealed": 3936,
  "nba": 6452,
  "\u0bae": 1389,
  "magnum": 19691,
  "zu": 16950,
  "ratings": 8599,
  "injuring": 22736,
  "gough": 29124,
  "accommodations": 26167,
  "positions": 4460,
  "gunpowder": 22220,
  "##coat": 16531,
  "coil": 17085,
  "palestine": 8976,
  "chu": 14684,
  "usage": 8192,
  "\uff08": 1987,
  "[unused51]": 52,
  "##\u05e6": 29809,
  "parking": 5581,
  "boiler": 15635,
  "doubted": 12979,
  "periodical": 21802,
  "broadly": 13644,
  "frustration": 9135,
  "##lars": 28695,
  "investing": 19920,
  "acids": 12737,
  "installed": 5361,
  "burning": 5255,
  "rental": 12635,
  "barack": 13857,
  "##tized": 23355,
  "sob": 17540,
  "thief": 12383,
  "employment": 6107,
  "camping": 13215,
  "##\u5f35": 30370,
  "##lda": 15150,
  "life": 2166,
  "finishing": 5131,
  "tortricidae": 27683,
  "phones": 11640,
  "inheritance": 12839,
  "manufacturing": 5814,
  "resident": 6319,
  "mandy": 18193,
  "serene": 25388,
  "bosch": 25936,
  "modes": 11583,
  "##aga": 16098,
  "virus": 7865,
  "##\u5c71": 30357,
  "sigismund": 26748,
  "\u0430": 1180,
  "1645": 26081,
  "##dia": 9032,
  "##lana": 16695,
  "shone": 14707,
  "reuben": 17294,
  "frederic": 15296,
  "hawkins": 13835,
  "##making": 12614,
  "hutchinson": 17165,
  "jaws": 16113,
  "introduced": 3107,
  "lick": 15385,
  "##sonic": 18585,
  "gregg": 18281,
  "##\u9580": 30494,
  "paranoid": 19810,
  "##guchi": 16918,
  "dissatisfaction": 28237,
  "##mania": 27010,
  "unlock": 19829,
  "apollo": 9348,
  "judges": 6794,
  "propelled": 15801,
  "##rp": 14536,
  "sands": 13457,
  "groundbreaking": 23222,
  "60": 3438,
  "goaltender": 21437,
  "ruled": 5451,
  "arrondissement": 20522,
  "readiness": 19822,
  "synod": 15374,
  "lebanese": 12592,
  "mayhem": 26865,
  "eureka": 21142,
  "who": 2040,
  "swallowed": 7351,
  "arguments": 9918,
  "ian": 4775,
  "michael": 2745,
  "hans": 7003,
  "##xin": 20303,
  "silva": 11183,
  "horizontally": 23190,
  "fortress": 7841,
  "##ze": 4371,
  "deities": 17091,
  "verde": 16184,
  "##iol": 20282,
  "natives": 12493,
  "threw": 4711,
  "##sion": 10992,
  "input": 7953,
  "sentiments": 23541,
  "##gua": 19696,
  "##creen": 24410,
  "patronage": 15694,
  "perceived": 8690,
  "##eli": 20806,
  "ipswich": 15435,
  "missouri": 5284,
  "##otto": 23052,
  "vocational": 13099,
  "uncredited": 8104,
  "exaggerated": 16903,
  "travelled": 7837,
  "sniff": 27907,
  "sampling": 16227,
  "sisters": 5208,
  "\u3057": 1657,
  "princely": 22771,
  "sentai": 28650,
  "[unused515]": 520,
  "\u897f": 1947,
  "cracks": 15288,
  "speedy": 26203,
  "[unused933]": 938,
  "##\u028e": 29701,
  "##rasia": 27839,
  "prefecture": 7498,
  "##rator": 16259,
  "##\u30ea": 30258,
  "regatta": 26848,
  "sofie": 26359,
  "benji": 27231,
  "tesla": 26060,
  "lds": 17627,
  "moreover": 9308,
  "tufts": 25252,
  "incumbent": 7703,
  "18": 2324,
  "sharply": 9249,
  "[unused673]": 678,
  "redemption": 18434,
  "agitated": 21568,
  "snoop": 29044,
  "cheekbones": 27181,
  "culture": 3226,
  "1809": 12861,
  "county": 2221,
  "leisure": 12257,
  "agents": 6074,
  "##kshi": 27488,
  "murmur": 20227,
  "memories": 5758,
  "##recht": 28109,
  "faculty": 4513,
  "##tituted": 29139,
  "[unused221]": 226,
  "laws": 4277,
  "crimea": 21516,
  "carriages": 17744,
  "##lten": 29005,
  "wet": 4954,
  "photographs": 7008,
  "du": 4241,
  "furry": 28662,
  "wrestling": 4843,
  "predominantly": 9197,
  "##enko": 17868,
  "[unused508]": 513,
  "serge": 21747,
  "emeritus": 12372,
  "speed": 3177,
  "##castle": 23662,
  "consumed": 10202,
  "yesterday": 7483,
  "charlie": 4918,
  "modeling": 11643,
  "[unused918]": 923,
  "bp": 17531,
  "##tate": 12259,
  "##bled": 23242,
  "uncles": 27328,
  "restroom": 28249,
  "parent": 6687,
  "hybrid": 8893,
  "##athing": 22314,
  "robert": 2728,
  "[unused467]": 472,
  "founders": 8759,
  "bel": 19337,
  "violations": 13302,
  "politely": 16954,
  "participate": 5589,
  "wondering": 6603,
  "saying": 3038,
  "claus": 19118,
  "childish": 24282,
  "##foil": 24323,
  "hurting": 11878,
  "\u30af": 1702,
  "constituent": 13794,
  "##cona": 24366,
  "playable": 16854,
  "tumble": 28388,
  "everybody": 7955,
  "feasibility": 24010,
  "celebrates": 21566,
  "##\u0281": 29694,
  "advised": 9449,
  "##hler": 13620,
  "computers": 7588,
  "equally": 8053,
  "naming": 10324,
  "ceramics": 17314,
  "mahmud": 25886,
  "##itor": 15660,
  "thrust": 7400,
  "##hul": 21886,
  "providing": 4346,
  "head": 2132,
  "trolls": 27980,
  "##nnis": 27803,
  "strike": 4894,
  "hideous": 22293,
  "viewers": 7193,
  "chased": 13303,
  "mu": 14163,
  "drilling": 15827,
  "1821": 11723,
  "##bf": 29292,
  "crabs": 26076,
  "##ua": 6692,
  "tensions": 13136,
  "corruption": 7897,
  "##lio": 12798,
  "caressed": 21473,
  "visible": 5710,
  "cannes": 14775,
  "piazza": 22463,
  "ravens": 17272,
  "alaska": 7397,
  "admiral": 5902,
  "enhanced": 9412,
  "jamaica": 9156,
  "ceded": 19705,
  "mandarin": 15831,
  "focal": 15918,
  "##ios": 10735,
  "[unused114]": 119,
  "##eran": 23169,
  "##ost": 14122,
  "[unused989]": 994,
  "##imated": 20592,
  "vida": 19830,
  "upland": 25770,
  "danes": 27476,
  "only": 2069,
  "phi": 13569,
  "\u2202": 1592,
  "sect": 17831,
  "nils": 27282,
  "##56": 26976,
  "dammit": 20878,
  "c": 1039,
  "adaptation": 6789,
  "basically": 10468,
  "\u2295": 1612,
  "costly": 17047,
  "haul": 14655,
  "ignores": 26663,
  "##\u00a5": 29648,
  "pamela": 17217,
  "##dou": 26797,
  "bits": 9017,
  "newcastle": 8142,
  "##ques": 10997,
  "turkmenistan": 25432,
  "district": 2212,
  "##jima": 19417,
  "spirits": 8633,
  "jenkins": 11098,
  "##scoe": 28147,
  "hammond": 11309,
  "bearings": 21714,
  "proceeding": 18207,
  "[unused383]": 388,
  "grenada": 29153,
  "reacted": 14831,
  "wooded": 17172,
  "inhibitors": 25456,
  "mediation": 26435,
  "ink": 10710,
  "rome": 4199,
  "pods": 26723,
  "marc": 7871,
  "whispering": 13550,
  "dry": 4318,
  "\u043e": 1193,
  "hectare": 20406,
  "##bber": 29325,
  "##ava": 12462,
  "##jian": 27685,
  "dracula": 18500,
  "larger": 3469,
  "considering": 6195,
  "divinity": 16968,
  "introductory": 23889,
  "##kus": 22332,
  "ninety": 13568,
  "derived": 5173,
  "##ok": 6559,
  "humour": 17211,
  "plate": 5127,
  "functions": 4972,
  "boogie": 21495,
  "usa": 3915,
  "##ula": 7068,
  "##/": 29626,
  "##\u2078": 30077,
  "visibility": 16476,
  "##ths": 26830,
  "perpetrators": 27675,
  "automatic": 6882,
  "abbott": 14455,
  "cores": 25562,
  "seeks": 11014,
  "shan": 17137,
  "murray": 6264,
  "[unused209]": 214,
  "bankruptcy": 10528,
  "receptionist": 23775,
  "##arns": 23549,
  "amusement": 9778,
  "preceded": 11677,
  "event": 2724,
  "dl": 21469,
  "undergone": 17215,
  "resolutions": 18853,
  "flanagan": 26558,
  "ny": 6396,
  "yeshiva": 22142,
  "intended": 3832,
  "arsenic": 29596,
  "cities": 3655,
  "decorations": 14529,
  "ming": 11861,
  "tucker": 9802,
  "radio": 2557,
  "##ico": 11261,
  "##mute": 26746,
  "showered": 23973,
  "favourable": 18731,
  "##ging": 4726,
  "boats": 6242,
  "thrill": 16959,
  "inclined": 13050,
  "[unused627]": 632,
  "##eng": 13159,
  "indeed": 5262,
  "forster": 21316,
  "\u4e3b": 1747,
  "edo": 18314,
  "##\u00df": 19310,
  "ole": 15589,
  "exhibited": 8176,
  "coinage": 25396,
  "legends": 9489,
  "##quist": 18331,
  "\u0279": 1125,
  "ware": 16283,
  "bartholomew": 19866,
  "malibu": 29047,
  "ind": 27427,
  "tokyo": 5522,
  "\u2154": 1582,
  "1837": 9713,
  "##typic": 23186,
  "refining": 28596,
  "##ezer": 25733,
  "relevance": 21923,
  "disappear": 10436,
  "##lifting": 26644,
  "##zu": 9759,
  "\u092f": 1332,
  "strife": 27865,
  "##pper": 18620,
  "[unused940]": 945,
  "234": 22018,
  "targeted": 9416,
  "uncover": 26944,
  "##dh": 16425,
  "2016": 2355,
  "holloway": 20977,
  "\u2092": 1562,
  "sciences": 4163,
  "##ene": 8625,
  "bratislava": 22992,
  "warmly": 22775,
  "mortals": 23844,
  "##thed": 23816,
  "swamp": 11963,
  "##culture": 14561,
  "tragic": 13800,
  "testament": 9025,
  "marlene": 26921,
  "treating": 12318,
  "fireworks": 16080,
  "contend": 27481,
  "400": 4278,
  "prematurely": 28179,
  "[unused133]": 138,
  "##)": 29620,
  "boys": 3337,
  "chalmers": 29069,
  "lena": 14229,
  "nap": 18996,
  "pornography": 19378,
  "reeve": 20726,
  "germans": 7074,
  "roads": 4925,
  "##ma": 2863,
  "coincidentally": 27542,
  "crashing": 12894,
  "##y": 2100,
  "midlands": 13256,
  "##ots": 12868,
  "louise": 8227,
  "liner": 11197,
  "rd": 16428,
  "differ": 11234,
  "major": 2350,
  "quincy": 16141,
  "##tops": 25181,
  "movies": 5691,
  "subdivisions": 22095,
  "markham": 26197,
  "2003": 2494,
  "supportive": 16408,
  "[unused522]": 527,
  "catalog": 12105,
  "forearms": 27323,
  "bids": 20723,
  "##cala": 25015,
  "learned": 4342,
  "chemical": 5072,
  "authority": 3691,
  "constituents": 24355,
  "##ulio": 24825,
  "reads": 9631,
  "dali": 29095,
  "##\u110a": 29998,
  "hue": 20639,
  "1959": 3851,
  "orchestra": 4032,
  "communicated": 24162,
  "aug": 15476,
  "[unused881]": 886,
  "roses": 10529,
  "reminder": 14764,
  "forwards": 19390,
  "nowadays": 13367,
  "beatty": 27305,
  "##tour": 21163,
  "claudio": 19569,
  "##\u0561": 29766,
  "##ood": 17139,
  "sensations": 21378,
  "##\u043e": 14150,
  "##woods": 25046,
  "nexus": 26041,
  "cooperative": 10791,
  "##ani": 7088,
  "##nsis": 11745,
  "programme": 4746,
  "unrest": 16591,
  "humble": 15716,
  "##trust": 24669,
  "manipulated": 20063,
  "stimulated": 25194,
  "syriac": 24109,
  "emperors": 19655,
  "standard": 3115,
  "uncomfortably": 22502,
  "rm": 28549,
  "##via": 9035,
  "[unused427]": 432,
  "pianist": 9066,
  "force": 2486,
  "praise": 8489,
  "workings": 24884,
  "\u0263": 1117,
  "ripped": 9157,
  "connectivity": 20831,
  "antioch": 19078,
  "clawed": 22544,
  "shin": 12277,
  "impressions": 19221,
  "##rao": 25667,
  "varies": 9783,
  "outraged": 23558,
  "ying": 20879,
  "brotherhood": 12865,
  "rabbit": 10442,
  "registrar": 24580,
  "served": 2366,
  "libraries": 8860,
  "brodie": 27379,
  "exceptionally": 17077,
  "galicia": 19017,
  "gentleman": 10170,
  "alexis": 13573,
  "accountants": 29114,
  "##ades": 18673,
  "consistency": 18700,
  "me": 2033,
  "karen": 8129,
  "sorted": 19616,
  "##jn": 22895,
  "squadron": 3704,
  "cambodian": 24417,
  "reactor": 13308,
  "ripple": 24644,
  "bad": 2919,
  "quite": 3243,
  "palm": 5340,
  "##icative": 25184,
  "\u0935": 1335,
  "clerical": 23106,
  "bosnian": 16163,
  "burr": 22715,
  "shaky": 15311,
  "flank": 12205,
  "carpets": 27997,
  "412": 25873,
  "partition": 13571,
  "sloping": 24724,
  "consist": 8676,
  "paste": 19351,
  "female": 2931,
  "floor": 2723,
  "saline": 28413,
  "technological": 10660,
  "obscure": 14485,
  "steven": 7112,
  "##gpur": 25758,
  "700": 6352,
  "##ennial": 22929,
  "corbett": 24119,
  "##hine": 14014,
  "stresses": 23253,
  "bang": 9748,
  "ravaged": 25537,
  "haired": 10681,
  "ramon": 12716,
  "it": 2009,
  "1726": 28342,
  "disguise": 14249,
  "##tr": 16344,
  "rower": 21984,
  "island": 2479,
  "parrot": 22530,
  "##19": 16147,
  "grotesque": 27707,
  "intelligence": 4454,
  "schleswig": 21173,
  "hopes": 8069,
  "##imating": 22835,
  "tu": 10722,
  "faction": 10233,
  "appalachian": 19682,
  "irony": 19728,
  "asserts": 19514,
  "##lich": 18337,
  "twin": 5519,
  "viral": 13434,
  "gus": 12670,
  "##zi": 5831,
  "ten": 2702,
  "lancashire": 9638,
  "[unused353]": 358,
  "\u00b0c": 6362,
  "precautions": 29361,
  "ives": 23945,
  "elise": 14251,
  "frog": 10729,
  "bei": 21388,
  "induction": 15946,
  "##fin": 16294,
  "flirt": 27978,
  "1986": 3069,
  "southampton": 11833,
  "harlem": 14864,
  "metabolism": 18089,
  "criminals": 12290,
  "bikes": 18105,
  "##\u00b9": 27904,
  "donnelly": 28317,
  "oyster": 21480,
  "\u99ac": 1980,
  "##duced": 28901,
  "##izes": 10057,
  "buckled": 26368,
  "fulham": 21703,
  "kathy": 14986,
  "ads": 14997,
  "becoming": 3352,
  "enriched": 25202,
  "teachers": 5089,
  "astor": 25159,
  "usable": 24013,
  "fourier": 26899,
  "equality": 9945,
  "rented": 12524,
  "cache": 17053,
  "aspiring": 22344,
  "trafficking": 11626,
  "##rosis": 29166,
  "##xing": 19612,
  "multiplayer": 17762,
  "##rka": 22379,
  "rb": 21144,
  "##mist": 23738,
  "##burgh": 15496,
  "\u3001": 1635,
  "[unused246]": 251,
  "messiah": 22112,
  "matteo": 24713,
  "tatar": 29241,
  "[unused316]": 321,
  "stairwell": 22109,
  "humanity": 8438,
  "freedoms": 22467,
  "beforehand": 25828,
  "1757": 22621,
  "chichester": 23406,
  "accounts": 6115,
  "1816": 12357,
  "mccarthy": 12584,
  "vu": 24728,
  "indochina": 27053,
  "geologist": 21334,
  "suzuki": 14278,
  "caring": 11922,
  "##\u092c": 29865,
  "demolished": 7002,
  "inorganic": 28256,
  "pants": 6471,
  "terraces": 25633,
  "mood": 6888,
  "assessment": 7667,
  "ultra": 11087,
  "manipulating": 26242,
  "rebirth": 22785,
  "hooded": 21592,
  "##icated": 17872,
  "##beau": 26401,
  "comfortable": 6625,
  "louder": 10989,
  "##lta": 24458,
  "recruits": 15024,
  "stairs": 5108,
  "camilla": 26902,
  "marina": 9985,
  "definite": 15298,
  "lifestyle": 9580,
  "elegant": 11552,
  "iphone": 18059,
  "embarrassment": 14325,
  "clustered": 25221,
  "concluded": 5531,
  "yokohama": 20507,
  "weekdays": 19759,
  "paid": 3825,
  "naples": 10553,
  "##kell": 18690,
  "videos": 6876,
  "drama": 3689,
  "endeavour": 26911,
  "chases": 29515,
  "cups": 10268,
  "internment": 29041,
  "38": 4229,
  "odyssey": 18735,
  "##ort": 11589,
  "receptors": 13833,
  "relations": 4262,
  "timothy": 10805,
  "conclusion": 7091,
  "indicate": 5769,
  "flees": 24776,
  "admitting": 17927,
  "##gos": 12333,
  "premises": 10345,
  "##holding": 23410,
  "plates": 7766,
  "murderer": 13422,
  "efficiently": 18228,
  "compensate": 19079,
  "smell": 5437,
  "seaman": 21626,
  "content": 4180,
  "trick": 7577,
  "\u1173": 1481,
  "incense": 28647,
  "perrin": 28106,
  "\u00b1": 1081,
  "hardcore": 13076,
  "##orus": 21694,
  "generated": 7013,
  "highlanders": 22672,
  "weren": 4694,
  "westchester": 25489,
  "masjid": 27779,
  "complimented": 27175,
  "##out": 5833,
  "sleeping": 5777,
  "answered": 4660,
  "carp": 29267,
  "monitor": 8080,
  "##ials": 26340,
  "##\u05db": 29798,
  "craving": 26369,
  "rampant": 25883,
  "gleaming": 18242,
  "##\u4e2d": 30272,
  "wayne": 6159,
  "unaffected": 24720,
  "foreman": 18031,
  "clover": 25133,
  "piano": 3682,
  "[unused481]": 486,
  "civilians": 9272,
  "\u5408": 1792,
  "eleanor": 10508,
  "futile": 24495,
  "sovereignty": 12601,
  "dignity": 13372,
  "##su": 6342,
  "vegetable": 15415,
  "[unused628]": 633,
  "bites": 15424,
  "stroked": 11699,
  "freshman": 10452,
  "nominal": 15087,
  "livelihood": 24585,
  "##\u10d4": 29978,
  "##oured": 16777,
  "##chan": 14856,
  "superb": 21688,
  "gregorian": 25847,
  "139": 16621,
  "356": 27509,
  "cr": 13675,
  "##dim": 22172,
  "jihad": 24815,
  "wolfe": 14212,
  "cv": 26226,
  "exchanges": 15800,
  "[unused393]": 398,
  "reproductive": 15124,
  "##bbon": 27684,
  "lambda": 23375,
  "##dus": 17619,
  "hurling": 10839,
  "\u20b9": 1576,
  "##ina": 3981,
  "dyer": 23494,
  "##nare": 26148,
  "amateurs": 24361,
  "shawn": 13218,
  "photos": 7760,
  "batsman": 13953,
  "grains": 17588,
  "settlements": 7617,
  "##ful": 3993,
  "conclude": 16519,
  "##an": 2319,
  "beijing": 7211,
  "talking": 3331,
  "thessaloniki": 23162,
  "channels": 6833,
  "drastic": 23956,
  "fundraising": 15524,
  "zhou": 14367,
  "1969": 3440,
  "115": 10630,
  "habitat": 6552,
  "##waite": 29601,
  "solutions": 7300,
  "philadelphia": 4407,
  "##aith": 22465,
  "pierced": 16276,
  "##ium": 5007,
  "sql": 29296,
  "##ipe": 15457,
  "[unused182]": 187,
  "mcbride": 18958,
  "##ractive": 26884,
  "[unused482]": 487,
  "scrape": 26988,
  "runes": 29161,
  "haley": 16624,
  "[unused24]": 25,
  "husky": 18758,
  "##\u308b": 30213,
  "##esian": 25253,
  "instead": 2612,
  "##burg": 4645,
  "concerned": 4986,
  "equity": 10067,
  "\u548c": 1796,
  "instantly": 6880,
  "sim": 21934,
  "##usly": 27191,
  "arrests": 17615,
  "bertie": 20743,
  "andover": 29463,
  "douglas": 5203,
  "cent": 9358,
  "pit": 6770,
  "disabilities": 13597,
  "wreckage": 21056,
  "tent": 9311,
  "##uz": 17040,
  "##iii": 28954,
  "flash": 5956,
  "linda": 8507,
  "slowed": 9784,
  "increased": 3445,
  "resistance": 5012,
  "glamorgan": 23861,
  "southwest": 4943,
  "##bu": 8569,
  "rumors": 11256,
  "revoked": 22837,
  "dominant": 7444,
  "gentle": 7132,
  "cinemas": 19039,
  "##tt": 4779,
  "##lita": 27606,
  "##up": 6279,
  "49": 4749,
  "farther": 8736,
  "\u2095": 1564,
  "dragged": 7944,
  "flea": 26735,
  "infringement": 20701,
  "abducted": 20361,
  "autobiography": 10828,
  "fails": 11896,
  "jo": 8183,
  "##sner": 20479,
  "watched": 3427,
  "##any": 19092,
  "hotter": 22302,
  "klaus": 16536,
  "cater": 23488,
  "fortifications": 14507,
  "##ifies": 14144,
  "effective": 4621,
  "responsible": 3625,
  "opinion": 5448,
  "auf": 21200,
  "aftermath": 10530,
  "inference": 28937,
  "caf": 24689,
  "passions": 25289,
  "chilean": 12091,
  "##sher": 19603,
  "##field": 3790,
  "museo": 19713,
  "kenton": 25446,
  "fries": 22201,
  "##sure": 28632,
  "##ffey": 24513,
  "filter": 11307,
  "##rize": 25709,
  "disposition": 22137,
  "functioning": 12285,
  "station": 2276,
  "remnant": 19614,
  "greaves": 27808,
  "##\u66f8": 30397,
  "37th": 23027,
  "benfica": 26542,
  "##\u0e23": 29953,
  "##bbly": 24200,
  "nations": 3741,
  "jia": 25871,
  "madly": 29179,
  "better": 2488,
  "pudding": 29593,
  "fellowship": 7881,
  "confidential": 18777,
  "scribe": 27789,
  "##\u0259": 29681,
  "##umen": 27417,
  "\u2228": 1603,
  "bedfordshire": 28430,
  "##rno": 19139,
  "pieter": 23759,
  "##\u98df": 30504,
  "##yen": 20684,
  "antigua": 26023,
  "\u02e1": 1151,
  "moderate": 8777,
  "plight": 24525,
  "##ad": 4215,
  "##8th": 28264,
  "rainbow": 10098,
  "referenced": 14964,
  "red": 2417,
  "smirked": 18775,
  "strand": 11226,
  "etudes": 25041,
  "##onda": 29067,
  "##rdi": 17080,
  "brute": 26128,
  "##mah": 25687,
  "\u0932": 1334,
  "##ssler": 23385,
  "aggregator": 24089,
  "1930": 4479,
  "vain": 15784,
  "philippine": 7802,
  "magazine": 2932,
  "blocking": 10851,
  "##\u21c4": 30117,
  "1990s": 4134,
  "belief": 6772,
  "accent": 9669,
  "obsession": 17418,
  "truncated": 25449,
  "creeping": 18266,
  "abandonment": 22290,
  "batting": 9640,
  "grassroots": 23299,
  "sonya": 27926,
  "likened": 28834,
  "mayfield": 27224,
  "seven": 2698,
  "footballer": 4362,
  "[unused517]": 522,
  "rica": 11509,
  "nevertheless": 6600,
  "confirms": 23283,
  "load": 7170,
  "melinda": 23721,
  "scriptures": 22481,
  "##\u0e21": 29951,
  "##relli": 22948,
  "marrow": 24960,
  "yielding": 21336,
  "stoke": 13299,
  "hollis": 27477,
  "[unused758]": 763,
  "syndicate": 16229,
  "\u06cc": 1309,
  "tailed": 14578,
  "##beam": 28302,
  "cross": 2892,
  "##cher": 7474,
  "1989": 2960,
  "presenter": 10044,
  "ot": 27178,
  "niagara": 15473,
  "handsome": 8502,
  "happened": 3047,
  "membranes": 24972,
  "maureen": 19167,
  "##yx": 17275,
  "\u590f": 1808,
  "constructed": 3833,
  "scored": 3195,
  "##\u3001": 30161,
  "ordering": 13063,
  "worrying": 15366,
  "bates": 11205,
  "present": 2556,
  "blockbuster": 27858,
  "vocalist": 8032,
  "novo": 24576,
  "##\u2606": 30148,
  "afro": 17694,
  "##grant": 18980,
  "vowed": 18152,
  "malik": 14360,
  "protesters": 13337,
  "fearless": 22518,
  "troupe": 16017,
  "stephan": 15963,
  "employ": 12666,
  "stiff": 10551,
  "contiguous": 25177,
  "commence": 22825,
  "cylindrical": 18797,
  "gunn": 22079,
  "likewise": 10655,
  "transforming": 17903,
  "feral": 18993,
  "##chuk": 26516,
  "pastoral": 13645,
  "unemployed": 18787,
  "attendants": 26727,
  "encoded": 12359,
  "weeping": 19750,
  "ordnance": 14445,
  "[unused688]": 693,
  "amelie": 25285,
  "##anu": 24076,
  "ur": 24471,
  "tha": 22794,
  "dozens": 9877,
  "##anne": 20147,
  "confinement": 21551,
  "periodically": 18043,
  "portuguese": 5077,
  "##\u539f": 30313,
  "humor": 8562,
  "##wai": 21547,
  "##\u06be": 29844,
  "sobbing": 20040,
  "spurs": 18205,
  "callahan": 25668,
  "cousins": 12334,
  "jerseys": 28772,
  "gallon": 25234,
  "brain": 4167,
  "airmen": 29437,
  "1855": 8492,
  "##mori": 24610,
  "brightly": 14224,
  "favorite": 5440,
  "\u30cb": 1716,
  "alex": 4074,
  "corresponds": 14788,
  "##frey": 22586,
  "security": 3036,
  "##42": 20958,
  "theodor": 21448,
  "sienna": 20210,
  "daring": 15236,
  "##ely": 26006,
  "winger": 16072,
  "sighing": 19381,
  "betsy": 22396,
  "flows": 6223,
  "clarify": 25037,
  "##ink": 19839,
  "lakeside": 28701,
  "farmhouse": 16870,
  "spectators": 12405,
  "\u05d8": 1249,
  "\u529b": 1778,
  "##breakers": 27623,
  "maximilian": 18838,
  "[unused894]": 899,
  "##loading": 18570,
  "alternatively": 14084,
  "pulsing": 23139,
  "corn": 9781,
  "heroic": 14779,
  "berber": 27514,
  "caliber": 15977,
  "l": 1048,
  "##bley": 29538,
  "grunt": 20696,
  "awakening": 16936,
  "package": 7427,
  "innocent": 7036,
  "rbis": 23583,
  "subjects": 5739,
  "its": 2049,
  "licking": 17033,
  "heightened": 21106,
  "awoke": 19179,
  "paranormal": 20725,
  "catalonia": 16711,
  "oliveira": 24263,
  "unreasonable": 29205,
  "genus": 3562,
  "##tell": 23567,
  "newspapers": 6399,
  "visionary": 28036,
  "angeles": 3349,
  "disbanded": 8532,
  "inequality": 16440,
  "astonishment": 23819,
  "feud": 13552,
  "army": 2390,
  "starring": 4626,
  "box": 3482,
  "##pit": 23270,
  "likelihood": 16593,
  "conference": 3034,
  "maids": 29229,
  "sheriff": 6458,
  "pulsed": 24107,
  "##oteric": 29112,
  "governed": 9950,
  "1790": 13393,
  "\u0f62": 1434,
  "tea": 5572,
  "scales": 9539,
  "pomerania": 18631,
  "nightmare": 10103,
  "##xx": 20348,
  "dawned": 27702,
  "valentine": 10113,
  "girl": 2611,
  "deteriorated": 20111,
  "cane": 11942,
  "arch": 7905,
  "arkansas": 6751,
  "##eki": 26576,
  ":": 1024,
  "\u5e73": 1839,
  "kendall": 14509,
  "[unused579]": 584,
  "##ffs": 21807,
  "structures": 5090,
  "staunch": 26355,
  "[unused489]": 494,
  "##us": 2271,
  "follows": 4076,
  "opens": 7480,
  "[unused641]": 646,
  "reactors": 22223,
  "suppose": 6814,
  "##\u0906": 29848,
  "harmony": 9396,
  "sloop": 24786,
  "parkinson": 20310,
  "tajikistan": 23538,
  "##lou": 23743,
  "##inton": 27028,
  "[unused557]": 562,
  "kenneth": 8856,
  "vertebrae": 25517,
  "uninhabited": 24749,
  "<": 1026,
  "churchill": 10888,
  "atlanta": 5865,
  "dominated": 6817,
  "archers": 23118,
  "##tucket": 29315,
  "##west": 19650,
  "strangely": 13939,
  "##wes": 18192,
  "accepting": 10564,
  "acknowledging": 21894,
  "genome": 13458,
  "immersion": 27013,
  "volleyball": 7454,
  "almond": 26011,
  "elevators": 19406,
  "claudia": 13479,
  "[unused536]": 541,
  "[unused852]": 857,
  "slicing": 26514,
  "silicon": 13773,
  "\u304d": 1652,
  "shirley": 11280,
  "##ndo": 15482,
  "chained": 22075,
  "##vu": 19722,
  "curry": 15478,
  "growl": 13349,
  "burlington": 15552,
  "[unused625]": 630,
  "retribution": 25928,
  "differences": 5966,
  "##fus": 25608,
  "##ars": 11650,
  "##llet": 22592,
  "donors": 17843,
  "brutality": 24083,
  "298": 27240,
  "##\u09b8": 29912,
  "carmichael": 23537,
  "shell": 5806,
  "rhythms": 17900,
  "172": 18253,
  "galaxies": 21706,
  "beam": 7504,
  "cobra": 16604,
  "pumpkin": 25730,
  "##pate": 17585,
  "subunit": 24312,
  "scrolling": 28903,
  "identity": 4767,
  "##on": 2239,
  "##\u2265": 30136,
  "272": 24231,
  "##suke": 16867,
  "##rin": 6657,
  "portraits": 9668,
  "qualifier": 10981,
  "driving": 4439,
  "shown": 3491,
  "twins": 8178,
  "interactive": 9123,
  "stable": 6540,
  "oneself": 25763,
  "gifts": 9604,
  "quickly": 2855,
  "invention": 11028,
  "[unused782]": 787,
  "beamed": 22587,
  "uphold": 27329,
  "novgorod": 24338,
  "gunfire": 16978,
  "##ified": 7810,
  "[unused396]": 401,
  "bombed": 18897,
  "fast": 3435,
  "##\u2229": 30131,
  "143": 16065,
  "yunnan": 21607,
  "minorities": 14302,
  "reilly": 13875,
  "monica": 9018,
  "mcgrath": 23220,
  "transferring": 14391,
  "feng": 19004,
  "royalty": 16664,
  "germain": 19192,
  "\u03bb": 1165,
  "seating": 10747,
  "guiding": 14669,
  "contingent": 15445,
  "surprisingly": 10889,
  "horsepower": 15149,
  "##ken": 7520,
  "##tium": 16398,
  "subsidiary": 7506,
  "\u30b3": 1704,
  "##nto": 13663,
  "##mill": 19912,
  "vamp": 20279,
  "##iner": 26455,
  "lcd": 27662,
  "cancer": 4456,
  "##rim": 20026,
  "naomi": 12806,
  "##\u4e8c": 30278,
  "kris": 19031,
  "##\u043e\u0432": 19259,
  "yawned": 27626,
  "acceptance": 9920,
  "\u0923": 1322,
  "##eia": 27958,
  "##\u0ca8": 29936,
  "enterprise": 6960,
  "downs": 12482,
  "tops": 13284,
  "\u0291": 1137,
  "card": 4003,
  "\u062a": 1273,
  "starter": 11753,
  "\u795e": 1925,
  "realm": 8391,
  "hospitals": 8323,
  "possessive": 22105,
  "millennia": 27620,
  "f1": 20069,
  "##b": 2497,
  "interpreting": 25455,
  "winston": 10180,
  "ship": 2911,
  "##rring": 18807,
  "hampered": 22532,
  "herb": 12810,
  "classmates": 19846,
  "daily": 3679,
  "babies": 10834,
  "##tension": 29048,
  "hedge": 17834,
  "shortages": 22623,
  "climates": 24734,
  "strikers": 26049,
  "bowls": 15220,
  "identifiable": 27800,
  "bradley": 8981,
  "##\u2218": 30126,
  "verandah": 26153,
  "wouldn": 2876,
  "is": 2003,
  "airing": 10499,
  "sergei": 14543,
  "verb": 12034,
  "directory": 14176,
  "##grin": 24860,
  "joined": 2587,
  "rows": 10281,
  "##cca": 16665,
  "##gna": 16989,
  "automated": 12978,
  "christi": 21359,
  "taxpayer": 26980,
  "clube": 24852,
  "soo": 17111,
  "confusion": 6724,
  "##rna": 12789,
  "recognizing": 14622,
  "last": 2197,
  "tyrant": 26508,
  "country": 2406,
  "ensured": 16316,
  "produce": 3965,
  "##section": 29015,
  "breathless": 16701,
  "americans": 4841,
  "viable": 14874,
  "dizzy": 14849,
  "astronauts": 25881,
  "##cen": 27524,
  "253": 23254,
  "watered": 27129,
  "##aldi": 24657,
  "kamen": 22099,
  "##sity": 17759,
  "6": 1020,
  "julie": 7628,
  "##nah": 15272,
  "conveyed": 21527,
  "239": 23688,
  "athletes": 7576,
  "rumbling": 26670,
  "thumbs": 16784,
  "##taro": 28160,
  "sparrow": 19479,
  "tri": 13012,
  "fresno": 20840,
  "[unused360]": 365,
  "sofa": 10682,
  "fusiliers": 27207,
  "sonic": 12728,
  "nominated": 4222,
  "discomfort": 17964,
  "invasive": 17503,
  "internacional": 27607,
  "##ised": 5084,
  "freight": 8441,
  "##\u9762": 30502,
  "deteriorating": 28440,
  "sheets": 8697,
  "lamps": 14186,
  "watt": 15231,
  "account": 4070,
  "costing": 22173,
  "blazed": 25590,
  "##ack": 8684,
  "inquiry": 9934,
  "[unused632]": 637,
  "gillian": 22358,
  "accommodated": 28959,
  "[unused727]": 732,
  "31": 2861,
  "transcription": 14193,
  "precedence": 23359,
  "thermal": 9829,
  "##\u3082": 30207,
  "np": 27937,
  "1872": 7572,
  "hague": 14575,
  "included": 2443,
  "azores": 28320,
  "##stock": 14758,
  "##ingdon": 29138,
  "dirt": 6900,
  "barron": 23594,
  "##yria": 20379,
  "[unused321]": 326,
  "##mme": 20058,
  "##belt": 21561,
  "disc": 5860,
  "##sr": 21338,
  "christians": 8135,
  "nicaragua": 15448,
  "##ron": 4948,
  "mall": 6670,
  "problematic": 18636,
  "stationed": 8895,
  "santos": 11053,
  "##\u2075": 30074,
  "unacceptable": 21873,
  "aircraft": 2948,
  "madison": 7063,
  "##gle": 9354,
  "stitch": 26035,
  "dimension": 9812,
  "\u4ee3": 1760,
  "plausible": 24286,
  "playhouse": 17408,
  "##rika": 23778,
  "##eb": 15878,
  "charlemagne": 27257,
  "sodium": 13365,
  "environment": 4044,
  "highlighting": 20655,
  "risking": 26875,
  "##bed": 8270,
  "##rana": 16737,
  "manifestation": 24491,
  "##\u10d9": 29982,
  "tripoli": 21841,
  "figure": 3275,
  "\u1d57": 1505,
  "emergencies": 26360,
  "milwaukee": 9184,
  "transverse": 18323,
  "\u6b4c": 1886,
  "gravel": 11127,
  "[unused81]": 82,
  "1955": 3982,
  "gently": 5251,
  "##dron": 19440,
  "clones": 24418,
  "##\u0454": 29759,
  "fuss": 28554,
  "freddie": 15528,
  "triggered": 13330,
  "approved": 4844,
  "##oia": 25463,
  "9th": 6280,
  "curled": 8188,
  "##\u6c0f": 30417,
  "struck": 4930,
  "affiliated": 6989,
  "[unused248]": 253,
  "triangles": 27189,
  "disused": 26958,
  "squads": 20191,
  "god": 2643,
  "startling": 19828,
  "nominate": 23388,
  "reared": 23295,
  "serials": 28172,
  "ethel": 19180,
  "nouveau": 25272,
  "conferences": 9281,
  "subset": 16745,
  "wichita": 18614,
  "assistance": 5375,
  "sugarcane": 28910,
  "cleanup": 27686,
  "threatening": 8701,
  "histoire": 20088,
  "780": 28601,
  "elastic": 21274,
  "impatience": 28011,
  "completely": 3294,
  "iberian": 21988,
  "##\u0e2a": 29956,
  "torpedoes": 18544,
  "cherokee": 13796,
  "upstream": 13909,
  "benz": 17770,
  "\u85e4": 1944,
  "relieved": 7653,
  "ortega": 25859,
  "##tling": 15073,
  "synthesizer": 13564,
  "purse": 8722,
  "rope": 8164,
  "banged": 22843,
  "abrupt": 18772,
  "1819": 12552,
  "gr": 24665,
  "mal": 15451,
  "##no": 3630,
  "stages": 5711,
  "commended": 22429,
  "bey": 20289,
  "policemen": 19809,
  "##icz": 18682,
  "laughs": 11680,
  "chunks": 24839,
  "advertising": 6475,
  "fearful": 19725,
  "herd": 14906,
  "ser": 14262,
  "##urrent": 29264,
  "##atal": 27815,
  "expansive": 25145,
  "rollins": 23502,
  "irrelevant": 22537,
  "##\u0bbe": 29931,
  "petrol": 17141,
  "04": 5840,
  "##zzy": 28753,
  "protectorate": 20394,
  "ecole": 12431,
  "kid": 4845,
  "alternatives": 15955,
  "tempered": 22148,
  "light": 2422,
  "austrian": 6161,
  "tightly": 7371,
  "vines": 16702,
  "##ond": 15422,
  "sign": 3696,
  "##lick": 25230,
  "##\u30a3": 30220,
  "genie": 22519,
  "antwerp": 14003,
  "mute": 20101,
  "flemish": 15427,
  "\uff0e": 1991,
  "gruff": 27038,
  "lara": 13679,
  "streaming": 11058,
  "bentley": 15988,
  "traveller": 21916,
  "sigh": 6682,
  "##gence": 17905,
  "rossi": 18451,
  "thigh": 10120,
  "##ece": 26005,
  "grade": 3694,
  "renowned": 8228,
  "presented": 3591,
  "[unused54]": 55,
  "militants": 17671,
  "familiarity": 24666,
  "heresy": 28354,
  "song": 2299,
  "recited": 24843,
  "\u05e9": 1266,
  "##nator": 27413,
  "pascal": 17878,
  "approve": 14300,
  "tenant": 16713,
  "symmetric": 19490,
  "mimi": 20705,
  "margin": 7785,
  "##rol": 13153,
  "##lis": 6856,
  "ja": 14855,
  "tara": 10225,
  "##\u0927": 29862,
  "\u11af": 1486,
  "weir": 16658,
  "carmine": 18791,
  "whimpered": 26184,
  "[unused112]": 117,
  "##\u11a8": 30020,
  "question": 3160,
  "thy": 15177,
  "oblivion": 24034,
  "harmed": 25596,
  "transport": 3665,
  "##hy": 10536,
  "rocked": 14215,
  "tyre": 21904,
  "\u8033": 1937,
  "steaming": 19986,
  "##\u0444": 29749,
  "democrats": 8037,
  "\u062c": 1275,
  "fridge": 16716,
  "officers": 3738,
  "michele": 15954,
  "originating": 14802,
  "conquest": 9187,
  "##\u1d30": 30028,
  "greensboro": 27905,
  "##athy": 17308,
  "##\u3063": 30189,
  "hussain": 20093,
  "turmoil": 17930,
  "lai": 21110,
  "goddard": 22547,
  "##bai": 26068,
  "[unused953]": 958,
  "\ufb01": 1984,
  "disability": 11980,
  "ferdinand": 9684,
  "exterior": 8829,
  "3d": 7605,
  "southend": 26104,
  "sessions": 6521,
  "sweetheart": 12074,
  "relates": 14623,
  "##48": 18139,
  "tremendous": 14388,
  "activist": 7423,
  "sox": 9175,
  "extraction": 14676,
  "mayer": 14687,
  "hardwood": 23165,
  "##ecure": 29150,
  "version": 2544,
  "promise": 4872,
  "route": 2799,
  "victoria": 3848,
  "terrorist": 9452,
  "[unused160]": 165,
  "coldly": 24745,
  "this": 2023,
  "dhaka": 16479,
  "contaminated": 19450,
  "cordoba": 17986,
  "beside": 3875,
  "chieftain": 26625,
  "1948": 3882,
  "congo": 9030,
  "basic": 3937,
  "profoundly": 28089,
  "##je": 6460,
  "##60": 16086,
  "recipient": 7799,
  "indications": 24936,
  "truce": 18415,
  "supermarket": 17006,
  "isolation": 12477,
  "gypsy": 16006,
  "seductive": 23182,
  "kia": 27005,
  "##\u0e27": 29955,
  "##way": 4576,
  "concludes": 14730,
  "##ndt": 26379,
  "wholesale": 17264,
  "spokesman": 14056,
  "##\u0f60": 29969,
  "##tam": 15464,
  "##ily": 6588,
  "flicked": 12777,
  "chronicle": 9519,
  "##gent": 11461,
  "expressed": 5228,
  "hilbert": 27434,
  "hauled": 13161,
  "activation": 13791,
  "pajamas": 27621,
  "implements": 22164,
  "enhancement": 22415,
  "charities": 15430,
  "mg": 11460,
  "fallen": 5357,
  "hampshire": 7035,
  "vantage": 27274,
  "yerevan": 23383,
  "##\u30d5": 30246,
  "lok": 13660,
  "standalone": 26609,
  "sworn": 10741,
  "purity": 18433,
  "1853": 8933,
  "hobby": 17792,
  "decided": 2787,
  "mri": 27011,
  "experimented": 20918,
  "##\u2092": 30091,
  "cobb": 17176,
  "2010s": 26817,
  "customized": 28749,
  "[unused202]": 207,
  "\u05db": 1252,
  "interstate": 7553,
  "fate": 6580,
  "fronts": 21430,
  "##phine": 20738,
  "giorgio": 17697,
  "##rca": 18992,
  "reject": 15454,
  "##bered": 22408,
  "impaired": 18234,
  "##\u68ee": 30408,
  "groans": 27778,
  "sara": 7354,
  "conical": 24750,
  "##cio": 9793,
  "##tructing": 26310,
  "stirring": 18385,
  "duval": 23929,
  "blaze": 15347,
  "##brate": 22008,
  "existent": 25953,
  "henrietta": 20775,
  "ion": 10163,
  "plymouth": 10221,
  "mirrors": 13536,
  "judiciary": 14814,
  "supplying": 17731,
  "genealogy": 26684,
  "vehicles": 4683,
  "chest": 3108,
  "[unused719]": 724,
  "cynthia": 15809,
  "accompanied": 5642,
  "colchester": 20115,
  "restaurants": 7884,
  "rockets": 12496,
  "islam": 7025,
  "sucked": 8631,
  "entertain": 20432,
  "##gonal": 20028,
  "mixture": 8150,
  "##ocytes": 28788,
  "visual": 5107,
  "\u2500": 1615,
  "##shin": 17426,
  "dimensional": 8789,
  "nike": 18368,
  "##lore": 20186,
  "venerable": 24541,
  "##hair": 26227,
  "durban": 25040,
  "documented": 8832,
  "thieves": 15862,
  "damage": 4053,
  "fishermen": 16532,
  "tudor": 15588,
  "kate": 5736,
  "exhibition": 4538,
  "consumers": 10390,
  "obedience": 22645,
  "##\u05e4": 29807,
  "##bau": 27773,
  "clifford": 13894,
  "##bach": 7693,
  "nr": 17212,
  "east": 2264,
  "historically": 7145,
  "##bro": 12618,
  "around": 2105,
  "formation": 4195,
  "72": 5824,
  "fabricated": 24212,
  "\u516b": 1771,
  "consult": 23363,
  "merry": 12831,
  "alexa": 24969,
  "nearer": 20388,
  "estates": 8707,
  "##itung": 28813,
  "ai": 9932,
  "collaboration": 5792,
  "internet": 4274,
  "throw": 5466,
  "70th": 26934,
  "1978": 3301,
  "##vina": 17948,
  "##\u0640": 29832,
  "catholics": 10774,
  "##inus": 13429,
  "contract": 3206,
  "mumbai": 8955,
  "bethlehem": 19360,
  "few": 2261,
  "shredded": 29022,
  "##mini": 25300,
  "djs": 23837,
  "##oto": 11439,
  "becky": 14407,
  "choirs": 24743,
  "dare": 8108,
  "overall": 3452,
  "paige": 17031,
  "bergen": 12674,
  "##ust": 19966,
  "harm": 7386,
  "40": 2871,
  "hum": 14910,
  "viruses": 18191,
  "mini": 7163,
  "\u0635": 1284,
  "grandfather": 5615,
  "screwed": 14180,
  "bouncing": 16361,
  "hindus": 18221,
  "##olf": 28027,
  "note": 3602,
  "briefing": 27918,
  "abbess": 28010,
  "whenever": 7188,
  "\u2218": 1599,
  "wired": 17502,
  "exhibit": 8327,
  "##grave": 12830,
  "militant": 16830,
  "doc": 9986,
  "loyola": 21580,
  "provoked": 19157,
  "niece": 12286,
  "homeland": 10759,
  "aramaic": 28934,
  "##ups": 22264,
  "##kee": 20553,
  "succeeding": 13034,
  "\u5dde": 1836,
  "pointless": 23100,
  "sickness": 15556,
  "appendix": 22524,
  "cell": 3526,
  "scorpion": 22015,
  "banks": 5085,
  "##ont": 12162,
  "permitting": 24523,
  "##ating": 5844,
  "podium": 14502,
  "yoon": 24863,
  "nelly": 29498,
  "dispatch": 18365,
  "jan": 5553,
  "##yya": 19903,
  "dozen": 6474,
  "##eger": 26320,
  "ordination": 18129,
  "salad": 16521,
  "empire": 3400,
  "lorraine": 13895,
  "sho": 26822,
  "marquess": 17391,
  "##oa": 10441,
  "visits": 7879,
  "##factory": 21450,
  "##ryn": 18143,
  "socialism": 14649,
  "metres": 3620,
  "[unused747]": 752,
  "##isi": 17417,
  "cereal": 20943,
  "barrow": 15355,
  "sewer": 22365,
  "cayman": 26164,
  "blogger": 28205,
  "##tead": 14565,
  "shrink": 22802,
  "injunction": 22928,
  "160": 8148,
  "##\u6797": 30407,
  "troubles": 13460,
  "tx": 19067,
  "\u0dc0": 1407,
  "##wee": 28394,
  "encouragement": 15846,
  "##8": 2620,
  "seas": 11915,
  "settings": 10906,
  "rattled": 19252,
  "##66": 28756,
  "fail": 8246,
  "rwanda": 17591,
  "bucharest": 14261,
  "implementations": 24977,
  "cooler": 14976,
  "269": 25717,
  "southeastern": 8252,
  "constituency": 5540,
  "[unused662]": 667,
  "concealed": 14091,
  "revision": 13921,
  "subsp": 24807,
  "pleasures": 26552,
  "violins": 25877,
  "animated": 6579,
  "##enne": 24336,
  "goddamn": 16477,
  "##quitable": 28298,
  "##eve": 18697,
  "familiar": 5220,
  "protocols": 16744,
  "collin": 22180,
  "##alla": 25425,
  "usually": 2788,
  "##san": 8791,
  "##ivist": 21997,
  "oblique": 20658,
  "accurately": 14125,
  "##ains": 28247,
  "firearm": 23646,
  "richmond": 6713,
  "scent": 6518,
  "technical": 4087,
  "propped": 16863,
  "##rand": 13033,
  "mikhail": 11318,
  "##lor": 10626,
  "mentor": 10779,
  "##hampton": 21946,
  "cushion": 22936,
  "brody": 19631,
  "hoarse": 21221,
  "putting": 5128,
  "dose": 13004,
  "1962": 3705,
  "##wise": 14244,
  "yer": 20416,
  "terra": 14403,
  "carole": 24348,
  "##ij": 28418,
  "generalized": 18960,
  "installment": 18932,
  "##cytes": 27321,
  "[unused75]": 76,
  "##wark": 24298,
  "regretted": 18991,
  "fritz": 12880,
  "##zam": 20722,
  "players": 2867,
  "educational": 4547,
  "suddenly": 3402,
  "punished": 14248,
  "##tow": 18790,
  "backside": 25065,
  "difficulty": 7669,
  "isabel": 11648,
  "##mmel": 29033,
  "marilyn": 14749,
  "##scopic": 24895,
  "reiterated": 28960,
  "waterford": 17769,
  "racism": 14398,
  "sanctions": 17147,
  "adopt": 11092,
  "rip": 10973,
  "##cked": 18141,
  "##ts": 3215,
  "soundtrack": 6050,
  "whale": 13156,
  "primera": 14837,
  "##akes": 20060,
  "\u05df": 1256,
  "padded": 20633,
  "cid": 28744,
  "##posed": 19155,
  "galen": 21062,
  "buzzing": 20386,
  "filed": 6406,
  "apex": 13450,
  "susan": 6294,
  "erase": 22505,
  "##enbach": 21409,
  "##henko": 19767,
  "##3": 2509,
  "\u00bf": 1094,
  "muzzle": 17750,
  "chants": 29534,
  "championed": 28683,
  "[unused161]": 166,
  "nobody": 6343,
  "bloody": 6703,
  "researches": 27338,
  "crises": 25332,
  "happy": 3407,
  "##icum": 22167,
  "cabinets": 20053,
  "pasta": 24857,
  "constitute": 12346,
  "walton": 14290,
  "##\u5948": 30340,
  "metals": 11970,
  "##clave": 23650,
  "hurricane": 7064,
  "slang": 21435,
  "\u2ea9": 1632,
  "forces": 2749,
  "sultanate": 21308,
  "\u03c0": 1170,
  "satin": 19412,
  "##\u1d35": 30029,
  "##\u6709": 30399,
  "ike": 25209,
  "hmm": 17012,
  "blooms": 29037,
  "lakers": 18264,
  "funny": 6057,
  "commemorating": 20646,
  "plumbing": 27902,
  "##vey": 12417,
  "strongest": 10473,
  "signatures": 16442,
  "drink": 4392,
  "arbor": 19679,
  "##\u0e22": 29952,
  "since": 2144,
  "furnished": 19851,
  "indira": 28232,
  "artifact": 20785,
  "mondays": 28401,
  "electro": 16175,
  "lifted": 4196,
  "1900": 5141,
  "turnout": 15512,
  "##uk": 6968,
  "##cturing": 19159,
  "disguised": 17330,
  "dora": 21008,
  "csi": 22174,
  "##yama": 11613,
  "dropped": 3333,
  "cheek": 5048,
  "mixing": 6809,
  "pitt": 15091,
  "[unused572]": 577,
  "##olis": 20872,
  "publishers": 8544,
  "ammonia": 25874,
  "knocking": 10591,
  "researching": 20059,
  "impatient": 17380,
  "posture": 16819,
  "##urgent": 27176,
  "smiled": 3281,
  "##ker": 5484,
  "stacked": 16934,
  "friar": 25287,
  "uncle": 4470,
  "trojan": 23445,
  "##\u2089": 30085,
  "dirty": 6530,
  "honours": 8762,
  "define": 9375,
  "kaplan": 22990,
  "banished": 21319,
  "pc": 7473,
  "newcomers": 24159,
  "##rogated": 26565,
  "##let": 7485,
  "taboo": 27505,
  "[unused879]": 884,
  "kenny": 8888,
  "panels": 9320,
  "phase": 4403,
  "highlighted": 11548,
  "ds": 16233,
  "archeological": 23005,
  "improved": 5301,
  "ile": 17869,
  "1000": 6694,
  "1909": 5556,
  "swindon": 22350,
  "gland": 25320,
  "88": 6070,
  "forth": 5743,
  "unconscious": 9787,
  "aka": 9875,
  "create": 3443,
  "##ison": 10929,
  "representing": 5052,
  "##front": 12792,
  "presses": 14616,
  "##\u4e5f": 30276,
  "cognition": 26497,
  "##ats": 11149,
  "##keepers": 24764,
  "tasha": 25448,
  "burnham": 25295,
  "[unused121]": 126,
  "##lie": 8751,
  "##\u0636": 29827,
  "##ng": 3070,
  "deposed": 18298,
  "[unused212]": 217,
  "transported": 9687,
  "adaptive": 19293,
  "ballistic": 19630,
  "mps": 12616,
  "167": 16785,
  "##chy": 11714,
  "chopin": 25479,
  "retrieve": 12850,
  "sanford": 21153,
  "wearing": 4147,
  "ho": 7570,
  "shifter": 18189,
  "embarrassing": 16436,
  "##gl": 23296,
  "##i": 2072,
  "trolley": 20820,
  "exists": 6526,
  "piece": 3538,
  "mandal": 24373,
  "##\u6211": 30381,
  "mommy": 20565,
  "pasture": 20787,
  "jody": 27562,
  "##\u1173": 30017,
  "reactive": 22643,
  "lanes": 10914,
  "promotional": 10319,
  "millie": 19561,
  "imply": 19515,
  "renal": 25125,
  "nebula": 25677,
  "inspire": 18708,
  "pietro": 15541,
  "vince": 12159,
  "##\u30ec": 30260,
  "somehow": 5064,
  "1899": 6166,
  "routinely": 19974,
  "duo": 6829,
  "##mail": 21397,
  "fantasia": 29203,
  "dundee": 14252,
  "##ister": 12911,
  "strapped": 18019,
  "clarified": 20485,
  "\u03b9": 1163,
  "free": 2489,
  "artificial": 7976,
  "orderly": 23589,
  "##rah": 10404,
  "smoothly": 15299,
  "\u116f": 1479,
  "rotterdam": 15632,
  "[unused554]": 559,
  "\u0252": 1111,
  "##kiewicz": 28563,
  "barrie": 24953,
  "belgian": 6995,
  "##rsten": 19020,
  "turrets": 21088,
  "clamped": 18597,
  "tata": 23236,
  "cheer": 15138,
  "##\u8a01": 30475,
  "[unused432]": 437,
  "fractures": 28929,
  "profile": 6337,
  "ceased": 7024,
  "multi": 4800,
  "##\u548c": 30322,
  "addressed": 8280,
  "smoked": 20482,
  "condom": 20910,
  "##vie": 13469,
  "eliot": 16292,
  "plaintiffs": 23953,
  "##\u00ae": 29656,
  "##n": 2078,
  "excess": 9987,
  "sainte": 16947,
  "hornets": 24855,
  "##claim": 25154,
  "importance": 5197,
  "##sian": 17043,
  "undergraduate": 8324,
  "petersen": 22615,
  "bankers": 25375,
  "##tage": 26702,
  "[unused620]": 625,
  "barracks": 10492,
  "stylistic": 24828,
  "believes": 7164,
  "renegade": 28463,
  "##\u1d65": 30045,
  "stefan": 8852,
  "eu": 7327,
  "kimberly": 23729,
  "collision": 12365,
  "supervised": 13588,
  "face": 2227,
  "barnett": 20073,
  "announcer": 14073,
  "xl": 28712,
  "[unused34]": 35,
  "mandates": 25979,
  "repeatedly": 8385,
  "##dicated": 26022,
  "##lp": 14277,
  "knight": 5000,
  "mourning": 16236,
  "##jee": 16963,
  "hall": 2534,
  "required": 3223,
  "lodges": 26767,
  "compatible": 11892,
  "pinched": 18521,
  "##olate": 19425,
  "marred": 24563,
  "[unused705]": 710,
  "imprisonment": 10219,
  "directs": 23303,
  "##\u06c1": 29845,
  "vacuum": 11641,
  "coordinated": 14206,
  "farmland": 16439,
  "##chin": 17231,
  "ozone": 26443,
  "punjab": 9213,
  "evacuate": 22811,
  "##nde": 13629,
  "miserable": 13736,
  "##\u2208": 30124,
  "##\u2297": 30140,
  "[unused887]": 892,
  "seated": 8901,
  "##tlement": 24007,
  "orlando": 10108,
  "complaint": 12087,
  "1666": 27407,
  "greenish": 23753,
  "wig": 24405,
  "marlins": 27055,
  "\u0dbb": 1405,
  "##\u5343": 30310,
  "##fia": 22749,
  "showcase": 13398,
  "acquaintances": 29409,
  "nate": 8253,
  "##sch": 11624,
  "selector": 27000,
  "##urities": 29366,
  "partnership": 5386,
  "\u0982": 1346,
  "typing": 22868,
  "composers": 9929,
  "emir": 23434,
  "choreography": 16967,
  "delegation": 10656,
  "bohemian": 18063,
  "415": 24690,
  "##sa": 3736,
  "image": 3746,
  "lanterns": 26078,
  "##arians": 28369,
  "macy": 20914,
  "[unused271]": 276,
  "rub": 14548,
  "ability": 3754,
  "vulgar": 29364,
  "topology": 19587,
  "rammed": 27653,
  "[unused975]": 980,
  "rocking": 14934,
  "[unused552]": 557,
  "brew": 24702,
  "##\u00a9": 29652,
  "amar": 23204,
  "batch": 14108,
  "##kie": 11602,
  "essays": 8927,
  "##uring": 12228,
  "victims": 5694,
  "91": 6205,
  "##ft": 6199,
  "1881": 7005,
  "quantity": 11712,
  "\u30e0": 1725,
  "applause": 20737,
  "surprises": 20096,
  "tyson": 19356,
  "irina": 25404,
  "##cion": 10446,
  "normandy": 13298,
  "part": 2112,
  "fitzgerald": 11864,
  "##\u05df": 29802,
  "accept": 5138,
  "beliefs": 9029,
  "shoulders": 4065,
  "##bek": 24597,
  "contenders": 27236,
  "[unused382]": 387,
  "disclosed": 21362,
  "turtle": 13170,
  "lithuania": 9838,
  "##fighter": 20027,
  "##\u0449": 29754,
  "mclean": 17602,
  "dissertation": 14481,
  "284": 26871,
  "broke": 3631,
  "concurrently": 15442,
  "##nche": 26091,
  "moons": 23377,
  "eruptions": 28448,
  "to": 2000,
  "[unused206]": 211,
  "##dez": 24601,
  "aid": 4681,
  "styled": 13650,
  "frankfurt": 9780,
  "loads": 15665,
  "trading": 6202,
  "\u5948": 1814,
  "nancy": 7912,
  "brunei": 18692,
  "consciousness": 8298,
  "gandhi": 12338,
  "vibe": 21209,
  "addison": 18403,
  "adjacent": 5516,
  "1810": 11786,
  "hellenistic": 27464,
  "motorsport": 21044,
  "##aan": 14634,
  "hinted": 21795,
  "##wen": 12449,
  "fired": 5045,
  "whaling": 23687,
  "[unused958]": 963,
  "##11": 14526,
  "rules": 3513,
  "dobson": 27679,
  "examinations": 14912,
  "varieties": 9903,
  "holdings": 9583,
  "souls": 9293,
  "intellect": 24823,
  "bullock": 25200,
  "3a": 23842,
  "copenhagen": 9664,
  "mortality": 13356,
  "handbook": 14812,
  "soviets": 15269,
  "clement": 12223,
  "\u03bc": 1166,
  "influenced": 5105,
  "stalked": 15858,
  "appears": 3544,
  "##venting": 26703,
  "pigs": 14695,
  "1944": 3646,
  "[unused82]": 83,
  "james": 2508,
  "yard": 4220,
  "eleven": 5408,
  "tc": 22975,
  "##\u0baa": 29924,
  "##mber": 21784,
  "##croft": 14716,
  "bowman": 19298,
  "\u209c": 1571,
  "linear": 7399,
  "baxter": 14664,
  "portrayal": 13954,
  "##quette": 29416,
  "butcher": 14998,
  "kiara": 28870,
  "night": 2305,
  "guildford": 26353,
  "methodology": 16134,
  "fur": 6519,
  "##zhou": 9791,
  "##kai": 11151,
  "lacey": 16355,
  "[unused59]": 60,
  "eliza": 13234,
  "petit": 17268,
  "huffed": 25014,
  "trooper": 28224,
  "justices": 19867,
  "rai": 15547,
  "##ctor": 16761,
  "leicester": 11258,
  "##anial": 27532,
  "containment": 29174,
  "bio": 16012,
  "ours": 14635,
  "shortlisted": 21353,
  "parted": 10277,
  "##ges": 8449,
  "##tia": 10711,
  "dwarfs": 28984,
  "scholarship": 6566,
  "checkpoint": 26520,
  "many": 2116,
  "[unused4]": 5,
  "toured": 7255,
  "limited": 3132,
  "need": 2342,
  "abdullah": 14093,
[...]
