{
  "lam": 16983,
  "carlos": 5828,
  "angeles": 3349,
  "tammy": 19971,
  "argyll": 27365,
  "wolves": 8588,
  "yorkshire": 7018,
  "litter": 19070,
  "##hly": 27732,
  "ron": 6902,
  "ley": 25866,
  "132": 14078,
  "##tyle": 27983,
  "latin": 3763,
  "##\u0621": 29815,
  "anson": 25435,
  "csa": 27804,
  "postseason": 17525,
  "materials": 4475,
  "radioactive": 17669,
  "nightmares": 15446,
  "versa": 18601,
  "actively": 8851,
  "quivering": 26012,
  "##ware": 8059,
  "swift": 9170,
  "1987": 3055,
  "wits": 25433,
  "vendors": 17088,
  "chiefly": 15897,
  "lists": 7201,
  "nolan": 13401,
  "quartz": 20971,
  "globe": 7595,
  "spitting": 24307,
  "named": 2315,
  "asahi": 29465,
  "windmill": 25367,
  "fireworks": 16080,
  "actresses": 19910,
  "##uber": 21436,
  "tamara": 21772,
  "shocks": 28215,
  "centre": 2803,
  "rockies": 22366,
  "demonstrating": 14313,
  "##oting": 20656,
  "2019": 10476,
  "putting": 5128,
  "writes": 7009,
  "street": 2395,
  "##firm": 27972,
  "000": 2199,
  "relied": 13538,
  "sheffield": 8533,
  "proposal": 6378,
  "establishing": 7411,
  "attractions": 13051,
  "nhs": 17237,
  "solitude": 22560,
  "opposition": 4559,
  "compute": 24134,
  "##icio": 27113,
  "1916": 4947,
  "angered": 18748,
  "playboy": 18286,
  "sub": 4942,
  "troll": 18792,
  "africans": 18076,
  "plug": 13354,
  "##sb": 19022,
  "##zyn": 23749,
  "1682": 29478,
  "cheers": 21250,
  "suffers": 17567,
  "##bridge": 6374,
  "[unused591]": 596,
  "cocoa": 22940,
  "correspond": 17254,
  "1957": 3890,
  "competitor": 12692,
  "disk": 9785,
  "higher": 3020,
  "##\u5fd7": 30377,
  "1730": 23272,
  "inspectors": 28421,
  "backlash": 25748,
  "armament": 14410,
  "hosting": 9936,
  "fulbright": 26695,
  "tori": 23413,
  "crowded": 10789,
  "perspective": 7339,
  "##pes": 10374,
  "pine": 7222,
  "already": 2525,
  "liam": 8230,
  "sql": 29296,
  "##\u7fa9": 30462,
  "forbes": 10822,
  "tries": 5363,
  "750": 9683,
  "prefect": 19402,
  "swearing": 25082,
  "##ky": 4801,
  "includes": 2950,
  "##tan": 5794,
  "common": 2691,
  "property": 3200,
  "durban": 25040,
  "##tized": 23355,
  "subsequently": 3525,
  "pasha": 14292,
  "kurt": 9679,
  "excel": 24970,
  "identifying": 12151,
  "nationals": 10342,
  "blast": 8479,
  "[unused631]": 636,
  "##cuit": 28168,
  "##ead": 13775,
  "uruguay": 11724,
  "chet": 25157,
  "zack": 13658,
  "toys": 10899,
  "1688": 24082,
  "gravel": 11127,
  "##bery": 22509,
  "tortricidae": 27683,
  "boardwalk": 29496,
  "suffered": 4265,
  "uphold": 27329,
  "dick": 5980,
  "##yt": 22123,
  "1884": 6988,
  "protectorate": 20394,
  "negotiation": 19905,
  "##ion": 3258,
  "turquoise": 28653,
  "considerations": 16852,
  "##iss": 14643,
  "##worm": 22769,
  "punish": 16385,
  "atrium": 26204,
  "##etti": 18319,
  "auguste": 20758,
  "procession": 14385,
  "murderous": 25303,
  "##iography": 26535,
  "note": 3602,
  "##nall": 22270,
  "[unused983]": 988,
  "ultimate": 7209,
  "##dermott": 29370,
  "pastures": 24813,
  "riverside": 12497,
  "lunatic": 26594,
  "casts": 23942,
  "top": 2327,
  "arabian": 13771,
  "stadiums": 28244,
  "trauma": 12603,
  "drunk": 7144,
  "carpet": 10135,
  "##rdon": 28176,
  "lowered": 6668,
  "thompson": 5953,
  "sa": 7842,
  "alsace": 24922,
  "##iro": 9711,
  "telescope": 12772,
  "[unused354]": 359,
  "exclude": 23329,
  "stipulated": 25729,
  "gravity": 8992,
  "##atter": 20097,
  "vocabulary": 16188,
  "warmed": 17336,
  "ui": 21318,
  "##ect": 22471,
  "jockey": 13989,
  "sheikh": 12840,
  "##kken": 24192,
  "cheer": 15138,
  "child": 2775,
  "left": 2187,
  "inferior": 14092,
  "candles": 14006,
  "179": 20311,
  "##eria": 11610,
  "ambrose": 15675,
  "##ih": 19190,
  "wonder": 4687,
  "merge": 13590,
  "employs": 13495,
  "tesla": 26060,
  "pol": 14955,
  "##idia": 29342,
  "blankly": 26344,
  "##cin": 15459,
  "watered": 27129,
  "sadness": 12039,
  "birmingham": 6484,
  "christchurch": 15880,
  "beta": 8247,
  "burma": 11050,
  "sister": 2905,
  "photographer": 8088,
  "between": 2090,
  "[unused3]": 4,
  "climb": 7105,
  "arab": 5424,
  "historic": 3181,
  "picking": 8130,
  "trafford": 26894,
  "fears": 10069,
  "##tner": 18885,
  "date": 3058,
  "overseas": 6931,
  "##ides": 8621,
  "unknown": 4242,
  "prairie": 10996,
  "illustrates": 24899,
  "isolation": 12477,
  "##eded": 19082,
  "palaces": 22763,
  "criteria": 9181,
  "\u0633": 1282,
  "wounding": 27285,
  "ra": 10958,
  "##400": 29537,
  "impromptu": 29213,
  "cheerfully": 27403,
  "goaltender": 21437,
  "##meyer": 24344,
  "mustang": 18851,
  "stunned": 9860,
  "##ife": 29323,
  "afternoons": 24738,
  "##unced": 22392,
  "moines": 23286,
  "injustice": 21321,
  "killings": 16431,
  "##uing": 25165,
  "fatigue": 16342,
  "notebook": 14960,
  "unable": 4039,
  "##nett": 15361,
  "parting": 20254,
  "colleen": 28385,
  "##with": 24415,
  "milford": 22622,
  "caledonian": 27449,
  "cobb": 17176,
  "lesson": 10800,
  "##iy": 28008,
  "gurney": 25061,
  "##ett": 6582,
  "gmina": 7061,
  "internship": 22676,
  "5th": 4833,
  "##minated": 26972,
  "##ured": 12165,
  "lectures": 8921,
  "violent": 6355,
  "derbyshire": 15207,
  "93": 6109,
  "[unused517]": 522,
  "perceived": 8690,
  "various": 2536,
  "##20": 11387,
  "policy": 3343,
  "##ically": 15004,
  "##board": 6277,
  "currency": 9598,
  "##haw": 14238,
  "role": 2535,
  "queens": 8603,
  "compact": 9233,
  "minsk": 20790,
  "add": 5587,
  "neglected": 15486,
  "##ick": 6799,
  "strike": 4894,
  "absorbing": 20998,
  "##\u0438\u044f": 23483,
  "islamabad": 26905,
  "painters": 12499,
  "\u2153": 1581,
  "scratched": 15047,
  "binoculars": 29549,
  "1744": 25846,
  "##rso": 25301,
  "mab": 26661,
  "mates": 14711,
  "\u05d0": 1241,
  "hazards": 22010,
  "dancer": 8033,
  "including": 2164,
  "royalties": 25335,
  "brewster": 23009,
  "1725": 25651,
  "##ishing": 21837,
  "seneca": 21224,
  "sweetheart": 12074,
  "sadly": 13718,
  "speeding": 21485,
  "scenarios": 16820,
  "parishes": 11600,
  "acclaim": 10761,
  "square": 2675,
  "hornets": 24855,
  "enjoyment": 20195,
  "wrapping": 12252,
  "\u10e0": 1451,
  "sandstone": 11694,
  "woodrow": 23954,
  "##\u2088": 30084,
  "##gall": 22263,
  "recruit": 13024,
  "##\u91d1": 30490,
  "188": 19121,
  "neill": 11511,
  "northeastern": 8763,
  "[unused496]": 501,
  "coding": 16861,
  "explains": 7607,
  "mounts": 19363,
  "degradation": 16627,
  "overgrown": 26433,
  "##ioned": 19798,
  "chinese": 2822,
  "limits": 6537,
  "civilization": 10585,
  "ciudad": 20759,
  "##13": 17134,
  "nancy": 7912,
  "emphasize": 17902,
  "##dent": 16454,
  "prospect": 9824,
  "weeds": 20777,
  "westphalia": 22952,
  "myself": 2870,
  "jameson": 22324,
  "##writer": 15994,
  "dai": 18765,
  "tenure": 7470,
  "laundry": 14533,
  "##missive": 27876,
  "administrative": 3831,
  "edited": 5493,
  "surpassing": 27097,
  "1886": 6929,
  "redding": 26687,
  "scratching": 20291,
  "responded": 5838,
  "substitutes": 29200,
  "##\u8cb4": 30479,
  "wings": 4777,
  "\u9752": 1975,
  "privileges": 14310,
  "##ple": 10814,
  "##200": 28332,
  "bulldogs": 15120,
  "bunker": 15742,
  "##\u884c": 30471,
  "[unused109]": 114,
  "straps": 19702,
  "ledge": 18283,
  "eaten": 8828,
  "liu": 8607,
  "62": 5786,
  "streamed": 18498,
  "[unused107]": 112,
  "comprised": 11539,
  "ci": 25022,
  "##mere": 13759,
  "womb": 26578,
  "saratoga": 23136,
  "coyotes": 26880,
  "instructions": 8128,
  "acquisition": 7654,
  "johor": 25268,
  "heartbreak": 27724,
  "irvine": 16272,
  "sleek": 21185,
  "divided": 4055,
  "##\u03c4": 29734,
  "storytelling": 20957,
  "practitioner": 18742,
  "sour": 14768,
  "dq": 25410,
  "133": 14506,
  "frederic": 15296,
  "mingled": 25959,
  "geelong": 18664,
  "\uff1f": 1994,
  "drummond": 19266,
  "##\u1107": 29996,
  "drinking": 5948,
  "guinea": 7102,
  "urgency": 19353,
  "biological": 6897,
  "##86": 20842,
  "magnitude": 10194,
  "##eet": 15558,
  "##hita": 23935,
  "caliphate": 28034,
  "pajamas": 27621,
  "[unused463]": 468,
  "##ologists": 16886,
  "erected": 7019,
  "##ingdon": 29138,
  "[unused477]": 482,
  "187": 19446,
  "caucasian": 23368,
  "montgomery": 8482,
  "##vic": 7903,
  "prehistoric": 14491,
  "##redo": 23417,
  "altar": 9216,
  "bulletin": 13146,
  "artery": 16749,
  "hedges": 25840,
  "pau": 29025,
  "##ivity": 7730,
  "javelin": 23426,
  "##mering": 27851,
  "fielded": 20988,
  "46": 4805,
  "jill": 10454,
  "\u0ba9": 1387,
  "heinz": 17655,
  "remembers": 17749,
  "##stones": 29423,
  "intriguing": 23824,
  "insider": 25297,
  "airborne": 10519,
  "crab": 18081,
  "roc": 21326,
  "adjustments": 24081,
  "clearance": 14860,
  "attested": 18470,
  "suriname": 25050,
  "tornadoes": 22668,
  "##rek": 16816,
  "espn": 10978,
  "regularly": 5570,
  "surfer": 27747,
  "el": 3449,
  "##ych": 17994,
  "christians": 8135,
  "analyst": 12941,
  "spheres": 19885,
  "notably": 5546,
  "pressed": 4508,
  "commerce": 6236,
  "##connected": 24230,
  "##ul": 5313,
  "##oma": 9626,
  "pasadena": 18880,
  "##hammer": 19742,
  "who": 2040,
  "##bber": 29325,
  "exiting": 22371,
  "reapers": 27733,
  "hawthorne": 23440,
  "wreck": 12006,
  "schoolhouse": 26301,
  "chart": 3673,
  "worcestershire": 20218,
  "##vocation": 19152,
  "galveston": 26630,
  "bathrooms": 28942,
  "evie": 26400,
  "imperfect": 29238,
  "anthropologist": 21571,
  "feedback": 12247,
  "rbis": 23583,
  "##\u00bb": 29663,
  "[unused828]": 833,
  "deity": 12764,
  "dip": 16510,
  "receptor": 10769,
  "scratch": 11969,
  "phenomena": 13352,
  "##ndi": 16089,
  "gillespie": 21067,
  "choi": 18151,
  "supervisors": 22565,
  "turkic": 22926,
  "keyboards": 6269,
  "lattice": 17779,
  "marty": 12578,
  "mocked": 24195,
  "[unused217]": 222,
  "\u30e1": 1726,
  "##iot": 25185,
  "patriots": 11579,
  "field": 2492,
  "da": 4830,
  "louder": 10989,
  "disks": 23999,
  "seized": 8243,
  "thrive": 25220,
  "[unused387]": 392,
  "when": 2043,
  "##force": 14821,
  "leaks": 29324,
  "russo": 17023,
  "pioneered": 16193,
  "stiffened": 16090,
  "1914": 4554,
  "cho": 16480,
  "functional": 8360,
  "wrestled": 20615,
  "likened": 28834,
  "scowl": 19981,
  "inspections": 29589,
  "moshe": 27123,
  "345": 23785,
  "chooses": 15867,
  "luxury": 9542,
  "advocated": 11886,
  "nguyen": 16577,
  "together": 2362,
  "breath": 3052,
  "caribbean": 7139,
  "serving": 3529,
  "saskatchewan": 10068,
  "hellenic": 23122,
  "1880": 6756,
  "##nage": 27031,
  "grinding": 16153,
  "##oys": 27153,
  "##vation": 21596,
  "[unused104]": 109,
  "asturias": 26798,
  "bates": 11205,
  "##ryn": 18143,
  "powers": 4204,
  "philosophical": 9569,
  "gps": 14658,
  "carbon": 6351,
  "katherine": 9477,
  "patio": 19404,
  "atari": 18978,
  "khz": 17737,
  "rodney": 13898,
  "##kling": 20260,
  "forbidden": 10386,
  "marcel": 13389,
  "downs": 12482,
  "roy": 6060,
  "##fish": 7529,
  "##\u0938": 29874,
  "finger": 4344,
  "kant": 26044,
  "fuse": 19976,
  "legends": 9489,
  "[unused466]": 471,
  "i": 1045,
  "\u4fe1": 1767,
  "authorised": 19256,
  "hayward": 21506,
  "remarked": 10783,
  "swelling": 18348,
  "\u2663": 1624,
  "livingston": 14109,
  "botany": 17018,
  "specialists": 15744,
  "##llin": 21202,
  "magma": 28933,
  "dams": 17278,
  "##zily": 28431,
  "bai": 21790,
  "dundee": 14252,
  "rossi": 18451,
  "##\u09ac": 29904,
  "monday": 6928,
  "berry": 10498,
  "turned": 2357,
  "##year": 29100,
  "##umble": 26607,
  "##ian": 2937,
  "seeker": 29444,
  "ta": 11937,
  "tails": 17448,
  "##ythe": 26688,
  "nash": 10594,
  "confederacy": 18179,
  "garments": 21902,
  "160": 8148,
  "billboard": 4908,
  "##\u00bc": 29664,
  "supporter": 10129,
  "spies": 16794,
  "welcoming": 18066,
  "evident": 10358,
  "##lellan": 25839,
  "tee": 17170,
  "concludes": 14730,
  "##\u529b": 30304,
  "counterparts": 14562,
  "donnie": 28486,
  "settle": 7392,
  "racecourse": 15948,
  "investing": 19920,
  "bathroom": 5723,
  "##oons": 27174,
  "damage": 4053,
  "penguin": 13987,
  "##train": 23654,
  "gems": 20296,
  "##\u0627": 25573,
  "[unused199]": 204,
  "tuned": 15757,
  "dept": 29466,
  "##\u30d2": 30245,
  "bout": 10094,
  "1989": 2960,
  "panorama": 23652,
  "dubbed": 9188,
  "emission": 15760,
  "##rran": 28327,
  "hungarian": 5588,
  "mated": 28795,
  "cinder": 29399,
  "timor": 19746,
  "category": 4696,
  "interviewing": 27805,
  "##uro": 10976,
  "creates": 9005,
  "preparing": 8225,
  "##ots": 12868,
  "byu": 23471,
  "flavors": 26389,
  "squeezed": 7757,
  "contract": 3206,
  "##mara": 28225,
  "comparing": 13599,
  "evacuation": 13982,
  "hp": 6522,
  "uptown": 28539,
  "replace": 5672,
  "raaf": 22709,
  "tallest": 13747,
  "updated": 7172,
  "##uka": 15750,
  "poorly": 9996,
  "alistair": 23752,
  "eat": 4521,
  "tolkien": 23602,
  "seymour": 13254,
  "coefficient": 19064,
  "tanaka": 21829,
  "prakash": 22233,
  "glider": 18788,
  "[unused257]": 262,
  "\u09b0": 1372,
  "combo": 25025,
  "moroccan": 17494,
  "nigel": 12829,
  "remaining": 3588,
  "migrants": 16836,
  "episode": 2792,
  "busy": 5697,
  "boards": 7923,
  "erich": 17513,
  "procurement": 21423,
  "##lu": 7630,
  "pleasantly": 27726,
  "now": 2085,
  "##\u2021": 30062,
  "##sson": 7092,
  "sales": 4341,
  "risked": 22374,
  "##tze": 23102,
  "october": 2255,
  "successes": 14152,
  "hilda": 21589,
  "lengths": 10742,
  "disbelief": 12537,
  "##kian": 28545,
  "##verse": 16070,
  "thwarted": 28409,
  "things": 2477,
  "##iba": 18410,
  "##uso": 26658,
  "prepare": 7374,
  "##urgent": 27176,
  "##usia": 24118,
  "mackay": 17090,
  "mighty": 10478,
  "rooms": 4734,
  "##dek": 24463,
  "beirut": 15335,
  "anticipated": 11436,
  "ventura": 21151,
  "utilize": 16462,
  "thursday": 9432,
  "julia": 6423,
  "##saurus": 22244,
  "grimsby": 24470,
  "contest": 5049,
  "recorder": 14520,
  "##vert": 16874,
  "advises": 25453,
  "intends": 18754,
  "frequent": 6976,
  "suzuki": 14278,
  "erased": 23516,
  "offering": 5378,
  "clinics": 17865,
  "timed": 22313,
  "greenberg": 24190,
  "bloc": 15984,
  "homage": 14822,
  "lebanese": 12592,
  "senegal": 16028,
  "collapses": 25938,
  "##crat": 23185,
  "fishing": 5645,
  "influence": 3747,
  "supremacy": 22006,
  "sneak": 13583,
  "disc": 5860,
  "reduction": 7312,
  "marshall": 5832,
  "boon": 23264,
  "stops": 6762,
  "\u00b3": 1083,
  "aristocratic": 19774,
  "seville": 18983,
  "1750": 18171,
  "id": 8909,
  "##\u062e": 29821,
  "reaction": 4668,
  "hates": 16424,
  "comte": 19758,
  "##loid": 27710,
  "\u56db": 1798,
  "jagged": 18187,
  "justification": 19777,
  "grain": 8982,
  "replica": 15059,
  "##\u062f": 15394,
  "##arian": 12199,
  "harvested": 22629,
  "vacuum": 11641,
  "##rmi": 28550,
  "crude": 13587,
  "concurrent": 16483,
  "\u0e23": 1417,
  "warships": 15964,
  "45": 3429,
  "61": 6079,
  "weekends": 13499,
  "stimulate": 23216,
  "slug": 23667,
  "mcdowell": 25005,
  "severn": 24753,
  "boyd": 12164,
  "hampered": 22532,
  "sarcastic": 22473,
  "##gui": 25698,
  "##icient": 20132,
  "victory": 3377,
  "shopping": 6023,
  "francis": 4557,
  "shoving": 15866,
  "##ecin": 28191,
  "indigenous": 6284,
  "waterfront": 16317,
  "factions": 13815,
  "formidable": 18085,
  "toronto": 4361,
  "osborne": 16732,
  "misunderstood": 28947,
  "echoing": 17142,
  "ignorant": 21591,
  "medici": 22605,
  "klan": 26613,
  "inspector": 7742,
  "refuse": 10214,
  "bhp": 22245,
  "subsidiary": 7506,
  "##\u043d\u0430": 19865,
  "##kie": 11602,
  "pear": 28253,
  "##\u09a3": 29897,
  "employing": 15440,
  "daytona": 18226,
  "lucha": 25390,
  "##iente": 25099,
  "duct": 23245,
  "\u00d7": 1095,
  "excellent": 6581,
  "landon": 20642,
  "antics": 27440,
  "stirred": 13551,
  "slipping": 11426,
  "##rich": 13149,
  "veil": 15562,
  "[unused962]": 967,
  "hydrogen": 9732,
  "launches": 18989,
  "##tracted": 24301,
  "inhibition": 23586,
  "50": 2753,
  "nonsense": 14652,
  "tables": 7251,
  "##-": 29624,
  "honda": 11990,
  "\u3084": 1682,
  "bryan": 8527,
  "plight": 24525,
  "##ophone": 25232,
  "sudden": 5573,
  "##tone": 5524,
  "##ners": 16912,
  "associations": 8924,
  "monetary": 12194,
  "##\u0255": 29680,
  "plains": 8575,
  "instantly": 6880,
  "filed": 6406,
  "ric": 26220,
  "humanist": 24464,
  "##ials": 26340,
  "purported": 27023,
  "##\u533a": 30308,
  "34th": 20460,
  "##hua": 14691,
  "somehow": 5064,
  "praised": 5868,
  "temporary": 5741,
  "##page": 13704,
  "angelina": 23847,
  "bancroft": 29351,
  "f1": 20069,
  "airmen": 29437,
  "paranoia": 27890,
  "lagos": 16738,
  "ha": 5292,
  "##das": 8883,
  "importance": 5197,
  "computed": 24806,
  "beheaded": 28923,
  "noises": 14950,
  "\u03b6": 1160,
  "opinion": 5448,
  "comparison": 7831,
  "##vances": 26711,
  "1885": 6571,
  "chinatown": 22321,
  "disappeared": 5419,
  "##raction": 25533,
  "##park": 14432,
  "wasting": 18313,
  "growl": 13349,
  "run": 2448,
  "prominent": 4069,
  "harding": 15456,
  "depends": 9041,
  "##genase": 28835,
  "controversy": 6704,
  "##far": 14971,
  "preparation": 7547,
  "europa": 12124,
  "##lings": 11227,
  "##ord": 8551,
  "birthplace": 14508,
  "##j": 3501,
  "prevalent": 15157,
  "\u91d1": 1964,
  "##bee": 11306,
  "greenfield": 26713,
  "carson": 9806,
  "##\u1d62": 19109,
  "fairbanks": 24502,
  "222": 19015,
  "continuously": 10843,
  "##bos": 15853,
  "gestures": 18327,
  "parrot": 22530,
  "mount": 4057,
  "nodding": 11863,
  "precinct": 18761,
  "replacing": 6419,
  "oversized": 21698,
  "texted": 24637,
  "thom": 19438,
  "variations": 8358,
  "##bria": 21556,
  "##cano": 23803,
  "lenny": 19065,
  "residences": 14094,
  "sporting": 7419,
  "mare": 11941,
  "##st": 3367,
  "doesn": 2987,
  "\u660e": 1865,
  "fusiliers": 27207,
  "98": 5818,
  "12": 2260,
  "eduard": 20424,
  "instructional": 23219,
  "deng": 26957,
  "tito": 20712,
  "atop": 10234,
  "marker": 12115,
  "maid": 10850,
  "hanover": 14393,
  "apes": 27754,
  "amendment": 7450,
  "##ungen": 23239,
  "notorious": 12536,
  "encountered": 8567,
  "cap": 6178,
  "placing": 6885,
  "uniquely": 20640,
  "consisting": 5398,
  "##ppe": 21512,
  "weakness": 11251,
  "summons": 24814,
  "fiery": 15443,
  "\u062f": 1278,
  "bewildered": 24683,
  "bribery": 27748,
  "tends": 12102,
  "##ulin": 18639,
  "##cast": 10526,
  "commitment": 8426,
  "##nier": 14862,
  "##ulus": 11627,
  "\u2113": 1577,
  "##cion": 10446,
  "warship": 21905,
  "##phila": 26083,
  "tr": 19817,
  "##ja": 3900,
  "##\u0434": 29742,
  "##\ufb02": 30511,
  "joel": 8963,
  "croydon": 21838,
  "idaho": 9795,
  "refusing": 11193,
  "attorney": 4905,
  "imagine": 5674,
  "release": 2713,
  "[unused364]": 369,
  "premature": 21371,
  "exeter": 12869,
  "##eries": 28077,
  "visibly": 19397,
  "celebrities": 12330,
  "sava": 28350,
  "44": 4008,
  "kamal": 21911,
  "eve": 6574,
  "pbs": 13683,
  "adjective": 24931,
  "submarines": 12622,
  "##\u0937": 29873,
  "infinitely": 25773,
  "headlines": 19377,
  "[unused991]": 996,
  "patent": 7353,
  "##para": 28689,
  "notions": 21951,
  "\u3092": 1690,
  "museum": 2688,
  "criminal": 4735,
  "oneself": 25763,
  "##39": 23499,
  "providence": 11293,
  "edna": 21051,
  "oakley": 28876,
  "world": 2088,
  "tearing": 13311,
  "showers": 23442,
  "v": 1058,
  "lever": 15929,
  "outlaw": 19104,
  "honest": 7481,
  "##kat": 24498,
  "seine": 16470,
  "##\u2019": 30056,
  "##urity": 25137,
  "doubled": 11515,
  "317": 26628,
  "1726": 28342,
  "##apes": 29040,
  "##azi": 16103,
  "tavern": 13090,
  "bros": 10243,
  "\u6238": 1857,
  "lobbying": 19670,
  "specializes": 16997,
  "ancestors": 10748,
  "wiping": 14612,
  "demonstration": 10467,
  "overly": 15241,
  "soul": 3969,
  "distributing": 20083,
  "install": 16500,
  "[unused633]": 638,
  "##une": 9816,
  "vibe": 21209,
  "spiritual": 6259,
  "hurricanes": 17035,
  "##und": 8630,
  "slits": 29199,
  "deaf": 12419,
  "designer": 5859,
  "\u043e": 1193,
  "##cini": 27085,
  "repeat": 9377,
  "mapping": 12375,
  "lunar": 11926,
  "paradox": 20506,
  "necessary": 4072,
  "fraud": 9861,
  "##erian": 27549,
  "renamed": 4096,
  "rhys": 13919,
  "juveniles": 25406,
  "fingerprints": 27556,
  "defects": 18419,
  "snow": 4586,
  "promises": 10659,
  "glasgow": 6785,
  "llc": 11775,
  "##tion": 3508,
  "thieves": 15862,
  "machine": 3698,
  "1622": 28133,
  "brig": 16908,
  "brandon": 8825,
  "##i": 2072,
  "extremes": 28800,
  "roma": 12836,
  "sweater": 14329,
  "sweeps": 26981,
  "fleet": 4170,
  "scout": 7464,
  "gasped": 8535,
  "##burgh": 15496,
  "\u0ca8": 1400,
  "\u20b9": 1576,
  "##lum": 12942,
  "[unused931]": 936,
  "blogger": 28205,
  "dinah": 26562,
  "iranian": 7726,
  "jammu": 21433,
  "ro": 20996,
  "##\u4ebb": 30283,
  "##rrard": 29599,
  "dialogues": 22580,
  "resembled": 15881,
  "accumulate": 27598,
  "##front": 12792,
  "ropes": 14607,
  "passes": 5235,
  "automated": 12978,
  "##idae": 6096,
  "yesterday": 7483,
  "banging": 22255,
  "hezbollah": 25713,
  "van": 3158,
  "grafton": 28680,
  "hermit": 24308,
  "surface": 3302,
  "danger": 5473,
  "tome": 21269,
  "academies": 20994,
  "situations": 8146,
  "general": 2236,
  "\u767a": 1914,
  "helicopter": 7739,
  "tie": 5495,
  "subtly": 28797,
  "vault": 11632,
  "norton": 10770,
  "morocco": 9835,
  "amalgamated": 17143,
  "habit": 10427,
  "defending": 6984,
  "americana": 25988,
  "gomez": 12791,
  "mateo": 19327,
  "##\u300a": 30165,
  "scorer": 10835,
  "##'": 29618,
  "household": 4398,
  "pennant": 22690,
  "avila": 29079,
  "injected": 19737,
  "##eche": 27635,
  "planetary": 17700,
  "organization": 3029,
  "alcoholic": 14813,
  "martinez": 10337,
  "##rde": 25547,
  "tx": 19067,
  "huron": 21899,
  "##gins": 16529,
  "coa": 28155,
  "inference": 28937,
  "apparel": 26278,
  "##sef": 20106,
  "upheld": 16813,
  "favour": 7927,
  "hitchcock": 19625,
  "wee": 16776,
  "yale": 7996,
  "walsall": 29054,
  "enthusiast": 29550,
  "##ptic": 20746,
  "##iers": 10136,
  "converse": 23705,
  "\u672c": 1876,
  "\u30e3": 1728,
  "monica": 9018,
  "[unused89]": 90,
  "heels": 8265,
  "[unused131]": 136,
  "[unused942]": 947,
  "escaping": 13002,
  "class": 2465,
  "neoclassical": 22657,
  "\u2098": 1567,
  "hydraulic": 14761,
  "equivalence": 27841,
  "##tl": 19646,
  "##oint": 25785,
  "hayden": 13872,
  "##\u77f3": 30448,
  "exports": 14338,
  "idiot": 10041,
  "joo": 28576,
  "hampton": 11615,
  "##bold": 27495,
  "brenda": 15507,
  "ridiculous": 9951,
  "compensate": 19079,
  "arguing": 9177,
  "delta": 7160,
  "founder": 3910,
  "mahmud": 25886,
  "crest": 11146,
  "hamilton": 5226,
  "##ores": 16610,
  "homeland": 10759,
  "mallory": 20468,
  "brothers": 3428,
  "alcoholism": 25519,
  "1835": 10150,
  "##fully": 7699,
  "hungry": 7501,
  "exchequer": 28889,
  "pussy": 22418,
  "[unused626]": 631,
  "key": 3145,
  "\u0965": 1345,
  "viewers": 7193,
  "##\u30a8": 30224,
  "focuses": 7679,
  "springer": 17481,
  "##rita": 17728,
  "leaf": 7053,
  "ragged": 14202,
  "dropped": 3333,
  "##drive": 23663,
  "parsons": 13505,
  "binds": 20817,
  "catastrophic": 23546,
  "greaves": 27808,
  "blurted": 18751,
  "gladstone": 21765,
  "assistants": 16838,
  "orbits": 20347,
  "administration": 3447,
  "clap": 28618,
  "[unused415]": 420,
  "virtues": 21560,
  "y": 1061,
  "programmers": 28547,
  "rebuilding": 14584,
  "304": 23859,
  "reward": 10377,
  "generation": 4245,
  "wiggled": 26750,
  "##tious": 20771,
  "abstract": 10061,
  "helmet": 10412,
  "temptation": 17232,
  "parameter": 16381,
  "##icum": 22167,
  "respective": 7972,
  "joyce": 11830,
  "##rence": 24413,
  "[unused900]": 905,
  "pei": 26850,
  "[unused136]": 141,
  "##rae": 16652,
  "impression": 8605,
  "circa": 12800,
  "identifiable": 27800,
  "##kal": 12902,
  "homme": 26574,
  "pensions": 22024,
  "camille": 16675,
  "seizure": 18634,
  "cosmos": 21182,
  "whole": 2878,
  "stations": 3703,
  "denny": 14465,
  "boo": 22017,
  "##hur": 24572,
  "\u044e": 1209,
  "coaster": 16817,
  "##sio": 20763,
  "shadowy": 22801,
  "cyber": 16941,
  "survivor": 12084,
  "##nsed": 27730,
  "arteries": 28915,
  "skimmed": 28862,
  "\u1107": 1460,
  "republished": 24476,
  "impatiently": 19951,
  "helped": 3271,
  "##matic": 12644,
  "become": 2468,
  "##atus": 15590,
  "stirling": 15597,
  "\u0bb5": 1394,
  "rana": 22175,
  "slack": 19840,
  "##jhl": 29001,
  "additive": 29167,
  "talks": 7566,
  "gettysburg": 22577,
  "micro": 12702,
  "bodied": 22549,
  "##fr": 19699,
  "marlins": 27055,
  "##uddin": 17375,
  "lurking": 24261,
  "penalty": 6531,
  "##words": 22104,
  "programming": 4730,
  "##01": 24096,
  "##analysis": 25902,
  "suffolk": 12291,
  "[unused879]": 884,
  "presumed": 14609,
  "failed": 3478,
  "potentially": 9280,
  "surplus": 15726,
  "uranium": 14247,
  "medicinal": 20632,
  "rat": 9350,
  "thrilling": 26162,
  "stroke": 6909,
  "slash": 18296,
  "mistake": 6707,
  "cleric": 29307,
  "commanders": 11437,
  "##yce": 29297,
  "gershwin": 25600,
  "gonzaga": 26840,
  "boarding": 9405,
  "parlor": 18746,
  "frantically": 16460,
  "##q": 4160,
  "prosecutors": 19608,
  "chef": 10026,
  "gs": 28177,
  "looming": 23430,
  "granddaughter": 12787,
  "emerson": 12628,
  "panicked": 16035,
  "hartford": 13381,
  "sacrament": 28958,
  "rush": 5481,
  "rapids": 12775,
  "welterweight": 20882,
  "##cene": 17968,
  "diffusion": 19241,
  "margins": 17034,
  "inevitable": 13418,
  "##urse": 28393,
  "jersey": 3933,
  "convent": 10664,
  "quebec": 5447,
  "exiles": 27127,
  "activist": 7423,
  "rhythms": 17900,
  "mckenna": 21749,
  "vowed": 18152,
  "235": 17825,
  "\u05e7": 1264,
  "grasped": 15517,
  "##kka": 15714,
  "##made": 21565,
  "rouse": 27384,
  "vikram": 29063,
  "liechtenstein": 26500,
  "fights": 9590,
  "storing": 23977,
  "concrete": 5509,
  "anthropology": 12795,
  "academics": 15032,
  "question": 3160,
  "\u21cc": 1590,
  "atlantic": 4448,
  "109": 11518,
  "duluth": 28218,
  "invading": 17657,
  "##rya": 20444,
  "reinforcement": 23895,
  "hideout": 29588,
  "##em": 6633,
  "trance": 16588,
  "tn": 28286,
  "##emi": 23238,
  "avoiding": 9992,
  "protesting": 21248,
  "##aceous": 25560,
  "cutler": 24975,
  "##tford": 26341,
  "descending": 15127,
  "reused": 26513,
  "##edes": 18352,
  "##sh": 4095,
  "##rien": 23144,
  "rendering": 14259,
  "##layer": 24314,
  "masses": 11678,
  "dem": 17183,
  "tunisian": 22946,
  "sloop": 24786,
  "silhouette": 21776,
  "appreciation": 12284,
  "##yon": 14001,
  "server": 8241,
  "##tched": 28265,
  "missiles": 10815,
  "immigrated": 17352,
  "stemmed": 27674,
  "highlight": 12944,
  "fictitious": 23577,
  "dough": 23126,
  "cans": 18484,
  "spec": 28699,
  "suspiciously": 21501,
  "##kur": 18569,
  "debuts": 26740,
  "children": 2336,
  "##cha": 7507,
  "##week": 28075,
  "leslie": 8886,
  "##stra\u00dfe": 24967,
  "##gical": 26715,
  "\u00a6": 1072,
  "garion": 12523,
  "reaching": 4285,
  "reykjavik": 28559,
  "posterior": 15219,
  "accompaniment": 22205,
  "veteran": 8003,
  "encryption": 21999,
  "\u05dc": 1253,
  "salute": 17664,
  "mutiny": 19306,
  "sheath": 21867,
  "cupboard": 25337,
  "digitally": 18397,
  "##dee": 26095,
  "##phus": 25255,
  "stereo": 12991,
  "32": 3590,
  "impetus": 27961,
  "susan": 6294,
  "hesitantly": 24626,
  "revival": 6308,
  "tian": 23401,
  "bled": 23919,
  "strain": 10178,
  "outfielder": 21033,
  "offset": 16396,
  "usa": 3915,
  "turkey": 4977,
  "their": 2037,
  "implementation": 7375,
  "gatherings": 21403,
  "329": 29567,
  "[unused28]": 29,
  "address": 4769,
  "[unused628]": 633,
  "blanc": 18698,
  "tribes": 6946,
  "forgiveness": 17213,
  "recipe": 17974,
  "dylan": 7758,
  "silvery": 21666,
  "lisbon": 11929,
  "drivers": 6853,
  "grateful": 8794,
  "scare": 12665,
  "##15": 16068,
  "orchestra": 4032,
  "yellow": 3756,
  "weeks": 3134,
  "microscope": 24635,
  "viaduct": 20596,
  "##\u751f": 30436,
  "##rford": 26430,
  "murmurs": 22888,
  "messina": 27270,
  "accession": 16993,
  "[unused74]": 75,
  "moors": 24812,
  "[unused450]": 455,
  "cloud": 6112,
  "boulders": 22177,
  "##rret": 27032,
  "pleaded": 12254,
  "wah": 22894,
  "back": 2067,
  "fabricated": 24212,
  "[unused38]": 39,
  "infectious": 16514,
  "##\u026a": 29685,
  "benefited": 19727,
  "oyster": 21480,
  "##gai": 23805,
  "flush": 13862,
  "rented": 12524,
  "##\u21cc": 30118,
  "parc": 27985,
  "##hop": 18471,
  "derivatives": 16942,
  "alexa": 24969,
  "sip": 10668,
  "significant": 3278,
  "vogue": 17734,
  "replay": 15712,
  "vega": 15942,
  "broadcasters": 18706,
  "residency": 14079,
  "harald": 20966,
  "thematic": 23539,
  "chess": 7433,
  "\u30a7": 1697,
  "##gat": 20697,
  "nairobi": 21124,
  "vowels": 15260,
  "##\u3042": 30172,
  "probability": 9723,
  "listings": 26213,
  "jam": 9389,
  "greece": 5483,
  "cincinnati": 7797,
  "undermine": 25174,
  "soundtrack": 6050,
  "utmost": 27917,
  "##oy": 6977,
  "650": 13757,
  "ying": 20879,
  "##\u30ab": 30226,
  "snowfall": 26043,
  "packet": 14771,
  "playwright": 11170,
  "nils": 27282,
  "##\u300d": 30168,
  "##oides": 25064,
  "[unused534]": 539,
  "compliance": 12646,
  "auf": 21200,
  "human": 2529,
  "##rth": 15265,
  "305": 20405,
  "mammal": 25476,
  "rosy": 26851,
  "contingent": 15445,
  "##rize": 25709,
  "waste": 5949,
  "##\u2015": 30053,
  "obligations": 14422,
  "podium": 14502,
  "##acing": 26217,
  "##48": 18139,
  "##\u03b3": 29721,
  "##ls": 4877,
  "resolve": 10663,
  "##ago": 23692,
  "u": 1057,
  "needs": 3791,
  "hats": 16717,
  "qur": 23183,
  "##\u3082": 30207,
  "routledge": 21180,
  "\u6bd4": 1890,
  "1710": 23841,
  "##bble": 11362,
  "##tani": 17681,
  "secular": 10644,
  "faction": 10233,
  "archive": 8756,
  "vain": 15784,
  "exposed": 6086,
  "middleton": 17756,
  "lied": 9828,
  "rejects": 19164,
  "main": 2364,
  "basilica": 13546,
  "75": 4293,
  "##raj": 14220,
  "barbara": 6437,
  "##\u0635": 29826,
  "interspersed": 25338,
  "##pack": 23947,
  "firmly": 7933,
  "[unused36]": 37,
  "kyoto": 15008,
  "\u09c0": 1380,
  "rai": 15547,
  "##\u2013": 30051,
  "attends": 23933,
  "atletico": 16132,
  "thoroughbred": 18359,
  "scenario": 11967,
  "graded": 21976,
  "##gle": 9354,
  "\u0909": 1313,
  "[unused779]": 784,
  "\u1d30": 1492,
  "drunken": 15967,
  "attacked": 4457,
  "blooms": 29037,
  "recipients": 15991,
  "liege": 17766,
  "resemble": 13014,
  "wears": 11651,
  "hq": 16260,
  "go": 2175,
  "punch": 8595,
  "thong": 27468,
  "robber": 27307,
  "selfish": 14337,
  "quan": 24110,
  "wigan": 15598,
  "##iensis": 27806,
  "bred": 13680,
  "poe": 18922,
  "arrive": 7180,
  "stark": 9762,
  "charities": 15430,
  "bartlett": 20081,
  "##mble": 19661,
  "longitudinal": 20134,
  "##yson": 25385,
  "ideal": 7812,
  "differently": 11543,
  "wylie": 29152,
  "loyola": 21580,
  "fact": 2755,
  "tornado": 11352,
  "780": 28601,
  "structures": 5090,
  "sacrifice": 8688,
  "ghent": 24202,
  "\u2044": 1535,
  "338": 27908,
  "rearview": 28726,
  "##sville": 9337,
  "elle": 15317,
  "consultant": 8930,
  "aix": 28443,
  "protects": 18227,
  "ton": 10228,
  "negative": 4997,
  "teaches": 12011,
  "steaming": 19986,
  "marketplace": 18086,
  "precisely": 10785,
  "shipbuilding": 16802,
  "burrows": 22009,
  "theatrical": 8900,
  "##sor": 21748,
  "simultaneously": 7453,
  "patti": 22732,
  "specialty": 12233,
  "##\u2090": 30089,
  "accommodated": 28959,
  "lexi": 16105,
  "##holm": 18884,
  "valued": 11126,
  "tyres": 24656,
  "harmonica": 16527,
  "apache": 15895,
  "scrape": 26988,
  "1658": 28944,
  "[unused76]": 77,
  "shady": 22824,
  "##aldo": 27318,
  "hasn": 8440,
  "installing": 23658,
  "developed": 2764,
  "unitarian": 25477,
  "americas": 10925,
  "purpose": 3800,
  "porte": 25927,
  "roadway": 18799,
  "[unused68]": 69,
  "attacks": 4491,
  "##rah": 10404,
  "assert": 20865,
  "nagasaki": 27107,
  "relevance": 21923,
  "translucent": 22897,
  "##chuk": 26516,
  "katie": 9734,
  "mod": 16913,
  "marcus": 6647,
  "supplying": 17731,
  "premium": 12882,
  "hum": 14910,
  "reports": 4311,
  "activate": 20544,
  "##evich": 16277,
  "terminus": 7342,
  "microscopy": 29105,
  "withstand": 19319,
  "insane": 9577,
  "\u4ee3": 1760,
  "highlighting": 20655,
  "##tya": 21426,
  "movie": 3185,
  "scholarships": 15691,
  "forbid": 27206,
  "\u306d": 1670,
  "rey": 12569,
  "boer": 19945,
  "macmillan": 15434,
  "chloe": 9318,
  "susceptible": 18002,
  "brigham": 22727,
  "##fur": 27942,
  "genetically": 19345,
  "##ieg": 28872,
  "##hun": 17157,
  "communists": 13009,
  "##ities": 6447,
  "displays": 8834,
  "psychological": 8317,
  "weigh": 17042,
  "egyptian": 6811,
  "floated": 13715,
  "links": 6971,
  "herman": 11458,
  "##zog": 28505,
  "maiden": 10494,
  "uncles": 27328,
  "cello": 10145,
  "1881": 7005,
  "##\u540c": 30320,
  "licensed": 7000,
  "bipolar": 29398,
  "vile": 25047,
  "##oon": 7828,
  "##wich": 12414,
  "##ob": 16429,
  "chavez": 16860,
  "[unused668]": 673,
  "faith": 4752,
  "berth": 17064,
  "##u": 2226,
  "berkeley": 8256,
  "regal": 21279,
  "advanced": 3935,
  "scrubbed": 27820,
  "##ffi": 26989,
  "##\u014b": 29673,
  "##ingly": 15787,
  "##ians": 7066,
  "noodles": 27130,
  "\u4e4b": 1749,
  "director": 2472,
  "experimental": 6388,
  "ogden": 23203,
  "chimed": 27460,
  "dogg": 28844,
  "pulp": 16016,
  "evolved": 7964,
  "intentional": 21249,
  "##\u5fc3": 30375,
  "prevailing": 19283,
  "making": 2437,
  "amar": 23204,
  "norway": 5120,
  "marley": 20326,
  "intra": 26721,
  "218": 20741,
  "##\u79c0": 30454,
  "##castle": 23662,
  "quarry": 12907,
  "proto": 15053,
  "volcanic": 10942,
  "scheduled": 5115,
  "grammy": 8922,
  "##erus": 21608,
  "growling": 22413,
  "1953": 4052,
  "bingo": 27137,
  "drummer": 7101,
  "experimented": 20918,
  "gundam": 26152,
  "##emon": 26941,
  "albanian": 9408,
  "warped": 25618,
  "waits": 18074,
  "novo": 24576,
  "##stick": 21354,
  "[unused961]": 966,
  "asian": 4004,
  "##hre": 28362,
  "undoubtedly": 17319,
  "sticks": 12668,
  "groups": 2967,
  "355": 26271,
  "robbie": 12289,
  "pamela": 17217,
  "cracks": 15288,
  "attended": 3230,
  "contention": 18974,
  "collapsing": 22724,
  "[unused133]": 138,
  "\u3053": 1655,
  "##ts": 3215,
  "envy": 21103,
  "abraham": 8181,
  "mandir": 22700,
  "curved": 9203,
  "##hai": 10932,
  "volumes": 6702,
  "spanish": 3009,
  "magazines": 7298,
  "gaming": 10355,
  "well": 2092,
  "##\u539f": 30313,
  "kei": 26679,
  "reassured": 26350,
  "woodland": 11051,
  "somber": 28587,
  "220": 10545,
  "[unused77]": 78,
  "referencing": 28789,
  "mls": 16287,
  "asiatic": 23983,
  "hay": 10974,
  "##pt": 13876,
  "vic": 10967,
  "eliminated": 5892,
  "colloquially": 23992,
  "nanny": 19174,
  "loaded": 8209,
  "amore": 26297,
  "tapping": 15135,
  "greer": 25939,
  "bookstore": 21785,
  "secretary": 3187,
  "giuseppe": 12574,
  "vector": 9207,
  "strand": 11226,
  "altitudes": 21973,
  "occupies": 14133,
  "suited": 10897,
  "##\u0679": 29838,
  "hand": 2192,
  "separation": 8745,
  "marquis": 13410,
  "winthrop": 28974,
  "aiding": 24791,
  "very": 2200,
  "immaculate": 19532,
  "briefcase": 21793,
  "breeders": 20823,
  "thief": 12383,
  "fda": 17473,
  "camps": 7958,
  "coral": 11034,
  "##\u0111": 29671,
  "puebla": 27452,
  "##landa": 24448,
  "cache": 17053,
  "##boats": 19468,
  "##logist": 10727,
  "bundle": 14012,
  "retention": 20125,
  "differ": 11234,
  "domes": 26193,
  "une": 16655,
  "jerseys": 28772,
  "##erson": 18617,
  "fastened": 24009,
  "##tica": 22723,
  "[unused196]": 201,
  "countryside": 10833,
  "foreigner": 29524,
  "1731": 28446,
  "internationale": 21339,
  "repair": 7192,
  "retrieval": 26384,
  "tool": 6994,
  "km": 2463,
  "jewellery": 21545,
  "dominates": 29532,
  "sits": 7719,
  "cones": 23825,
  "arsenic": 29596,
  "belmont": 17449,
  "unit": 3131,
  "wolverhampton": 20085,
  "georgetown": 12982,
  "sphinx": 27311,
  "witches": 12566,
  "##\u0936": 29872,
  "crumbling": 24827,
  "recipes": 19328,
  "fleeting": 25085,
  "\u2154": 1582,
  "towel": 10257,
  "##efe": 27235,
  "burmese": 14468,
  "##tight": 26143,
  "##ea": 5243,
  "delilah": 23006,
  "##\u2095": 30093,
  "avatar": 22128,
  "steal": 8954,
  "##typic": 23186,
  "robson": 23698,
  "malls": 25943,
  "plank": 24000,
  "cheeks": 6029,
  "malaysia": 6027,
  "##jured": 26949,
  "possession": 6664,
  "##anza": 16076,
  "##dina": 18979,
  "hess": 23484,
  "erase": 22505,
  "battle": 2645,
  "almighty": 26668,
  "##\u05e2": 29805,
  "\u0582": 1238,
  "[unused248]": 253,
  "ruins": 8435,
  "succession": 8338,
  "[unused96]": 97,
  "violin": 6710,
  "regardless": 7539,
  "universally": 21186,
  "##ida": 8524,
  "##zong": 13150,
  "constantinople": 11776,
  "concluded": 5531,
  "melee": 27868,
  "dentistry": 26556,
  "cocky": 24995,
  "##ries": 5134,
  "##o": 2080,
  "corvette": 22687,
  "##\u5ba3": 30349,
  "bruce": 5503,
  "reich": 14365,
  "##\u0142aw": 19704,
  "hygiene": 19548,
  "dawn": 6440,
  "pcs": 27019,
  "uneasy": 15491,
  "standards": 4781,
  "##\uff1f": 30520,
  "eu": 7327,
  "##\u09a4": 29898,
  "interventions": 19388,
  "drives": 9297,
  "snake": 7488,
  "stat": 28093,
  "tun": 27112,
  "till": 6229,
  "salford": 23001,
  "\u063a": 1289,
  "##de": 3207,
  "[unused774]": 779,
  "generosity": 26161,
  "bulldog": 28628,
  "olsen": 18997,
  "\u0561": 1219,
  "bucket": 13610,
  "presenters": 25588,
  "burnham": 25295,
  "suggests": 6083,
  "morale": 19292,
  "##horn": 9769,
  "played": 2209,
  "[unused334]": 339,
  "could": 2071,
  "consisted": 5031,
  "dripped": 22526,
  "tells": 4136,
  "ins": 16021,
  "book": 2338,
  "mla": 18619,
  "novelty": 21160,
  "joao": 16304,
  "converted": 4991,
  "volunteers": 7314,
  "crooked": 15274,
  "travis": 10001,
  "titus": 18828,
  "##ading": 23782,
  "##good": 24146,
  "joey": 9558,
  "types": 4127,
  "orient": 16865,
  "coventry": 13613,
  "amos": 13744,
  "beasts": 15109,
  "pulling": 4815,
  "unwanted": 18162,
  "excess": 9987,
  "rescuing": 23659,
  "yoon": 24863,
  "prejudice": 18024,
  "mcintyre": 24564,
  "visiting": 5873,
  "lad": 14804,
  "apps": 18726,
  "pertaining": 20246,
  "greyish": 26916,
  "##lands": 8653,
  "substantial": 6937,
  "##pc": 15042,
  "kam": 27829,
  "indefinitely": 20733,
  "hide": 5342,
  "measurement": 10903,
  "kazakhstan": 11769,
  "ones": 3924,
  "potent": 16834,
  "federation": 4657,
  "calhoun": 22982,
  "provided": 3024,
  "bravo": 17562,
  "##hearted": 27693,
  "stewart": 5954,
  "slashed": 23587,
  "jim": 3958,
  "tb": 26419,
  "sox": 9175,
  "dish": 9841,
  "severely": 8949,
  "grumbled": 17030,
  "cruises": 23986,
  "'": 1005,
  "rushed": 6760,
  "##3d": 29097,
  "##\u207b": 30079,
  "warring": 28509,
  "presidential": 4883,
  "during": 2076,
  "##dled": 20043,
  "indictment": 24265,
  "phd": 8065,
  "stretches": 14082,
  "orders": 4449,
  "hail": 16889,
  "##uration": 18924,
  "##\u6797": 30407,
  "##\u0638": 29829,
  "justine": 26377,
  "musician": 5455,
  "##inium": 27585,
  "1855": 8492,
  "damascus": 16094,
  "[unused67]": 68,
  "ivory": 11554,
  "jaguar": 16490,
  "rider": 7945,
  "styx": 21856,
  "##yan": 7054,
  "henson": 27227,
  "yong": 18999,
  "solar": 5943,
  "[unused144]": 149,
  "##\u10d5": 29979,
  "slices": 25609,
  "bradford": 9999,
  "circus": 9661,
  "kangaroo": 21652,
  "maternal": 11062,
  "lawson": 14577,
  "##ae": 6679,
  "dreams": 5544,
  "oval": 9242,
  "adele": 17623,
  "##print": 16550,
  "parking": 5581,
  "cinemas": 19039,
  "practitioners": 14617,
  "hold": 2907,
  "##sier": 20236,
  "##erman": 18689,
  "##gor": 20255,
  "##oop": 18589,
  "fiercely": 16265,
  "##mur": 20136,
  "website": 4037,
  "printing": 8021,
  "that": 2008,
  "\u2096": 1565,
  "\u0f56": 1431,
  "rio": 5673,
  "##ku": 5283,
  "yun": 22854,
  "##\u110a": 29998,
  "marianne": 19887,
  "##written": 15773,
  "wiltshire": 17045,
  "pest": 20739,
  "singles": 3895,
  "pounded": 13750,
  "w": 1059,
  "challenge": 4119,
  "achilles": 23167,
  "premiered": 5885,
  "stout": 18890,
  "arbitrary": 15275,
  "banned": 7917,
  "metaphysical": 29081,
  "greed": 22040,
  "whig": 21632,
  "##dly": 18718,
  "tower": 3578,
  "serious": 3809,
  "##rons": 28212,
  "[unused666]": 671,
  "optic": 22816,
  "\u0985": 1347,
  "##\u0926": 29861,
  "savage": 9576,
  "molded": 27992,
  "accent": 9669,
  "rubbed": 7503,
  "system": 2291,
  "glove": 15913,
  "sharing": 6631,
  "fear": 3571,
  "##tie": 9515,
  "curry": 15478,
  "##\u10dc": 29985,
  "##gation": 12540,
  "\u90e1": 1959,
  "wandering": 13071,
  "frequencies": 13139,
  "##onal": 16026,
  "die": 3280,
  "treatment": 3949,
  "downward": 14047,
  "writing": 3015,
  "conductor": 7589,
  "##yla": 23943,
  "smashing": 21105,
  "crouched": 14275,
  "dioxide": 14384,
  "\u06ba": 1306,
  "dangers": 16796,
  "bingham": 24579,
  "151": 16528,
  "essen": 29032,
  "cologne": 10918,
  "guthrie": 19952,
  "##sms": 19230,
  "grunted": 14922,
  "vane": 23334,
  "disabilities": 13597,
  "featured": 2956,
  "##ffin": 15379,
  "fixing": 15887,
  "locked": 5299,
  "##turn": 22299,
  "bertram": 27515,
  "invisible": 8841,
  "##vres": 24790,
  "##hid": 27511,
  "hagen": 24047,
  "parana": 28383,
  "uniformly": 27423,
  "##\u306c": 30195,
  "track": 2650,
  "##pro": 21572,
  "touched": 5028,
  "introduction": 4955,
  "##ving": 6455,
  "rifle": 5883,
  "souls": 9293,
  "1979": 3245,
  "painful": 9145,
  "##itation": 18557,
  "ferreira": 26135,
  "valuation": 26004,
  "governments": 6867,
  "chaplain": 14011,
  "##eh": 11106,
  "##\u52a0": 30305,
  "agustin": 26889,
  "127": 13029,
  "sprayed": 25401,
  "joyah": 27098,
  "writ": 25697,
  "vamps": 24064,
  "##\u30de": 30249,
  "occurred": 4158,
  "mainland": 8240,
  "850": 15678,
  "provocative": 26422,
  "415": 24690,
  "grinning": 11478,
  "reacts": 27325,
  "cigarette": 9907,
  "scientology": 23845,
  "##foil": 24323,
  "wellness": 25860,
  "acknowledging": 21894,
  "##bay": 15907,
  "immersed": 26275,
  "sighing": 19381,
  "politely": 16954,
  "##\u02e3": 29718,
  "daily": 3679,
  "implying": 20242,
  "[unused532]": 537,
  "netball": 25034,
  "ranch": 8086,
  "[unused440]": 445,
  "superstructure": 28391,
  "allan": 8926,
  "##swell": 19228,
  "miners": 11257,
  "confesses": 22826,
  "inscription": 9315,
  "cavity": 17790,
  "##it": 4183,
  "fungal": 28079,
  "motorsports": 20711,
  "commission": 3222,
  "\u1111": 1468,
  "cambodian": 24417,
  "##\u2030": 30065,
  "##bo": 5092,
  "electronically": 28926,
  "inherited": 7900,
  "1845": 9512,
  "bullets": 10432,
  "natural": 3019,
  "henrietta": 20775,
  "overboard": 27089,
  "namibia": 15408,
  "manor": 6952,
  "##inated": 15833,
  "##gated": 11644,
  "sectors": 11105,
  "\u30b7": 1706,
  "hermann": 12224,
  "##uve": 22909,
  "mccarthy": 12584,
  "##egan": 20307,
  "##ivar": 28739,
  "populations": 7080,
  "##note": 22074,
  "cyril": 16049,
  "louvre": 25110,
  "meyer": 11527,
  "tu": 10722,
  "praises": 27128,
  "broke": 3631,
  "ecosystem": 16927,
  "stern": 8665,
  "fuels": 20145,
  "##torium": 24390,
  "prc": 26141,
  "veins": 9607,
  "[unused690]": 695,
  "nile": 15179,
  "bail": 15358,
  "arbitration": 18010,
  "prints": 11204,
  "##ired": 27559,
  "##sight": 25807,
  "artificial": 7976,
  "freiburg": 22871,
  "##phate": 24556,
  "passionate": 13459,
  "yell": 14315,
  "madness": 12013,
  "289": 27054,
  "##quel": 22197,
  "commissioned": 4837,
  "archbishop": 6507,
  "ethical": 12962,
  "[unused799]": 804,
  "byte": 24880,
  "dazzling": 28190,
  "western": 2530,
  "clear": 3154,
  "rus": 22949,
  "bart": 12075,
  "actions": 4506,
  "groin": 20092,
  "carmine": 18791,
  "##nir": 29339,
  "goats": 17977,
  "##yana": 16811,
  "values": 5300,
  "ordination": 18129,
  "clements": 28572,
  "vacated": 15348,
  "journeys": 19147,
  "addiction": 13449,
  "roofed": 26080,
  "reign": 5853,
  "coma": 16571,
  "relay": 8846,
  "billings": 26124,
  "vase": 18781,
  "fairy": 8867,
  "\u30af": 1702,
  "contributor": 12130,
  "hierarchical": 25835,
  "scots": 12196,
  "clutched": 13514,
  "roadside": 25131,
  "charges": 5571,
  "appropriately": 23263,
  "calls": 4455,
  "worthy": 11007,
  "butler": 7055,
  "medalist": 12968,
  "admitting": 17927,
  "quinn": 8804,
  "father": 2269,
  "\u0638": 1287,
  "1604": 28754,
  "stimulus": 19220,
  "inscriptions": 12920,
  "fishery": 22880,
  "##\u05d1": 29789,
  "deserves": 17210,
  "seen": 2464,
  "##vian": 18073,
  "##fc": 11329,
  "pomeranian": 17717,
  "supports": 6753,
  "scent": 6518,
  "##cchi": 25955,
  "##oted": 27428,
  "zoning": 27462,
  "ozone": 26443,
  "galen": 21062,
  "endemic": 7320,
  "yourselves": 25035,
  "##zzy": 28753,
  "##\u0435\u0432\u0438\u0447": 22646,
  "dismissing": 28913,
  "differentiate": 21032,
  "catchment": 22865,
  "heron": 22914,
  "##to": 3406,
  "sunset": 10434,
  "warehouses": 23319,
  "weiss": 17889,
  "bisexual": 22437,
  "trades": 14279,
  "humiliation": 21171,
  "sable": 23492,
  "##itt": 12474,
  "sued": 12923,
  "media": 2865,
  "completion": 6503,
  "armoured": 11104,
  "contracts": 8311,
  "##west": 19650,
  "stampede": 29375,
  "vigor": 24474,
  "harlow": 22545,
  "winked": 14217,
  "prophets": 23172,
  "\u2011": 1514,
  "nearer": 20388,
  "denotes": 14796,
  "##uru": 14129,
  "remixes": 15193,
  "tack": 26997,
  "##for": 29278,
  "\uff1a": 1993,
  "firm": 3813,
  "falling": 4634,
  "oman": 16640,
  "graveyard": 16685,
  "[unused665]": 670,
  "receptors": 13833,
  "huddled": 20258,
  "##\u65b0": 30388,
  "semester": 13609,
  "\u03c0": 1170,
  "##udged": 27066,
  "##\u0686": 29840,
  "##ogenic": 24278,
  "stored": 8250,
  "person": 2711,
  "announce": 14970,
  "chloride": 19057,
  "##rly": 21194,
  "ma": 5003,
  "yang": 8675,
  "##sho": 22231,
  "imposed": 9770,
  "crowe": 25657,
  "songwriting": 14029,
  "##ge": 3351,
  "haggard": 27912,
  "telling": 4129,
  "murals": 19016,
  "##ential": 24271,
  "\u056f": 1227,
  "##kam": 27052,
  "spectator": 21027,
  "\u30e2": 1727,
  "\u2077": 1541,
  "##36": 21619,
  "[unused381]": 386,
  "##tzer": 29546,
  "accessible": 7801,
  "parachute": 13561,
  "\u6c11": 1892,
  "realized": 3651,
  "outdated": 25963,
  "spectral": 17435,
  "##4th": 26724,
  "ample": 20851,
  "shan": 17137,
  "schemes": 11683,
  "platt": 28005,
  "kensington": 17775,
  "bernstein": 18862,
  "cassandra": 15609,
  "header": 20346,
  "##\u00e6": 29667,
  "climax": 14463,
  "lenin": 17497,
  "interdisciplinary": 18593,
  "##dp": 18927,
  "protestant": 8330,
  "orchard": 15623,
  "cow": 11190,
  "nomination": 6488,
  "thugs": 24106,
  "[unused670]": 675,
  "##rting": 24097,
  "colleagues": 8628,
  "mural": 15533,
  "badger": 24186,
  "hu": 15876,
  "modelling": 19518,
  "41": 4601,
  "manufacture": 9922,
  "syndicated": 13889,
  "toad": 21344,
  "jem": 24193,
  "existence": 4598,
  "peaks": 11373,
  "democrats": 8037,
  "late": 2397,
  "munro": 20923,
  "traction": 16493,
  "[unused854]": 859,
  "warehouse": 9746,
  "marlon": 25861,
  "##agawa": 20812,
  "spade": 23288,
  "bankrupt": 17482,
  "mark": 2928,
  "flex": 23951,
  "[unused384]": 389,
  "kicking": 10209,
  "selective": 13228,
  "rumor": 19075,
  "\u0f53": 1429,
  "simpsons": 19047,
  "escorts": 24877,
  "##gc": 18195,
  "ignacio": 22988,
  "hotel": 3309,
  "##gm": 21693,
  "pounder": 20091,
  "spartak": 28560,
  "enfield": 25821,
  "twelve": 4376,
  "##}": 29642,
  "naga": 26539,
  "[unused573]": 578,
  "288": 24841,
  "##lie": 8751,
  "glorious": 14013,
  "37th": 23027,
  "[unused629]": 634,
  "sings": 10955,
  "pena": 19409,
  "##\u5948": 30340,
  "1903": 5778,
  "wilkinson": 16237,
  "lover": 7089,
  "\u1100": 1455,
  "bands": 4996,
  "maxim": 20446,
  "youthful": 22446,
  "clarence": 11805,
  "academie": 19669,
  "retains": 14567,
  "buyers": 17394,
  "op": 6728,
  "weep": 27874,
  "riches": 26768,
  "[unused704]": 709,
  "proportion": 10817,
  "faltered": 26015,
  "accompanied": 5642,
  "patch": 8983,
  "international": 2248,
  "analytic": 23521,
  "hostilities": 17601,
  "all": 2035,
  "claimed": 3555,
  "belts": 18000,
  "60": 3438,
  "gujarati": 26428,
  "capturing": 11847,
  "silenced": 25030,
  "jo": 8183,
  "shape": 4338,
  "banished": 21319,
  "relevant": 7882,
  "infamous": 14429,
  "##cation": 10719,
  "demonstrators": 28337,
  "\u00bd": 1092,
  "##tee": 17389,
  "##w": 2860,
  "length": 3091,
  "documentation": 12653,
  "##sco": 9363,
  "brooklyn": 6613,
  "palatinate": 18990,
  "dispatch": 18365,
  "melodies": 16106,
  "bears": 6468,
  "##thal": 24090,
  "zurich": 10204,
  "prescott": 20719,
  "##gration": 29397,
  "sandals": 24617,
  "crank": 27987,
  "gone": 2908,
  "buddha": 11903,
  "malik": 14360,
  "##tera": 14621,
  "transplant": 22291,
  "\u4fdd": 1766,
  "delay": 8536,
  "##nse": 12325,
  "eyre": 26975,
  "##\u0633": 29824,
  "smoothing": 27045,
  "sabine": 18578,
  "nuevo": 22250,
  "butcher": 14998,
  "beaumont": 16210,
  "voyage": 8774,
  "wi": 15536,
  "1893": 6489,
  "publications": 5523,
  "establishments": 17228,
  "[unused16]": 17,
  "staff": 3095,
  "philanthropy": 29291,
  "pretty": 3492,
  "##lez": 28060,
  "coasts": 20266,
  "[unused265]": 270,
  "rep": 16360,
  "build": 3857,
  "##olin": 18861,
  "##igen": 29206,
  "##oteric": 29112,
  "biochemistry": 22419,
  "padre": 28612,
  "ronan": 18633,
  "showcasing": 27696,
  "##ience": 13684,
  "##hine": 14014,
  "scattered": 7932,
  "meaningless": 25120,
  "##eni": 18595,
  "ribs": 10335,
  "rollins": 23502,
  "columbia": 3996,
  "##nes": 5267,
  "inexpensive": 23766,
  "##quist": 18331,
  "tucking": 25056,
  "administered": 8564,
  "pendleton": 24349,
  "##tek": 23125,
  "karl": 6382,
  "##ril": 15928,
  "leaped": 16900,
  "soloists": 27516,
  "sums": 20571,
  "[unused898]": 903,
  "flexibility": 16991,
  "##ller": 10820,
  "\u0562": 1220,
  "encouragement": 15846,
  "elemental": 19529,
  "taxis": 25964,
  "grade": 3694,
  "remodeled": 27170,
  "oasis": 18128,
  "##stown": 13731,
  "extinct": 8548,
  "breast": 7388,
  "terence": 22677,
  "402": 28048,
  "indicators": 20390,
  "element": 5783,
  "policeman": 14460,
  "cough": 19340,
  "##ut": 4904,
  "##tary": 18219,
  "wolf": 4702,
  "##cross": 16458,
  "##resh": 21898,
  "yuri": 14331,
  "ramps": 24943,
  "ut": 21183,
  "lavender": 20920,
  "laser": 9138,
  "situated": 4350,
  "malacca": 28481,
  "schizophrenia": 23683,
  "leapt": 13920,
  "gesture": 9218,
  "[unused120]": 125,
  "coward": 16592,
  "extended": 3668,
  "bind": 14187,
  "##ran": 5521,
  "immigration": 7521,
  "nicholls": 27043,
  "\u9593": 1969,
  "identities": 15702,
  "fen": 21713,
  "concerts": 6759,
  "awake": 8300,
  "\u110e": 1465,
  "##kali": 28613,
  "dotted": 20384,
  "flying": 3909,
  "interview": 4357,
  "nutrients": 20435,
  "##19": 16147,
  "laundering": 28289,
  "##kura": 28260,
  "ibrahim": 13477,
  "aimee": 23551,
  "cb": 17324,
  "##hampton": 21946,
  "candidate": 4018,
  "accelerated": 14613,
  "224": 19711,
  "lust": 11516,
  "obe": 15578,
  "##yuan": 17236,
  "grip": 6218,
  "tri": 13012,
  "1707": 25029,
  "inventions": 21644,
  "blurred": 18449,
  "several": 2195,
  "purple": 6379,
  "\u2016": 1519,
  "##)": 29620,
  "##\u27e8": 30155,
  "[unused230]": 235,
  "##\u05d2": 29790,
  "sud": 19219,
  "pitcher": 8070,
  "##nism": 28113,
  "marvin": 13748,
  "claudia": 13479,
  "##take": 15166,
  "##dicate": 16467,
  "channel": 3149,
  "##\u10dd": 29986,
  "##\u06cc": 24830,
  "wonders": 16278,
  "ghetto": 17276,
  "cruiser": 10844,
  "boiling": 16018,
  "horizontal": 9876,
  "##bro": 12618,
  "historically": 7145,
  "hungary": 5872,
  "wore": 5078,
  "grasses": 21620,
  "##\u0d9a": 29939,
  "elm": 17709,
  "belgian": 6995,
  "sensory": 16792,
  "casa": 14124,
  "jerk": 12181,
  "##tose": 22282,
  "bahamas": 17094,
  "breakaway": 26321,
  "[unused454]": 459,
  "boilers": 20412,
  "bakery": 18112,
  "creek": 3636,
  "denis": 11064,
  "mandatory": 10915,
  "rebirth": 22785,
  "##ply": 22086,
  "##\u30e5": 30255,
  "nichols": 15746,
  "bends": 23394,
  "sawmill": 24744,
  "##nar": 11802,
  "\u00a2": 1068,
  "##bad": 9024,
  "falcons": 14929,
  "##orestation": 25794,
  "sachs": 22818,
  "\u208a": 1557,
  "##\u00b5": 29659,
  "adults": 6001,
  "coordinates": 12093,
  "deprived": 17676,
  "convicted": 7979,
  "karen": 8129,
  "aba": 19557,
  "levy": 12767,
  "consensus": 10465,
  "ubiquitous": 28498,
  "shrine": 9571,
  "textbook": 16432,
  "##ifier": 18095,
  "revelation": 11449,
  "375": 18034,
  "prick": 24858,
  "115": 10630,
  "monarch": 11590,
  "armenian": 7508,
  "[unused226]": 231,
  "plenty": 7564,
  "numb": 15903,
  "constraint": 27142,
  "employer": 11194,
  "basement": 8102,
  "pageant": 12438,
  "metres": 3620,
  "aperture": 18892,
  "empire": 3400,
  "howl": 22912,
  "##yre": 16363,
  "qi": 18816,
  "goa": 15244,
  "fifth": 3587,
  "trent": 7990,
  "explicit": 13216,
  "cleavage": 28691,
  "revised": 8001,
  "canyon": 8399,
  "##jar": 16084,
  "##giving": 23795,
  "australia": 2660,
  "cynthia": 15809,
  "beliefs": 9029,
  "speak": 3713,
  "\u674e": 1877,
  "##wright": 26460,
  "fortress": 7841,
  "limb": 15291,
  "drugs": 5850,
  "macy": 20914,
  "leg": 4190,
  "unicode": 27260,
  "##aja": 22734,
  "theirs": 17156,
  "brad": 8226,
  "##odies": 27391,
  "activists": 10134,
  "storylines": 22628,
  "anybody": 10334,
  "finally": 2633,
  "pounds": 7038,
  "##\u098f": 29887,
  "option": 5724,
  "lauded": 26507,
  "southeastern": 8252,
  "vigorously": 22400,
  "collect": 8145,
  "##\u5b50": 30342,
  "##mb": 14905,
  "hartley": 20955,
  "hale": 13084,
  "zone": 4224,
  "##frid": 27439,
  "##enko": 17868,
  "\u0639": 1288,
  "began": 2211,
  "307": 24559,
  "##uf": 16093,
  "unreliable": 23579,
  "ot": 27178,
  "##\u0f0b": 29960,
  "[unused189]": 194,
  "demo": 9703,
  "##lastic": 28723,
  "##kata": 29123,
  "desperate": 7143,
  "educators": 19156,
  "bog": 22132,
  "names": 3415,
  "maharaja": 21609,
  "\u6b62": 1887,
  "compensation": 9430,
  "[unused936]": 941,
  "raider": 27826,
  "thomas": 2726,
  "\u9234": 1965,
  "\u2032": 1531,
  "illicit": 25049,
  "layla": 19786,
  "militant": 16830,
  "1570": 28881,
  "latitude": 15250,
  "##jee": 16963,
  "##jevic": 26782,
  "flourishing": 29571,
  "favourable": 18731,
  "##14": 16932,
  "seller": 14939,
  "chests": 28717,
  "##oxide": 28479,
  "##poo": 24667,
  "nee": 7663,
  "vengeance": 14096,
  "smells": 14747,
  "proportions": 19173,
  "pisa": 25472,
  "##lves": 20899,
  "##kiewicz": 28563,
  "##metry": 24327,
  "subjected": 13532,
  "broughton": 29187,
  "heaved": 19970,
  "simplicity": 17839,
  "fairly": 7199,
  "blinded": 20641,
  "bmg": 24499,
  "batting": 9640,
  "und": 6151,
  "awe": 15180,
  "##\u10e3": 29990,
  "\u7acb": 1931,
  "[unused85]": 86,
  "normally": 5373,
  "plastics": 26166,
  "dealers": 16743,
  "##\u0628": 29816,
  "environmental": 4483,
  "\u067e": 1302,
  "jordan": 5207,
  "protect": 4047,
  "##isman": 20257,
  "code": 3642,
  "tax": 4171,
  "menace": 19854,
  "vertex": 19449,
  "registration": 8819,
  "mesa": 15797,
  "organise": 22933,
  "sloan": 19024,
  "transparent": 13338,
  "flinders": 29120,
  "regimes": 25228,
  "blindly": 25734,
  "lissa": 20244,
  "##zen": 10431,
  "[unused706]": 711,
  "euros": 19329,
  "##pathic": 25940,
  "bids": 20723,
  "obstacle": 18355,
  "reversal": 23163,
  "1758": 16832,
  "1890": 6193,
  "privilege": 14293,
  "hallways": 28274,
  "tae": 22297,
  "1630": 24994,
  "[unused247]": 252,
  "basket": 10810,
  "ltd": 5183,
  "taught": 4036,
  "##\u2297": 30140,
  "se": 7367,
  "archaeologist": 18821,
  "keystone": 22271,
  "carlson": 22226,
  "[unused866]": 871,
  "liturgical": 19246,
  "joe": 3533,
  "communes": 16569,
  "neither": 4445,
  "purse": 8722,
  "triggers": 27099,
  "##class": 26266,
  "encyclopedia": 12204,
  "maxi": 21510,
  "*": 1008,
  "criticised": 10648,
  "fontana": 27182,
  "clue": 9789,
  "##\u0447": 29752,
  "harder": 6211,
  "##en": 2368,
  "agreement": 3820,
  "yoko": 28758,
  "##hrer": 17875,
  "[unused115]": 120,
  "weighed": 12781,
  "funding": 4804,
  "dramatic": 6918,
  "##right": 15950,
  "cemetery": 4528,
  "poised": 22303,
  "paving": 28007,
  "sellers": 19041,
  "integral": 9897,
  "]": 1033,
  "intervention": 8830,
  "corey": 18132,
  "##ched": 7690,
  "relieved": 7653,
  "oscar": 7436,
  "retain": 9279,
  "continue": 3613,
  "##\u099a": 29892,
  "curses": 23897,
  "audition": 14597,
  "hurling": 10839,
  "lukas": 23739,
  "taller": 12283,
  "##isches": 27239,
  "emerge": 12636,
  "districts": 4733,
  "mold": 18282,
  "lengthy": 12401,
  "fortune": 7280,
  "##lian": 15204,
  "decidedly": 27873,
  "vie": 20098,
  "##stad": 16917,
  "warned": 7420,
  "janata": 20308,
  "##tile": 15286,
  "##dini": 26039,
  "##rocity": 21735,
  "interfaces": 19706,
  "impending": 17945,
  "##tt": 4779,
  "crush": 10188,
  "involvement": 6624,
  "mysterious": 8075,
  "fortification": 23050,
  "mouths": 15076,
  "##oshi": 24303,
  "garbage": 13044,
  "endowed": 19038,
  "juliana": 24157,
  "tipped": 11182,
  "analogy": 23323,
  "jealousy": 14225,
  "drought": 14734,
  "boise": 23193,
  "##zziness": 29212,
  "rapidly": 5901,
  "defense": 3639,
  "silence": 4223,
  "hesitant": 20221,
  "##smith": 21405,
  "kitchener": 27154,
  "shock": 5213,
  "##tage": 26702,
  "effects": 3896,
  "theorists": 28442,
  "today": 2651,
  "alarm": 8598,
  "##quent": 15417,
  "brigadier": 9900,
  "##sc": 11020,
  "tomorrow": 4826,
  "##\u5ddd": 30361,
  "newscasts": 24482,
  "imagination": 9647,
  "knocking": 10591,
  "curriculum": 8882,
  "bharatiya": 24243,
  "shone": 14707,
  "paint": 6773,
  "sicily": 12071,
  "##lwyn": 29287,
  "packages": 14555,
  "fugitive": 21329,
  "##\u6238": 30383,
  "fire": 2543,
  "##af": 10354,
  "synth": 24203,
  "\u4e00": 1740,
  "[unused941]": 946,
  "olympia": 17096,
  "jared": 8334,
  "distraught": 25348,
  "gabe": 12900,
  "schwartz": 16756,
  "owe": 12533,
  "fee": 7408,
  "##leen": 24129,
  "bill": 3021,
  "dwellings": 16707,
  "internally": 16058,
  "turks": 12896,
  "sparkled": 28092,
  "##\u30eb": 30259,
  "##\u3081": 30206,
  "##\u30b1": 30229,
  "##dun": 27584,
  "awakening": 16936,
  "leiden": 20329,
  "146": 16333,
  "engagement": 8147,
  "##kumar": 18494,
  "giles": 13287,
  "super": 3565,
  "##bot": 18384,
  "solicitor": 15468,
  "striker": 11854,
  "facades": 28708,
  "sonia": 16244,
  "floats": 24885,
  "arrondissement": 20522,
  "[unused22]": 23,
  "bile": 23974,
  "vinnie": 24214,
  "tractor": 16358,
  "\u306f": 1672,
  "##\u266f": 30154,
  "encourage": 8627,
  "servers": 14903,
  "replacement": 6110,
  "deep": 2784,
  "##tm": 21246,
  "##gingly": 28392,
  "mission": 3260,
  "sovereign": 11074,
  "planet": 4774,
  "sailed": 7434,
  "##missible": 26770,
  "lifespan": 26462,
  "cheek": 5048,
  "mao": 15158,
  "\u00b7": 1087,
  "disclose": 26056,
  "sufi": 21845,
  "neighborhoods": 11681,
  "despair": 13905,
  "ninth": 6619,
  "visited": 4716,
  "academic": 3834,
  "##ys": 7274,
  "##truct": 18300,
  "crops": 8765,
  "concentrate": 10152,
  "louise": 8227,
  "anatolia": 23747,
  "[unused661]": 666,
  "747": 25374,
  "convenience": 15106,
  "choir": 6596,
  "##\u209b": 30098,
  "[unused840]": 845,
  "preparatory": 13485,
  "rode": 8469,
  "ideally": 28946,
  "pounding": 9836,
  "[unused244]": 249,
  "##erate": 22139,
  "##wig": 16279,
  "officially": 3985,
  "mead": 19855,
  "sgt": 17001,
  "errors": 10697,
  "##bau": 27773,
  "westwood": 21730,
  "noticed": 4384,
  "\u8ecd": 1955,
  "neck": 3300,
  "peggy": 14911,
  "talon": 19048,
  "often": 2411,
  "weekdays": 19759,
  "mixer": 23228,
  "bombers": 10544,
  "malay": 12605,
  "imprint": 15738,
  "chico": 22136,
  "eased": 10987,
  "##ught": 18533,
  "pleistocene": 25080,
  "electricity": 6451,
  "transmit": 19818,
  "swell": 18370,
  "ridge": 5526,
  "1773": 19916,
  "barnet": 26864,
  "stage": 2754,
  "\u00b4": 1084,
  "raging": 17559,
  "campos": 26925,
  "injuring": 22736,
  "##holes": 19990,
  "ives": 23945,
  "glowing": 10156,
  "civil": 2942,
  "##works": 9316,
  "##rent": 22787,
  "sensitivity": 14639,
  "smallpox": 25765,
  "##hen": 10222,
  "adorable": 23677,
  "##\u06a9": 29841,
  "fellows": 13572,
  "shortage": 15843,
  "vancouver": 6930,
  "[unused957]": 962,
  "##ups": 22264,
  "sex": 3348,
  "just": 2074,
  "mu": 14163,
  "muller": 12304,
  "stereotypes": 22807,
  "##gonal": 20028,
  "asha": 24595,
  "receptions": 16466,
  "##\u624b": 30384,
  "1618": 29029,
  "champagne": 12327,
  "pilgrim": 21214,
  "##\u961d": 30496,
  "damian": 19507,
  "existed": 5839,
  "##\u4ecb": 30285,
  "lids": 26122,
  "recruitment": 15680,
  "nocturnal": 23789,
  "hive": 26736,
  "hamas": 22129,
  "bonn": 19349,
  "libraries": 8860,
  "\u4e45": 1748,
  "oskar": 28626,
  "fantastic": 10392,
  "report": 3189,
  "convoy": 9549,
  "##tangle": 23395,
  "##gua": 19696,
  "attackers": 17857,
  "##dah": 18417,
  "##till": 28345,
  "##liner": 20660,
  "reeve": 20726,
  "erasmus": 26809,
  "\u091a": 1318,
  "evidence": 3350,
  "guiding": 14669,
  "collaborate": 20880,
  "##lain": 15987,
  "restore": 9239,
  "wife": 2564,
  "doorway": 7086,
  "\u6c5f": 1897,
  "australians": 15739,
  "##\u624c": 30385,
  "province": 2874,
  "defenses": 13345,
  "crambidae": 21585,
  "xii": 14371,
  "plagued": 17808,
  "din": 11586,
  "satisfied": 8510,
  "creole": 21414,
  "annabelle": 24722,
  "lakeside": 28701,
  "jake": 5180,
  "arabia": 9264,
  "##al": 2389,
  "dorian": 16092,
  "freeing": 22198,
  "thinks": 6732,
  "##\u592b": 30339,
  "leith": 29011,
  "[unused553]": 558,
  "portrays": 17509,
  "seventeen": 9171,
  "stepmother": 26959,
  "##rooms": 29020,
  "stealing": 11065,
  "contacts": 10402,
  "mp3": 23378,
  "##ulsion": 23316,
  "framing": 20241,
  "##hausen": 13062,
  "martinique": 29365,
  "##ial": 4818,
  "burst": 6532,
  "pedestrians": 24946,
  "ivan": 7332,
  "phillips": 8109,
  "1784": 16496,
  "luftwaffe": 17740,
  "##rogate": 21799,
  "##[": 29634,
  "327": 28469,
  "faculties": 18658,
  "japan": 2900,
  "feature": 3444,
  "needy": 23927,
  "\u116e": 1478,
  "nut": 17490,
  "spaceship": 25516,
  "forearms": 27323,
  "battleship": 17224,
  "convoys": 23083,
  "machines": 6681,
  "##urbed": 29595,
  "rolf": 23381,
  "[unused481]": 486,
  "remorse": 23124,
  "morphological": 24012,
  "##holders": 17794,
  "weekday": 16904,
  "badge": 10780,
  "philosophers": 17586,
  "bulb": 20581,
  "otago": 21831,
  "mathematical": 8045,
  "##ductive": 26638,
  "##ogo": 22844,
  "guzman": 22789,
  "pointed": 4197,
  "sporadic": 24590,
  "production": 2537,
  "atlanta": 5865,
  "%": 1003,
  "severe": 5729,
  "##nath": 16207,
  "slayer": 20005,
  "inducing": 29290,
  "disdain": 25134,
  "parentheses": 27393,
  "genetic": 7403,
  "asthma": 26180,
  "baba": 14208,
  "##zd": 26494,
  "sting": 12072,
  "mae": 11530,
  "daughters": 5727,
  "##bians": 26376,
  "tt": 23746,
  "greenwood": 16827,
  "tournament": 2977,
  "dalton": 12413,
  "[unused824]": 829,
  "destroyer": 9799,
  "##writing": 18560,
  "\u2030": 1530,
  "priory": 14284,
  "176": 18561,
  "\u702c": 1905,
  "turn": 2735,
  "##amps": 25167,
  "accounts": 6115,
  "nokia": 22098,
  "continual": 27222,
  "##no": 3630,
  "##vity": 24872,
  "surveys": 12265,
  "strawberry": 16876,
  "16th": 5767,
  "greeting": 14806,
  "##eri": 11124,
  "stalled": 20659,
  "cloak": 11965,
  "postdoctoral": 29272,
  "pleading": 16418,
  "borne": 15356,
  "gunners": 29000,
  "resurgence": 26303,
  "intermediate": 7783,
  "above": 2682,
  "\u0f62": 1434,
  "avenue": 3927,
  "ye": 6300,
  "motorway": 13119,
  "sherlock": 20052,
  "elects": 27161,
  "##gaon": 27073,
  "##\u090f": 29850,
  "scottish": 4104,
  "##ve": 3726,
  "own": 2219,
  "swimmer": 13361,
  "myles": 27056,
  "bye": 9061,
  "divinity": 16968,
  "dar": 18243,
  "##ulated": 8898,
  "italianate": 25302,
  "##gens": 21230,
  "19th": 3708,
  "##ended": 21945,
  "rae": 14786,
  "clans": 16411,
  "watford": 21740,
  "viper": 17947,
  "maine": 7081,
  "farther": 8736,
  "fjord": 26158,
  "requires": 5942,
  "lower": 2896,
  "kung": 18577,
  "##\u0272": 29689,
  "catches": 11269,
  "fragments": 10341,
  "##bruck": 28985,
  "##gue": 9077,
  "labyrinth": 24239,
  "##rgan": 16998,
  "cm": 4642,
  "stroking": 14943,
  "##issa": 21205,
  "[unused736]": 741,
  "##umatic": 25360,
  "##dda": 25062,
  "endeavors": 28809,
  "[unused832]": 837,
  "pieces": 4109,
  "\u0bb3": 1393,
  "\u6a4b": 1885,
  "shelly": 28360,
  "belize": 18867,
  "witnesses": 9390,
  "suites": 19796,
  "burn": 6402,
  "grandpa": 15310,
  "[unused260]": 265,
  "order": 2344,
  "\u30ea": 1732,
  "galician": 28830,
  "arms": 2608,
  "##uck": 12722,
  "topical": 25665,
  "alliances": 21277,
  "samsung": 19102,
  "printers": 23557,
  "##\u2ebc": 30159,
  "phillip": 10852,
  "tatiana": 22725,
  "docked": 25727,
  "grin": 5861,
  "impressed": 7622,
  "brother": 2567,
  "rocker": 24779,
  "supervising": 21238,
  "medallion": 22541,
  "amin": 24432,
  "##\uff0e": 30517,
  "binding": 8031,
  "##fl": 10258,
  "wayne": 6159,
  "vivian": 13801,
  "richest": 18429,
  "painting": 4169,
  "mariano": 22695,
  "thump": 21324,
  "glistening": 25203,
  "nobles": 13969,
  "##\u0432": 25529,
  "addition": 2804,
  "dead": 2757,
  "michaels": 17784,
  "\u6b4c": 1886,
  "obligation": 14987,
  "brittle": 24650,
  "bang": 9748,
  "mathews": 23287,
  "princes": 12000,
  "bari": 22466,
  "jingle": 29262,
  "##tated": 16238,
  "##a": 2050,
  "spite": 8741,
  "unease": 27880,
  "clemson": 25906,
  "##hus": 9825,
  "\u30d5": 1720,
  "cdc": 26629,
  "repertoire": 13646,
  "demolished": 7002,
  "meek": 28997,
  "poetry": 4623,
  "terrestrial": 12350,
  "greenish": 23753,
  "nike": 18368,
  "##nay": 16741,
  "telangana": 23764,
  "self": 2969,
  "##aton": 22436,
  "##\u30b7": 30232,
  "davy": 23255,
  "milling": 22491,
  "##ness": 2791,
  "nano": 28991,
  "##ir": 4313,
  "ranging": 7478,
  "lemon": 14380,
  "##\u2096": 30094,
  "##xa": 18684,
  "newcastle": 8142,
  "wasps": 23146,
  "##tly": 14626,
  "##ided": 14097,
  "monastic": 17361,
  "##cliffe": 18115,
  "goodnight": 22708,
  "##ame": 14074,
  "##yman": 17906,
  "maurice": 7994,
  "extensively": 8077,
  "drawings": 9254,
  "stride": 18045,
  "[unused809]": 814,
  "boutique": 24611,
  "limited": 3132,
  "edmonton": 10522,
  "ras": 20710,
  "wetlands": 16630,
  "shortest": 20047,
  "##edly": 26207,
  "##com": 9006,
  "\u5730": 1802,
  "comprehension": 26683,
  "example": 2742,
  "1670": 26253,
  "prose": 12388,
  "##mined": 25089,
  "\u09a5": 1363,
  "interest": 3037,
  "beside": 3875,
  "##vac": 24887,
  "estonian": 12029,
  "peek": 19043,
  "kepler": 28219,
  "author": 3166,
  "##kon": 19648,
  "##cision": 28472,
  "banquet": 19032,
  "ponder": 29211,
  "offence": 15226,
  "##ally": 3973,
  "converge": 28314,
  "##ors": 5668,
  "demand": 5157,
  "hunters": 9624,
  "lap": 5001,
  "boasted": 23390,
  "singapore": 5264,
  "reynolds": 9579,
  "augusta": 13635,
  "1650": 21875,
  "echoes": 17659,
  "##phobia": 24920,
  "undefeated": 15188,
  "##yst": 27268,
  "whirled": 17097,
  "accordance": 10388,
  "ipswich": 15435,
  "susanna": 26681,
  "signage": 29404,
  "portrayal": 13954,
  "moist": 11052,
  "cumberland": 12310,
  "oppressive": 28558,
  "verify": 20410,
  "mata": 22640,
  "remarkable": 9487,
  "##vel": 15985,
  "propulsion": 16404,
  "welles": 23447,
  "sob": 17540,
  "racks": 27259,
  "melinda": 23721,
  "[unused177]": 182,
  "##llas": 25816,
  "unbearable": 24257,
  "pts": 19637,
  "##drik": 28730,
  "[unused429]": 434,
  "##ettes": 26592,
  "vulnerable": 8211,
  "\u1d9c": 1511,
  "##\u2190": 30111,
  "hurst": 26405,
  "hurried": 9520,
  "first": 2034,
  "scar": 11228,
  "##\u6c11": 30418,
  "het": 21770,
  "lana": 16554,
  "fried": 13017,
  "reeves": 17891,
  "advent": 13896,
  "mum": 12954,
  "##lington": 18722,
  "##ioms": 29178,
  "adopting": 16151,
  "##ivism": 22486,
  "diplomats": 23473,
  "appear": 3711,
  "zhu": 15503,
  "fly": 4875,
  "leasing": 26707,
  "arithmetic": 20204,
  "##itor": 15660,
  "ascending": 22316,
  "produces": 7137,
  "somerset": 9198,
  "marriages": 12743,
  "##uen": 24997,
  "hopper": 20517,
  "grassroots": 23299,
  "history": 2381,
  "mischief": 25166,
  "bridges": 7346,
  "scared": 6015,
  "scents": 29254,
  "\u221e": 1601,
  "##lts": 21593,
  "executive": 3237,
  "bangkok": 12627,
  "lets": 11082,
  "guard": 3457,
  "##eux": 20860,
  "implicated": 20467,
  "grasp": 10616,
  "asking": 4851,
  "decrease": 9885,
  "theta": 23963,
  "##nted": 14706,
  "lagoon": 15825,
  "tramway": 17050,
  "##ur": 3126,
  "ko": 12849,
  "hong": 4291,
  "luxembourg": 10765,
  "\u21c4": 1589,
  "higgins": 13466,
  "gandhi": 12338,
  "picked": 3856,
  "uploaded": 21345,
  "scenes": 5019,
  "##wi": 9148,
  "derivation": 29280,
  "downfall": 22252,
  "unbroken": 29505,
  "luzon": 21622,
  "\u3063": 1663,
  "##cus": 7874,
  "advise": 18012,
  "leather": 5898,
  "[unused190]": 195,
  "satirical": 17251,
  "philip": 5170,
  "##lov": 14301,
  "comprises": 8681,
  "##kar": 6673,
  "hardcover": 20990,
  "roberto": 10704,
  "champ": 24782,
  "settles": 27221,
  "pont": 21179,
  "newmarket": 22489,
  "term": 2744,
  "stale": 26729,
  "tunisia": 13437,
  "efficiency": 8122,
  "##mona": 21781,
  "##ava": 12462,
  "many": 2116,
  "overseen": 22485,
  "##\u06be": 29844,
  "[unused990]": 995,
  "oak": 6116,
  "##yad": 25152,
  "combinations": 14930,
  "pursuit": 8463,
  "achieved": 4719,
  "##gy": 6292,
  "magistrate": 14351,
  "moritz": 28461,
  "urging": 14328,
  "chick": 14556,
  "volkswagen": 18817,
  "correspondent": 11370,
  "tricked": 24929,
  "##ety": 27405,
  "\u09ad": 1369,
  "thy": 15177,
  "commencing": 25819,
  "recover": 8980,
  "practice": 3218,
  "##feld": 8151,
  "56": 5179,
  "##odes": 19847,
  "ankles": 15392,
  "\u00a7": 1073,
  "arboretum": 25197,
  "stimuli": 22239,
  "[unused17]": 18,
  "holstein": 18864,
  "##\u110b": 29999,
  "pleased": 7537,
  "lasting": 9879,
  "simulated": 23599,
  "atv": 29108,
  "##ifolia": 29244,
  "silly": 10021,
  "##riety": 27840,
  "##mide": 24284,
  "395": 24673,
  "shake": 6073,
  "sloping": 24724,
  "[unused921]": 926,
  "manifest": 19676,
  "global": 3795,
  "reply": 7514,
  "lastly": 22267,
  "cotton": 6557,
  "##grating": 28183,
  "pods": 26723,
  "antibody": 27781,
  "though": 2295,
  "\u65e5": 1864,
  "dad": 3611,
  "captivity": 16187,
  "metis": 26057,
  "cautiously": 15151,
  "hai": 15030,
  "\u592b": 1813,
  "##pta": 22799,
  "australian": 2827,
  "locating": 26339,
  "[unused125]": 130,
  "[unused335]": 340,
  "##\u0f63": 29971,
  "tick": 16356,
  "##jected": 24455,
  "blizzard": 21689,
  "singing": 4823,
  "sympathetic": 13026,
  "popularized": 20339,
  "bargain": 17113,
  "##\u9234": 30491,
  "optimization": 20600,
  "\u66f2": 1870,
  "##\u0142": 18818,
  "scala": 26743,
  "pit": 6770,
  "puck": 22900,
  "novice": 23131,
  "disturbing": 14888,
  "55th": 29075,
  "neal": 11030,
  "jars": 25067,
  "brunei": 18692,
  "county": 2221,
  "perpetrators": 27675,
  "##optera": 25324,
  "rugby": 4043,
  "communicate": 10639,
  "178": 19289,
  "##ffa": 20961,
  "axes": 19589,
  "probation": 19703,
  "##vern": 23062,
  "[unused350]": 355,
  "pulsing": 23139,
  "##tten": 25970,
  "dedicated": 4056,
  "est": 9765,
  "rake": 26008,
  "corrosion": 24625,
  "stacy": 18566,
  "leipzig": 11222,
  "##ville": 3077,
  "tokugawa": 22065,
  "##rrell": 14069,
  "concourse": 28571,
  "ruse": 26307,
  "\u0434": 1184,
  "##bib": 28065,
  "##logie": 27095,
  "which": 2029,
  "ranges": 8483,
  "##may": 27871,
  "abbey": 6103,
  "246": 22376,
  "tremble": 20627,
  "incorporating": 13543,
  "clumsy": 22902,
  "##old": 11614,
  "ira": 11209,
  "oricon": 22237,
  "##ifer": 23780,
  "reform": 5290,
  "turk": 22883,
  "yuan": 11237,
  "##ieu": 17301,
  "pharmacy": 13882,
  "##gi": 5856,
  "eleventh": 11911,
  "##ean": 11219,
  "masonry": 18103,
  "rfc": 14645,
  "phrase": 7655,
  "##tling": 15073,
  "##rai": 14995,
  "##laya": 22923,
  "##hesis": 24124,
  "##elle": 14774,
  "middletown": 28747,
  "graduate": 4619,
  "boats": 6242,
  "339": 28977,
  "##ger": 4590,
  "by": 2011,
  "##kr": 21638,
  "##tino": 25690,
  "conspicuous": 19194,
  "philippe": 11169,
  "heal": 11005,
  "compose": 17202,
  "robe": 11111,
  "agriculture": 5237,
  "ripping": 17039,
  "##ignon": 24796,
  "buy": 4965,
  "cavendish": 23570,
  "misconduct": 23337,
  "supper": 15264,
  "nests": 17415,
  "##itarian": 25691,
  "nick": 4172,
  "pictures": 4620,
  "4000": 20143,
  "unaware": 11499,
  "boarded": 17383,
  "##zine": 21254,
  "##nger": 11392,
  "[unused648]": 653,
  "##jun": 19792,
  "pools": 12679,
  "menacing": 24060,
  "a": 1037,
  "\u5c07": 1828,
  "filter": 11307,
  "liberated": 19553,
  "cindy": 15837,
  "airship": 27636,
  "tracey": 25984,
  "memoir": 12558,
  "armed": 4273,
  "subsp": 24807,
  "doc": 9986,
  "infiltrate": 29543,
  "orchestrated": 23339,
  "##pan": 9739,
  "tempting": 23421,
  "frequency": 6075,
  "barber": 13362,
  "hodgson": 26107,
  "subgenus": 25356,
  "darted": 14051,
  "unsafe": 25135,
  "player": 2447,
  "2020": 12609,
  "overwhelming": 10827,
  "electrified": 18042,
  "##bant": 29604,
  "##b": 2497,
  "brandt": 19407,
  "##uss": 17854,
  "tottenham": 18127,
  "inactivated": 15663,
  "ginger": 14580,
  "section": 2930,
  "405": 23988,
  "fog": 9666,
  "##ogy": 15707,
  "lateral": 11457,
  "magna": 20201,
  "##\u30d8": 30247,
  "[unused283]": 288,
  "302": 22060,
  "argentine": 8511,
  "joachim": 17286,
  "[unused14]": 15,
  "snout": 17291,
  "di": 4487,
  ",": 1010,
  "[unused460]": 465,
  "places": 3182,
  "chester": 8812,
  "rom": 17083,
  "kicks": 14590,
  "episcopal": 9134,
  "responsibilities": 10198,
  "water": 2300,
  "convened": 19596,
  "axel": 18586,
  "sheen": 20682,
  "##\u0f54": 29966,
  "boxing": 8362,
  "hesse": 16399,
  "##llan": 19036,
  "linnaeus": 21610,
  "tennessee": 5298,
  "images": 4871,
  "[unused378]": 383,
  "lincoln": 5367,
  "reporting": 7316,
  "headlined": 25214,
  "exists": 6526,
  "relating": 8800,
  "drip": 27304,
  "glimpse": 12185,
  "##sei": 20240,
  "m1": 23290,
  "##fle": 21031,
  "raion": 24235,
  "immature": 26838,
  "##ging": 4726,
  "certainty": 15855,
  "libertadores": 27968,
  "mean": 2812,
  "guess": 3984,
  "##oge": 23884,
  "##some": 14045,
  "cristina": 22246,
  "roaming": 24430,
  "\u0645": 1295,
  "\u307e": 1677,
  "[unused491]": 496,
  "attic": 14832,
  "cues": 23391,
  "nicholson": 16955,
  "pollard": 25513,
  "viscount": 12182,
  "chuck": 8057,
  "meg": 12669,
  "##tman": 22942,
  "engage": 8526,
  "41st": 24233,
  "flies": 10029,
  "\u2227": 1602,
  "##mise": 28732,
  "harbor": 6496,
  "tasted": 12595,
  "traveller": 21916,
  "experiences": 6322,
  "tasha": 25448,
  "waiter": 15610,
  "[unused25]": 26,
  "cheerleading": 25721,
  "##as": 3022,
  "trait": 18275,
  "decree": 10037,
  "##ks": 5705,
  "##nsis": 11745,
  "substances": 13978,
  "[unused637]": 642,
  "momentarily": 16032,
  "charms": 24044,
  "didn": 2134,
  "chapman": 11526,
  "nico": 19332,
  "nas": 17235,
  "am": 2572,
  "279": 25745,
  "\u02b2": 1141,
  "\u0e15": 1411,
  "##mium": 27759,
  "publishers": 8544,
  "demi": 27668,
  "[unused404]": 409,
  "boom": 8797,
  "soaring": 23990,
  "2010s": 26817,
  "1842": 10008,
  "defender": 8291,
  "mort": 22294,
  "composition": 5512,
  "fragment": 15778,
  "government": 2231,
  "##lda": 15150,
  "##\u9673": 30498,
  "landmark": 8637,
  "##ush": 20668,
  "raid": 8118,
  "[unused84]": 85,
  "williamson": 14333,
  "cosmopolitan": 24686,
  "\u592a": 1812,
  "bat": 7151,
  "newtown": 26382,
  "\u092f": 1332,
  "##\u653f": 30386,
  "synod": 15374,
  "ticket": 7281,
  "room": 2282,
  "kidd": 25358,
  "chaplin": 23331,
  "eden": 10267,
  "premier": 4239,
  "##\u2666": 30153,
  "bike": 7997,
  "cds": 14340,
  "beit": 28236,
  "##\u0e40": 29959,
  "fixtures": 17407,
  "##yria": 20379,
  "baritone": 14458,
  "pitt": 15091,
  "##ras": 8180,
  "##omo": 19506,
  "branched": 21648,
  "readers": 8141,
  "processed": 13995,
  "supplements": 25654,
  "##powering": 23948,
  "pinch": 18392,
  "##\u0baa": 29924,
  "##erton": 20995,
  "authoritative": 23949,
  "[unused834]": 839,
  "collarbone": 29600,
  "yet": 2664,
  "niall": 21889,
  "sling": 27076,
  "daze": 28918,
  "wall": 2813,
  "airplay": 15341,
  "wilbur": 26151,
  "educational": 4547,
  "pose": 13382,
  "##%": 29616,
  "##plate": 15725,
  "snapping": 15790,
  "sheds": 25999,
  "leaning": 6729,
  "100": 2531,
  "kn": 14161,
  "taxi": 10095,
  "\u2218": 1599,
  "bicycles": 21066,
  "mali": 16007,
  "##wley": 20609,
  "curb": 13730,
  "crystal": 6121,
  "organizing": 10863,
  "##oed": 29099,
  "##bre": 13578,
  "mcgrath": 23220,
  "demons": 7942,
  "synagogue": 13067,
  "profoundly": 28089,
  "##odle": 26156,
  "vinyl": 8877,
  "collapsed": 7798,
  "rms": 29311,
  "copies": 4809,
  "practical": 6742,
  "ti": 14841,
  "1000": 6694,
  "peabody": 20004,
  "guerrillas": 26955,
  "##x": 2595,
  "tonic": 28157,
  "05": 5709,
  "bridget": 19218,
  "##lle": 6216,
  "viewed": 7021,
  "##lvis": 28530,
  "##uating": 24133,
  "lockheed": 17646,
  "conner": 17639,
  "og": 13958,
  "nasser": 26099,
  "simon": 4079,
  "[unused894]": 899,
  "##\u5065": 30294,
  "films": 3152,
  "##saka": 29289,
  "shortstop": 25359,
  "directorate": 13634,
  "[unused346]": 351,
  "sparta": 21251,
  "faber": 21720,
  "contained": 4838,
  "cinematography": 16434,
  "dh": 28144,
  "1959": 3851,
  "traumatic": 19686,
  "sultan": 7544,
  "##\u028c": 29700,
  "vichy": 29177,
  "appropriate": 6413,
  "92": 6227,
  "##ttle": 26328,
  "taunting": 29442,
  "##ridge": 9438,
  "locomotives": 7830,
  "resurrection": 15218,
  "authentic": 14469,
  "##g": 2290,
  "recycling": 17874,
  "warwick": 13283,
  "##\u30a3": 30220,
  "raiders": 10642,
  "skin": 3096,
  "tribunal": 12152,
  "humor": 8562,
  "mouthed": 20521,
  "nacional": 10718,
  "recess": 28290,
  "173": 19410,
  "##books": 17470,
  "privateer": 26790,
  "gentlemen": 11218,
  "fauna": 15018,
  "##quest": 15500,
  "[unused172]": 177,
  "kunst": 28145,
  "##lho": 28061,
  "\u5065": 1768,
  "lowry": 27281,
  "mole": 16709,
  "descend": 18855,
  "blah": 27984,
  "scorpion": 22015,
  "260": 13539,
  "issues": 3314,
  "##lessly": 10895,
  "##\u0252": 29678,
  "ponds": 16879,
  "##oulos": 28262,
  "specimens": 9908,
  "##urrent": 29264,
  "tenderly": 26596,
  "crystals": 14438,
  "##dre": 16200,
  "pew": 29071,
  "hymn": 14825,
  "##alo": 23067,
  "surrounding": 4193,
  "##link": 13767,
  "punches": 17957,
  "ignition": 17446,
  "munoz": 23685,
  "populated": 10357,
  "##mal": 9067,
  "flourish": 24299,
  "exhaustion": 15575,
  "ao": 20118,
  "##inho": 29344,
  "##bbies": 27982,
  "[unused214]": 219,
  "confiscated": 17182,
  "then": 2059,
  "farms": 8623,
  "darkest": 23036,
  "poster": 13082,
  "celia": 18020,
  "durham": 9296,
  "textile": 12437,
  "mathew": 25436,
  "nods": 11232,
  "[unused731]": 736,
  "par": 11968,
  "banda": 24112,
  "immediately": 3202,
  "generates": 19421,
  "lectured": 19206,
  "ee": 25212,
  "##ifies": 14144,
  "embarked": 11299,
  "yucatan": 28631,
  "[unused1]": 2,
  "##arians": 28369,
  "##lux": 25148,
  "##ms": 5244,
  "##cuting": 29163,
  "##zquez": 22938,
  "although": 2348,
  "##field": 3790,
  "##aman": 23093,
  "zoology": 22405,
  "permission": 6656,
  "doi": 9193,
  "striped": 17983,
  "nomenclature": 23718,
  "##sted": 14701,
  "hilt": 21184,
  "##\u00be": 29665,
  "##\u6708": 30398,
  "chihuahua": 28480,
  "poem": 5961,
  "##foot": 13064,
  "spawning": 27957,
  "cyclone": 11609,
  "preacher": 14512,
  "tinted": 25577,
  "\u0444": 1199,
  "python": 18750,
  "valor": 27314,
  "bonded": 20886,
  "##duction": 16256,
  "secrets": 7800,
  "recounted": 22906,
  "##rad": 12173,
  "marlene": 26921,
  "bentley": 15988,
  "widely": 4235,
  "##bola": 24290,
  "luca": 15604,
  "ostensibly": 23734,
  "##\u00f0": 29668,
  "\u694a": 1883,
  "[unused956]": 961,
  "kapoor": 17129,
  "jody": 27562,
  "restarted": 25606,
  "##day": 10259,
  "afl": 10028,
  "\u0932": 1334,
  "##carriage": 21539,
  "##iom": 18994,
  "shatter": 27271,
  "held": 2218,
  "[unused62]": 63,
  "nitrate": 29607,
  "hallmark": 25812,
  "domains": 13100,
  "##vyn": 23487,
  "##tham": 22536,
  "boxer": 10423,
  "morgan": 5253,
  "wright": 6119,
  "amtrak": 20208,
  "##lf": 10270,
  "tendencies": 20074,
  "behaviour": 9164,
  "hydro": 18479,
  "virtually": 8990,
  "##tius": 22638,
  "mcconnell": 28514,
  "##rred": 20529,
  "perfume": 17013,
  "pills": 15345,
  "rhapsody": 29395,
  "unnecessary": 14203,
  "narrows": 25142,
  "ballads": 18456,
  "hers": 5106,
  "napoleonic": 18813,
  "mustard": 23187,
  "courage": 8424,
  "##gny": 19393,
  "miniature": 12973,
  "memorable": 13432,
  "malaria": 19132,
  "aqua": 28319,
  "##gree": 28637,
  "norwood": 22804,
  "liga": 8018,
  "unavailable": 20165,
  "1931": 4739,
  "indeed": 5262,
  "chandler": 13814,
  "heirs": 15891,
  "1786": 17436,
  "1853": 8933,
  "ghz": 29066,
  "open": 2330,
  "##;": 29628,
  "sidekick": 29240,
  "prone": 13047,
  "##oda": 13390,
  "malley": 25271,
  "nobody": 6343,
  "owners": 5608,
  "celebrating": 12964,
  "deployment": 10813,
  "##yuki": 19663,
  "empathy": 26452,
  "followers": 8771,
  "recruited": 8733,
  "resentment": 20234,
  "gerald": 9659,
  "flag": 5210,
  "panels": 9320,
  "##kushima": 24917,
  "cis": 20199,
  "knots": 9439,
  "rests": 16626,
  "outspoken": 22430,
  "dieter": 27976,
  "interceptions": 18387,
  "interaction": 8290,
  "trouble": 4390,
  "intent": 7848,
  "disrupted": 20275,
  "rediscovered": 26733,
  "enclosure": 17539,
  "asa": 17306,
  "assortment": 26285,
  "1651": 29077,
  "344": 29386,
  "allocated": 11095,
  "[unused355]": 360,
  "hazy": 26710,
  "brass": 8782,
  "waltz": 17569,
  "scanned": 11728,
  "[unused500]": 505,
  "##cian": 14483,
  "##ssen": 14416,
  "marina": 9985,
  "archaeology": 12009,
  "##uc": 14194,
  "blake": 6511,
  "wilkes": 20635,
  "smashwords": 25151,
  "\u7af9": 1933,
  "[unused108]": 113,
  "fund": 4636,
  "\u20a9": 1573,
  "##ania": 13241,
  "molecule": 13922,
  "\u0443": 1198,
  "dipping": 23427,
  "continuum": 22961,
  "bwv": 23860,
  "sync": 26351,
  "lone": 10459,
  "pipe": 8667,
  "avoided": 9511,
  "disappointed": 9364,
  "##awan": 25903,
  "chancellor": 7306,
  "regulatory": 10738,
  "##jet": 15759,
  "superior": 6020,
  "crusade": 16282,
  "steamed": 21734,
  "sneaking": 20727,
  "[unused867]": 872,
  "##\u99ac": 30506,
  "short": 2460,
  "thistle": 24328,
  "duchess": 11017,
  "irrational": 23179,
  "pretending": 12097,
  "[unused436]": 441,
  "beetle": 7813,
  "##gra": 17643,
  "mccann": 28641,
  "##chs": 18069,
  "##ception": 24422,
  "\u6f22": 1904,
  "programmes": 8497,
  "##inian": 15830,
  "pandit": 29331,
  "engaged": 5117,
  "scraping": 23704,
  "fisherman": 19949,
  "bacteria": 10327,
  "wheelchair": 13204,
  "pediatric": 23614,
  "##\u2192": 30113,
  "##terol": 27833,
  "pas": 14674,
  "hasan": 17000,
  "\u092c": 1329,
  "yunnan": 21607,
  "\u2086": 1553,
  "notre": 10289,
  "##lot": 10994,
  "##\u05e6": 29809,
  "context": 6123,
  "reset": 25141,
  "##\u6d77": 30428,
  "36": 4029,
  "sides": 3903,
  "1940": 3878,
  "nawab": 26543,
  "underneath": 7650,
  "sic": 14387,
  "bosnia": 9562,
  "prompting": 15870,
  "overview": 19184,
  "lauren": 10294,
  "##tropical": 25528,
  "email": 10373,
  "lavish": 22689,
  "maintained": 5224,
  "[unused287]": 292,
  "faulkner": 25109,
  "galleries": 11726,
  "whose": 3005,
  "occupy": 11494,
  "##bedo": 28759,
  "consolidation": 17439,
  "utilization": 27891,
  "\u2261": 1607,
  "orphans": 21478,
  "[unused904]": 909,
  "philology": 29286,
  "exhausted": 9069,
  "bronze": 4421,
  "moaned": 12557,
  "chip": 9090,
  "moral": 7191,
  "##americana": 27026,
  "denton": 23906,
  "##ately": 28239,
  "colby": 18650,
  "drops": 9010,
  "##ged": 5999,
  "deposit": 12816,
  "sugarcane": 28910,
  "education": 2495,
  "representative": 4387,
  "##hila": 26415,
  "uttered": 20947,
  "age": 2287,
  "airfield": 9087,
  "consolation": 24831,
  "[unused969]": 974,
  "respiratory": 16464,
  "\u5929": 1811,
  "1642": 24061,
  "##sie": 11741,
  "huh": 9616,
  "monitoring": 8822,
  "chances": 9592,
  "404": 24837,
  "editions": 6572,
  "punk": 7196,
  "bonds": 9547,
  "creep": 19815,
  "profits": 11372,
  "##ede": 14728,
  "##oud": 19224,
  "##cultural": 29415,
  "##islaus": 25678,
  "catalogue": 10161,
  "bilbao": 25427,
  "erik": 10240,
  "##1": 2487,
  "imagined": 8078,
  "\u0274": 1124,
  "tunis": 25317,
  "mala": 28935,
  "##gging": 12588,
  "expects": 24273,
  "orderly": 23589,
  "##eka": 19025,
  "oversight": 15709,
  "tolerance": 13986,
  "dub": 12931,
  "easter": 10957,
  "sabotage": 20223,
  "brno": 28634,
  "trailing": 12542,
  "sentenced": 7331,
  "galaxies": 21706,
  "leaking": 24325,
  "spectacle": 21177,
  "argyle": 26503,
  "pot": 8962,
  "jenks": 15119,
  "saxophonist": 19977,
  "1739": 25801,
  "[unused917]": 922,
  "inhabited": 9613,
  "cents": 16653,
  "jaime": 14519,
  "\u05d4": 1245,
  "wilcox": 23926,
  "portals": 27388,
  "[unused530]": 535,
  "##alle": 24164,
  "selena": 19166,
  "witnessed": 9741,
  "razor": 15082,
  "yeshiva": 22142,
  "camel": 19130,
  "fans": 4599,
  "siding": 17326,
  "emeritus": 12372,
  "paved": 12308,
  "mile": 3542,
  "picks": 11214,
  "concord": 16557,
  "almeida": 29555,
  "brewery": 12161,
  "kisses": 8537,
  "270": 13756,
  "dimension": 9812,
  "love": 2293,
  "huff": 21301,
  "ordering": 13063,
  "thin": 4857,
  "[unused951]": 956,
  "oakland": 9182,
  "##orus": 21694,
  "weasel": 29268,
  "shifters": 21537,
  "existing": 4493,
  "waking": 12447,
  "neighbours": 14754,
  "##kovich": 28195,
  "urge": 9075,
  "waiting": 3403,
  "##dit": 23194,
  "merit": 7857,
  "ad": 4748,
  "pill": 17357,
  "nervous": 6091,
  "##used": 13901,
  "sly": 18230,
  "uh": 7910,
  "carolina": 3792,
  "emancipation": 22656,
  "monde": 23117,
  "stamped": 20834,
  "\u0584": 1239,
  "[unused444]": 449,
  "##tology": 23479,
  "[unused59]": 60,
  "shi": 11895,
  "formulated": 19788,
  "orion": 18747,
  "gwen": 11697,
  "economists": 22171,
  "sophia": 9665,
  "##bina": 21114,
  "\u5802": 1805,
  "exercised": 17747,
  "geography": 10505,
  "cornwall": 10387,
  "[unused150]": 155,
  "biographies": 22056,
  "venues": 9356,
  "##\u0bc7": 29934,
  "thoroughly": 12246,
  "[unused216]": 221,
  "[unused10]": 11,
  "displacement": 13508,
  "clandestine": 24450,
  "talmud": 24380,
  "lot": 2843,
  "ballot": 10428,
  "##uri": 9496,
  "substantive": 27737,
  "##47": 22610,
  "##kes": 9681,
  "donaldson": 23164,
  "slide": 7358,
  "unexpected": 9223,
  "archway": 28189,
  "sebastian": 6417,
  "september": 2244,
  "##khov": 25495,
  "##\u3072": 30199,
  "buick": 28865,
  "galactic": 21375,
  "matilda": 17981,
  "blind": 6397,
  "derives": 12153,
  "classics": 10002,
  "refuses": 10220,
  "bam": 25307,
  "moods": 27824,
  "2012": 2262,
  "bubbling": 25054,
  "insect": 14211,
  "ripped": 9157,
  "societies": 8384,
  "oriented": 8048,
  "carl": 5529,
  "sexy": 7916,
  "hormone": 18714,
  "depiction": 15921,
  "saloon": 17078,
  "mauritius": 18004,
  "lethal": 12765,
  "cinematographer": 19245,
  "wadi": 28380,
  "messages": 7696,
  "donkey": 20325,
  "##world": 11108,
  "gallantry": 22111,
  "loyalist": 23414,
  "pumping": 14107,
  "diagram": 16403,
  "currents": 14731,
  "transatlantic": 26617,
  "claudius": 25017,
  "82": 6445,
  "routines": 23964,
  "[unused789]": 794,
  "fernando": 9158,
  "immediate": 6234,
  "probably": 2763,
  "meditation": 13804,
  "elsewhere": 6974,
  "##plex": 19386,
  "autobiographical": 18534,
  "mar": 9388,
  "benfica": 26542,
  "\u0995": 1353,
  "##lston": 21540,
  "enveloped": 25407,
  "hummed": 26747,
  "##itors": 27287,
  "preserves": 18536,
  "entire": 2972,
  "nagoya": 24425,
  "croft": 28983,
  "militia": 8396,
  "wynn": 25328,
  "torment": 21741,
  "miriam": 16925,
  "appalachian": 19682,
  "founders": 8759,
  "respectful": 26438,
  "ultimatum": 29227,
  "vocal": 5554,
  "checked": 7039,
  "##\u4e0d": 30270,
  "malayalam": 12998,
  "directorial": 21635,
  "pension": 11550,
  "event": 2724,
  "winnie": 27125,
  "resign": 12897,
  "##\u0251": 29677,
  "current": 2783,
  "dwight": 14304,
  "naomi": 12806,
  "thigh": 10120,
  "college": 2267,
  "##cans": 26642,
  "##gam": 22864,
  "[unused105]": 110,
  "oxford": 4345,
  "occupations": 23374,
  "halftime": 22589,
  "repeating": 15192,
  "playstation": 9160,
  "##por": 17822,
  "ashamed": 14984,
  "186": 19609,
  "##bson": 27355,
  "pavilion": 10531,
  "transition": 6653,
  "progress": 5082,
  "reveal": 7487,
  "##shing": 12227,
  "lola": 15137,
  "##rail": 15118,
  "[unused891]": 896,
  "scales": 9539,
  "develops": 11791,
  "balcony": 11673,
  "[unused231]": 236,
  "1860s": 15914,
  "##fare": 17883,
  "padua": 24941,
  "wage": 11897,
  "clapped": 18310,
  "[unused979]": 984,
  "##sions": 27466,
  "convictions": 20488,
  "hawaii": 7359,
  "fossils": 11954,
  "enamel": 29484,
  "flags": 9245,
  "atomic": 9593,
  "tackles": 10455,
  "leukemia": 25468,
  "invitations": 29492,
  "large": 2312,
  "[unused711]": 716,
  "scrolls": 23074,
  "prohibits": 25822,
  "corrected": 13371,
  "[unused152]": 157,
  "siemens": 22108,
  "bourbon": 15477,
  "tournaments": 8504,
  "##under": 20824,
  "awaiting": 15497,
  "##ball": 7384,
  "hk": 22563,
  "officers": 3738,
  "catching": 9105,
  "vomit": 23251,
  "crop": 10416,
  "grocery": 13025,
  "challenger": 12932,
  "##llen": 12179,
  "underwear": 14236,
  "\u4e0b": 1743,
  "army": 2390,
  "variety": 3528,
  "maccabi": 24055,
  "leung": 26037,
  "scanner": 26221,
  "29": 2756,
  "towing": 28379,
  "unnoticed": 22719,
  "dex": 20647,
  "contests": 15795,
  "synthetic": 12553,
  "captain": 2952,
  "##\u03b1": 14608,
  "cameroon": 13841,
  "swallowed": 7351,
  "rees": 22131,
  "[unused167]": 172,
  "espana": 20678,
  "##aday": 28039,
  "roles": 4395,
  "mecca": 21340,
  "salvation": 12611,
  "\u4e95": 1754,
  "gates": 6733,
  "organized": 4114,
  "rams": 13456,
  "valkyrie": 26696,
  "crying": 6933,
  "oswald": 17411,
  "identical": 7235,
  "worms": 16253,
  "[unused157]": 162,
  "sparkling": 16619,
  "unusually": 12890,
  "friar": 25287,
  "defend": 6985,
  "clauses": 24059,
  "cognitive": 10699,
  "jozef": 23258,
  "##ivo": 20984,
  "##jer": 20009,
  "29th": 16318,
  "twitched": 16767,
  "2nd": 3416,
  "hang": 6865,
  "alpine": 10348,
  "milwaukee": 9184,
  "##lation": 13490,
  "##\u05ea": 29813,
  "parliamentary": 5768,
  "researcher": 10753,
  "##op": 7361,
  "reversed": 11674,
  "##\u0dba": 29940,
  "upstairs": 8721,
  "[unused66]": 67,
  "babu": 20948,
  "##ounded": 26240,
  "demetrius": 28367,
  "filmmaker": 12127,
  "five": 2274,
  "##neo": 23585,
  "colonists": 15526,
  "detainees": 26485,
  "gunner": 14850,
  "[unused911]": 916,
  "volvo": 21074,
  "lakshmi": 21352,
  "wang": 7418,
  "folly": 26272,
  "woody": 13703,
  "sheldon": 19369,
  "forcing": 6932,
  "trader": 17667,
  "##fast": 24333,
  "painted": 4993,
  "##\u0e23": 29953,
  "##mbo": 13344,
  "##va": 3567,
  "hapoel": 24208,
  "orbital": 13943,
  "haynes": 21805,
  "##\u4ec1": 30284,
  "\u0632": 1281,
  "dimensions": 9646,
  "ventilation": 19536,
  "virtual": 7484,
  "gleamed": 25224,
  "depart": 18280,
  "##belt": 21561,
  "abs": 14689,
  "##\u0932": 29870,
  "##ool": 13669,
  "##eim": 12112,
  "##te": 2618,
  "##ogist": 22522,
  "##kha": 15256,
  "injection": 13341,
  "accidents": 13436,
  "traits": 12955,
  "rack": 14513,
  "drink": 4392,
  "ashok": 28916,
  "quarter": 4284,
  "##tort": 25485,
  "smack": 21526,
  "catholicism": 16138,
  "##\u11bc": 30025,
  "southwest": 4943,
  "ac": 9353,
  "\u0f44": 1427,
  "##ingen": 15542,
  "wasp": 19411,
  "gears": 19456,
  "\u3009": 1638,
  "##\u2605": 30147,
  "grimly": 22561,
  "15th": 6286,
  "barry": 6287,
  "partners": 5826,
  "fuscous": 18121,
  "palatine": 22202,
  "everyone": 3071,
  "denmark": 5842,
  "130": 7558,
  "concerto": 10405,
  "rec": 28667,
  "##zumi": 28114,
  "##andra": 29159,
  "sphere": 10336,
  "stranger": 7985,
  "billie": 18210,
  "base": 2918,
  "spear": 12341,
  "##\u30df": 30250,
  "come": 2272,
  "midway": 12213,
  "##ssed": 29417,
  "printer": 15041,
  "delighted": 15936,
  "bombardment": 10400,
  "buzzing": 20386,
  "williams": 3766,
  "excuses": 21917,
  "toulouse": 17209,
  "##\u30d5": 30246,
  "chartered": 12443,
  "[unused162]": 167,
  "##oll": 14511,
  "cp": 18133,
  "[unused185]": 190,
  "surfing": 19967,
  "execution": 7781,
  "##skie": 23955,
  "transverse": 18323,
  "##raya": 29539,
  "criticism": 6256,
  "becoming": 3352,
  "differences": 5966,
  "gregory": 7296,
  "banners": 23562,
  "hires": 28208,
  "\u110c": 1464,
  "1920s": 6641,
  "conclusions": 15306,
  "[unused855]": 860,
  "##ult": 11314,
  "reach": 3362,
  "snyder": 17840,
  "sarcastically": 23800,
  "stirring": 18385,
  "\u0bc8": 1399,
  "wrought": 18481,
  "locally": 7246,
  "dean": 4670,
  "rape": 9040,
  "breathing": 5505,
  "dal": 17488,
  "narcotics": 27290,
  "iq": 26264,
  "survives": 13655,
  "sitcom": 13130,
  "[unused818]": 823,
  "whenever": 7188,
  "##\u09bf": 29915,
  "\u306c": 1669,
  "wiener": 25072,
  "newcomer": 16866,
  "kennedy": 5817,
  "##outh": 17167,
  "##haven": 14650,
  "snacks": 27962,
  "landmarks": 16209,
  "[unused558]": 563,
  "##founded": 21001,
  "soviet": 3354,
  "occurring": 10066,
  "music": 2189,
  "##etta": 16549,
  "cord": 11601,
  "lombardy": 27728,
  "##tate": 12259,
  "alessandro": 17956,
  "tv": 2694,
  "momentum": 11071,
  "fleming": 13779,
  "skies": 15717,
  "fraction": 12884,
  "##\u0574": 29776,
  "declare": 13520,
  "researching": 20059,
  "1776": 13963,
  "##uto": 16161,
  "median": 3991,
  "rage": 7385,
  "sands": 13457,
  "foreigners": 15040,
  "kilometers": 7338,
  "duty": 4611,
  "skinny": 15629,
  "mud": 8494,
  "fluttering": 25001,
  "singled": 25369,
  "assigned": 4137,
  "intention": 6808,
  "booster": 23715,
  "leased": 12019,
  "daggers": 24210,
  "reportedly": 7283,
  "reacting": 24868,
  "c1": 27723,
  "monkey": 10608,
  "number": 2193,
  "heights": 7535,
  "\u0280": 1127,
  "jacket": 6598,
  "mannheim": 25116,
  "suicide": 5920,
  "stronghold": 16995,
  "arose": 10375,
  "becker": 15309,
  "##\u10e0": 29987,
  "assignments": 14799,
  "##hana": 15788,
  "1st": 3083,
  "wai": 23701,
  "worse": 4788,
  "##furt": 24428,
  "kan": 22827,
  "addresses": 11596,
  "macedonian": 13037,
  "roanoke": 25899,
  "bounty": 17284,
  "youths": 19634,
  "musik": 28076,
  "choral": 14564,
  "saddam": 24111,
  "worship": 7425,
  "[unused380]": 385,
  "backpack": 13383,
  "##oo": 9541,
  "trimmed": 21920,
  "1800s": 19878,
  "##\u0444": 29749,
  "turf": 14585,
  "tip": 5955,
  "##mage": 26860,
  "hour": 3178,
  "pouring": 13053,
  "pants": 6471,
  "[unused959]": 964,
  "kassel": 27884,
  "voodoo": 21768,
  "murdoch": 19954,
  "employ": 12666,
  "vogel": 27063,
  "##helm": 24546,
  "cab": 9298,
  "walters": 19097,
  "explanation": 7526,
  "earned": 3687,
  "hating": 22650,
  "stephan": 15963,
  "##coe": 16288,
  "relax": 9483,
  "lynn": 9399,
  "sargent": 27599,
  "##rou": 22494,
  "sensual": 18753,
  "plane": 4946,
  "peering": 16740,
  "##66": 28756,
  "gemma": 19073,
  "ceramics": 17314,
  "mandy": 18193,
  "disturbances": 24535,
  "presently": 12825,
  "craftsmen": 25736,
  "bleeding": 9524,
  "expressing": 14026,
  "video": 2678,
  "untouched": 22154,
  "tidy": 29369,
  "clayton": 11811,
  "hunt": 5690,
  "aware": 5204,
  "reformation": 13708,
  "winger": 16072,
  "zhejiang": 26805,
  "##ischen": 24488,
  "snakes": 12971,
  "##uin": 20023,
  "hoarse": 21221,
  "bray": 19743,
  "secure": 5851,
  "##hae": 25293,
  "pressures": 15399,
  "giro": 19226,
  "##blood": 26682,
  "pietro": 15541,
  "battista": 28422,
  "ga": 11721,
  "briggs": 15487,
  "blank": 8744,
  "##ains": 28247,
  "render": 17552,
  "##\u5317": 30307,
  "\u4eba": 1756,
  "[unused937]": 942,
  "bracelet": 19688,
  "text": 3793,
  "renegade": 28463,
  "strengths": 20828,
  "honor": 3932,
  "\u65b9": 1863,
  "goodwin": 19928,
  "documented": 8832,
  "greeted": 11188,
  "##zuka": 22968,
  "mrs": 3680,
  "monasteries": 15947,
  "marne": 25823,
  "japanese": 2887,
  "58": 5388,
  "composing": 16572,
  "helmut": 24515,
  "phonetic": 26664,
  "##zers": 16750,
  "1621": 27037,
  "file": 5371,
  "##\u6c34": 30419,
  "baptised": 28798,
  "templar": 27850,
  "constantly": 7887,
  "##cen": 27524,
  "soda": 14904,
  "waved": 7147,
  "heartland": 27399,
  "##ulsive": 23004,
  "\u0647": 1297,
  "\u30fc": 1739,
  "inappropriate": 15884,
  "##vy": 10736,
  "[unused456]": 461,
  "bruised": 18618,
  "billions": 25501,
  "adding": 5815,
  "distract": 15886,
  "patted": 11930,
  "unsigned": 27121,
  "allowing": 4352,
  "was": 2001,
  "harvard": 5765,
  "raoul": 22063,
  "##\u91cc": 30488,
  "extraction": 14676,
  "ashes": 11289,
  "lucia": 12337,
  "zionist": 21379,
  "ignatius": 26841,
  "peaking": 13015,
  "bouncing": 16361,
  "willard": 19138,
  "hardin": 27522,
  "venture": 6957,
  "individually": 14258,
  "liberals": 13350,
  "barbados": 16893,
  "sat": 2938,
  "assets": 7045,
  "elisa": 29490,
  "traced": 9551,
  "[unused486]": 491,
  "rm": 28549,
  "yielded": 17544,
  "pressure": 3778,
  "##fide": 20740,
  "##rring": 18807,
  "disruption": 20461,
  "##rum": 6824,
  "1972": 3285,
  "##ega": 29107,
  "snaps": 20057,
  "sarah": 4532,
  "##yam": 14852,
  "##xley": 20959,
  "##market": 20285,
  "##rdial": 25070,
  "markedly": 29295,
  "wiped": 8342,
  "honour": 6225,
  "burials": 23109,
  "curious": 8025,
  "ions": 15956,
  "1712": 28460,
  "reputation": 5891,
  "clung": 14752,
  "274": 25586,
  "##isi": 17417,
  "adjust": 14171,
  "fluttered": 18360,
  "##wen": 12449,
  "##\u2079": 30078,
  "einstein": 15313,
  "proliferation": 20250,
  "episodes": 4178,
  "\u5185": 1773,
  "##aging": 16594,
  "blitz": 22312,
  "##\u548c": 30322,
  "weaker": 15863,
  "thoughtfully": 19897,
  "1765": 20797,
  "mouse": 8000,
  "ended": 3092,
  "##oria": 11069,
  "\u209b": 1570,
  "fishes": 21995,
  "lister": 27177,
  "interrupt": 17938,
  "means": 2965,
  "sustain": 15770,
  "\u00b1": 1081,
  "film": 2143,
  "##yas": 16303,
  "ambiguity": 27637,
  "surfaced": 15791,
  "baronet": 8693,
  "secondary": 3905,
  "hackney": 28425,
  "1943": 3826,
  "##sser": 18116,
  "possible": 2825,
  "\u5e73": 1839,
  "bees": 13734,
  "mammals": 11993,
  "[unused730]": 735,
  "progressing": 27673,
  "objectives": 11100,
  "jakarta": 14426,
  "corner": 3420,
  "##umen": 27417,
  "unlock": 19829,
  "airspace": 29357,
  "equatorial": 21333,
  "endowment": 15108,
  "kawasaki": 27324,
  "[unused919]": 924,
  "brianna": 25558,
  "realising": 27504,
  "mendes": 27916,
  "typhoon": 15393,
  "unauthorized": 24641,
  "conscience": 13454,
  "##\u2265": 30136,
  "ae": 29347,
  "elevations": 18166,
  "reprinted": 13603,
  "hilly": 22800,
  "1649": 26538,
  "reduces": 13416,
  "##rsa": 22381,
  "##ai": 4886,
  "nest": 9089,
  "roberts": 7031,
  "milestone": 19199,
  "entirety": 15700,
  "hooked": 13322,
  "harriet": 14207,
  "principality": 18018,
  "namesake": 17283,
  "enrolled": 8302,
  "gram": 13250,
  "lima": 12967,
  "batch": 14108,
  "mgm": 15418,
  "forming": 5716,
  "paxton": 27765,
  "parks": 6328,
  "##icle": 25128,
  "##tics": 14606,
  "##\u516b": 30297,
  "upstate": 29530,
  "conjecture": 22647,
  "merged": 5314,
  "affection": 12242,
  "fife": 20537,
  "isle": 8842,
  "fountains": 23497,
  "##tist": 16774,
  "reed": 7305,
  "charlotte": 5904,
  "collided": 17745,
  "##cea": 21456,
  "##54": 27009,
  "oracle": 14721,
  "##ctuated": 25638,
  "improvements": 8377,
  "underlying": 10318,
  "##ex": 10288,
  "posthumous": 19086,
  "marvel": 8348,
  "wildcats": 19495,
  "##ec": 8586,
  "dimitri": 15953,
  "serves": 4240,
  "##or": 2953,
  "ordained": 9492,
  "flipping": 18497,
  "##\u4e2d": 30272,
  "parental": 18643,
  "bel": 19337,
  "##box": 8758,
  "outlawed": 29131,
  "\u1175": 1483,
  "equity": 10067,
  "era": 3690,
  "##\u308d": 30215,
  "poisoning": 16149,
  "robot": 8957,
  "resigning": 24642,
  "##sus": 13203,
  "##pps": 28281,
  "1947": 4006,
  "marriage": 3510,
  "##rill": 24714,
  "maitland": 25511,
  "guillaume": 20061,
  "##\u0f62": 29970,
  "fuselage": 13478,
  "resistance": 5012,
  "format": 4289,
  "blazing": 17162,
  "[unused459]": 464,
  "terrorism": 10130,
  "##rdo": 20683,
  "slavic": 13838,
  "penal": 18476,
  "ago": 3283,
  "south": 2148,
  "##kai": 11151,
  "nudged": 18666,
  "gnu": 27004,
  "epic": 8680,
  "confederation": 11078,
  "reconciled": 28348,
  "lewis": 4572,
  "##bon": 11735,
  "twists": 21438,
  "esther": 14631,
  "unionist": 17104,
  "play": 2377,
  "profile": 6337,
  "schultz": 22378,
  "[unused277]": 282,
  "##bu": 8569,
  "distance": 3292,
  "calais": 23116,
  "[unused304]": 309,
  "foot": 3329,
  "[unused232]": 237,
  "marrying": 13516,
  "##ckman": 24080,
  "1815": 10679,
  "##rano": 20770,
  "dwarfs": 28984,
  "institutional": 12148,
  "servicemen": 26714,
  "santana": 21158,
  "[unused555]": 560,
  "workplace": 16165,
  "[unused349]": 354,
  "darwin": 11534,
  "1775": 14276,
  "cardboard": 19747,
  "concealed": 14091,
  "##\u30e3": 30254,
  "rejection": 13893,
  "##atory": 14049,
  "carmen": 11425,
  "platinum": 8899,
  "nationale": 17360,
  "hiroshima": 20168,
  "silva": 11183,
  "[unused703]": 708,
  "nero": 19212,
  "estate": 3776,
  "overcame": 26463,
  "luz": 26214,
  "carr": 12385,
  "\u10da": 1447,
  "horrific": 23512,
  "rustling": 29188,
  "segment": 6903,
  "minimize": 18478,
  "hall": 2534,
  "interpreter": 19555,
  "##chel": 15721,
  "hardware": 8051,
  "serbian": 6514,
  "boundaries": 7372,
  "299": 25926,
  "\u0637": 1286,
  "jesuits": 20297,
  "gamble": 18503,
  "declan": 16494,
  "##pins": 27915,
  "staples": 24533,
  "guerrilla": 15722,
  "climatic": 27301,
  "shareholders": 15337,
  "\u00f8": 1100,
  "closest": 7541,
  "lenses": 15072,
  "scribe": 27789,
  "kevin": 4901,
  "publishes": 12466,
  "resolving": 29304,
  "mb": 16914,
  "##ual": 8787,
  "mutants": 23892,
  "songwriters": 20602,
  "sigismund": 26748,
  "285": 21777,
  "prism": 26113,
  "sv": 17917,
  "##anna": 25789,
  "[unused945]": 950,
  "nickel": 15519,
  "omitted": 16647,
  "preoccupied": 23962,
  "foundry": 19853,
  "adherence": 29235,
  "analyzing": 20253,
  "net": 5658,
  "##\u00a1": 29644,
  "\u09a4": 1362,
  "unofficial": 11982,
  "saints": 6586,
  "confines": 25722,
  "alive": 4142,
  "peeling": 28241,
  "targets": 7889,
  "mack": 11349,
  "best": 2190,
  "seventeenth": 15425,
  "voter": 14303,
  "influential": 6383,
  "##\u2076": 30075,
  "success": 3112,
  "bce": 10705,
  "referees": 25118,
  "session": 5219,
  "##eo": 8780,
  "localized": 22574,
  "jacksonville": 13057,
  "1086": 28196,
  "136": 15407,
  "##metric": 12589,
  "livelihood": 24585,
  "ever": 2412,
  "mendez": 28950,
  "##\u6c5f": 30423,
  "centuries": 4693,
  "collection": 3074,
  "horns": 11569,
  "##line": 4179,
  "bum": 26352,
  "blu": 14154,
  "confusing": 16801,
  "ronnie": 11688,
  "restrict": 21573,
  "isaac": 7527,
  "throne": 6106,
  "7th": 5504,
  "behave": 16582,
  "gigs": 20929,
  "##eley": 22352,
  "fault": 6346,
  "##ddled": 28090,
  "auto": 8285,
  "extensive": 4866,
  "dictator": 21237,
  "topped": 9370,
  "[unused505]": 510,
  "1812": 9842,
  "##\u1175": 30019,
  "1971": 3411,
  "aka": 9875,
  "recalls": 17722,
  "##gli": 25394,
  "zambia": 15633,
  "algeria": 11337,
  "##rcus": 29006,
  "liverpool": 6220,
  "toxin": 29090,
  "1870": 6940,
  "hunter": 4477,
  "[unused290]": 295,
  "chandra": 16469,
  "sheer": 11591,
  "400": 4278,
  "madagascar": 11934,
  "##inge": 23496,
  "spacious": 22445,
  "frowned": 7335,
  "modified": 6310,
  "estuary": 18056,
  "companies": 3316,
  "faces": 5344,
  "businessman": 6883,
  "\u05d3": 1244,
  "##son": 3385,
  "##thest": 20515,
  "##ties": 7368,
  "doris": 15467,
  "folded": 6999,
  "madrid": 6921,
  "indicted": 21801,
  "cpi": 28780,
  "##ary": 5649,
  "characters": 3494,
  "193": 19984,
  "##bel": 8671,
  "mandela": 26887,
  "compatibility": 21778,
  "colton": 21000,
  "advisers": 24205,
  "[unused325]": 330,
  "trivial": 20610,
  "rivalry": 10685,
  "italiana": 28059,
  "[unused564]": 569,
  "stockings": 26412,
  "##cede": 22119,
  "piano": 3682,
  "recreated": 29414,
  "##pose": 20688,
  "focal": 15918,
  "##aver": 22208,
  "exceeds": 23651,
  "abdullah": 14093,
  "rhythmic": 14797,
  "touchdowns": 10183,
  "ark": 15745,
  "synthesizers": 22211,
  "##reate": 29313,
  "##500": 29345,
  "clapton": 24705,
  "constant": 5377,
  "mating": 15100,
  "##ism": 2964,
  "clever": 12266,
  "peasants": 13193,
  "methane": 24481,
  "##guchi": 16918,
  "theaters": 12370,
  "inauguration": 17331,
  "nathan": 7150,
  "patricia": 10717,
  "diet": 8738,
  "sung": 7042,
  "##water": 5880,
  "willingly": 18110,
  "caliber": 15977,
  "trough": 23389,
  "##\u6b62": 30413,
  "bern": 16595,
  "surveyed": 12876,
  "catastrophe": 25539,
  "##king": 6834,
  "opposes": 29158,
  "##\u308c": 30214,
  "twin": 5519,
  "recognizing": 14622,
  "##patient": 24343,
  "comedies": 22092,
  "\u30bb": 1708,
  "trophy": 5384,
  "\u00a33": 28182,
  "squads": 20191,
  "faithful": 11633,
  "##uttered": 23128,
  "emigrated": 11367,
  "greenhouse": 16635,
  "##ancy": 11656,
  "sentiments": 23541,
  "elmer": 21464,
  "dripping": 14309,
  "##pants": 27578,
  "vine": 15351,
  "rally": 8320,
  "rolling": 5291,
  "humid": 14178,
  "ling": 17002,
  "navarre": 21260,
  "troy": 9553,
  "\u1d65": 1510,
  "physiological": 19389,
  "rugged": 17638,
  "loomed": 24358,
  "cherokee": 13796,
  "##nagar": 14346,
  "##recht": 28109,
  "bartender": 15812,
  "indies": 9429,
  "recovering": 13400,
  "wonderland": 20365,
  "tal": 21368,
  "risen": 13763,
  "variable": 8023,
  "296": 27200,
  "sparsely": 24961,
  "##\u72ac": 30434,
  "##lock": 7878,
  "via": 3081,
  "doubts": 13579,
  "##mun": 23041,
  "podcast": 16110,
  "screening": 11326,
  "review": 3319,
  "roundabout": 22831,
  "parker": 6262,
  "allah": 16455,
  "geared": 23636,
  "booklet": 19271,
  "\u0b9a": 1383,
  "folding": 12745,
  "grandfather": 5615,
  "gary": 5639,
  "##zi": 5831,
  "1767": 21502,
  "sky": 3712,
  "golf": 5439,
  "invitation": 8468,
  "##\u3044": 30173,
  "1880s": 12751,
  "kabul": 21073,
  "promising": 10015,
  "sport": 4368,
  "care": 2729,
  "carrie": 13223,
  "bragg": 23678,
  "hawaiian": 12188,
  "sprint": 9043,
  "italian": 3059,
  "salsa": 26509,
  "viktor": 13489,
  "presided": 15506,
  "victories": 9248,
  "roman": 3142,
  "rosalie": 29564,
  "\u308c": 1688,
  "##ust": 19966,
  "amused": 11770,
  "\u3068": 1666,
  "ramirez": 15206,
  "liability": 14000,
  "groundwater": 22761,
  "cooking": 8434,
  "minister": 2704,
  "ships": 3719,
  "dong": 11947,
  "excitedly": 23885,
  "reintroduced": 28263,
  "nintendo": 10022,
  "##eon": 10242,
  "intelligent": 9414,
  "make": 2191,
  "rounded": 8352,
  "inched": 25330,
  "\\": 1032,
  "wastewater": 28269,
  "interpreting": 25455,
  "##ometer": 18721,
  "tourists": 9045,
  "genre": 6907,
  "newborn": 20662,
  "calmly": 12885,
  "beaufort": 23622,
  "discovered": 3603,
  "rhodes": 10588,
  "urges": 23876,
  "##yde": 18124,
  "\u0282": 1129,
  "##hay": 24180,
  "baird": 20866,
  "##hey": 14844,
  "ballast": 28030,
  "##\u2085": 30081,
  "embassy": 8408,
  "##graphic": 14773,
  "\u4ec1": 1758,
  "eventual": 9523,
  "thru": 27046,
  "dustin": 24337,
  "[unused50]": 51,
  "[unused949]": 954,
  "1766": 21410,
  "resulting": 4525,
  "shade": 8703,
  "glaciers": 21193,
  "##\u0289": 29697,
  "piedmont": 18873,
  "dj": 6520,
  "##hong": 19991,
  "robinson": 6157,
  "blog": 9927,
  "survived": 5175,
  "functioned": 20903,
  "favorites": 20672,
  "##istle": 24242,
  "[unused551]": 556,
  "##sol": 19454,
  "patterned": 25336,
  "[unused202]": 207,
  "[unused550]": 555,
  "##50": 12376,
  "thread": 11689,
  "references": 7604,
  "##40": 12740,
  "dismay": 20006,
  "line": 2240,
  "\u0294": 1139,
  "tales": 7122,
  "nationalities": 24904,
  "overcome": 9462,
  "\u3082": 1681,
  "filipino": 10275,
  "kiran": 22403,
  "reacted": 14831,
  "derived": 5173,
  "noting": 9073,
  "arabic": 5640,
  "ward": 4829,
  "memorials": 22899,
  "eighteen": 7763,
  "pole": 6536,
  "##nos": 15460,
  "mortals": 23844,
  "##oia": 25463,
  "fake": 8275,
  "[unused430]": 435,
  "andrews": 9261,
  "occupational": 16928,
  "distracting": 25012,
  "rattling": 26347,
  "##group": 17058,
  "knives": 13227,
  "##ists": 5130,
  "timothy": 10805,
  "##shima": 24772,
  "##rish": 18774,
  "lifeboat": 23450,
  "intently": 16170,
  "\u0930": 1333,
  "\u03b9": 1163,
  "treats": 18452,
  "massey": 21402,
  "extend": 7949,
  "\u098f": 1351,
  "adequately": 23613,
  "clerks": 26706,
  "eye": 3239,
  "padma": 23731,
  "ecuador": 10378,
  "##enstein": 21819,
  "affluent": 22666,
  "rods": 19485,
  "##\u0cbe": 29938,
  "##rmed": 29540,
  "##\u300b": 30166,
  "yielding": 21336,
  "commandant": 15254,
  "title": 2516,
  "gina": 17508,
  "missile": 7421,
  "gallons": 18501,
  "sash": 24511,
  "fluent": 19376,
  "torque": 15894,
  "##utable": 23056,
  "[unused168]": 173,
  "##\u0e25": 29954,
  "palm": 5340,
  "rules": 3513,
  "1749": 24704,
  "\u4e16": 1745,
  "##iani": 25443,
  "goldberg": 18522,
  "index": 5950,
  "irregularities": 28868,
  "##tension": 29048,
  "strode": 11885,
  "unfamiliar": 16261,
  "hemingway": 27299,
  "thankful": 18836,
  "nippon": 19364,
  "adjutant": 20690,
  "cavaliers": 25096,
  "[unused64]": 65,
  "kia": 27005,
  "stew": 20717,
  "1932": 4673,
  "##\u209c": 30099,
  "saxony": 13019,
  "positioned": 10959,
  "##vita": 28403,
  "sidewalks": 28386,
  "mackenzie": 11407,
  "##z": 2480,
  "##\u9752": 30501,
  "futuristic": 28971,
  "336": 27954,
  "##ouin": 25058,
  "##tula": 28970,
  "gareth": 20243,
  "137": 14989,
  "november": 2281,
  "[unused639]": 644,
  "downing": 22501,
  "karnataka": 12092,
  "output": 6434,
  "helmets": 22674,
  "##master": 8706,
  "migrating": 28636,
  "5000": 13509,
  "threatens": 17016,
  "diva": 25992,
  "##\u043c": 29745,
  "hawkins": 13835,
  "##yd": 25688,
  "ben": 3841,
  "[unused686]": 691,
  "##oise": 23565,
  "palms": 9486,
  "styled": 13650,
  "##\u4ee3": 30286,
  "gifford": 29360,
  "brakes": 13627,
  "##dome": 26173,
  "pinto": 25066,
  "##\u03bf\u03c5": 26789,
  "24th": 13386,
  "buzz": 12610,
  "##\u30c3": 30237,
  "hancock": 13849,
  "coastline": 15458,
  "hug": 8549,
  "reappeared": 23040,
  "##\u0f56": 29967,
  "club": 2252,
  "##edge": 24225,
  "##venor": 26806,
  "marijuana": 16204,
  "ceiling": 5894,
  "##dham": 17661,
  "psychic": 12663,
  "25": 2423,
  "mx": 25630,
  "bukit": 29007,
  "sensing": 13851,
  "directs": 23303,
  "homogeneous": 24854,
  "[unused844]": 849,
  "##hel": 16001,
  "sticking": 13423,
  "sculptures": 10801,
  "[unused664]": 669,
  "organizational": 13296,
  "known": 2124,
  "##pot": 11008,
  "cultivation": 13142,
  "ask": 3198,
  "inspired": 4427,
  "prank": 26418,
  "unrelated": 15142,
  "ska": 24053,
  "1690": 24765,
  "why": 2339,
  "##ws": 9333,
  "netherlands": 4549,
  "stolen": 7376,
  "leach": 24520,
  "cunningham": 13652,
  "avalanche": 18846,
  "craftsman": 26286,
  "[unused845]": 850,
  "##ense": 16700,
  "jul": 21650,
  "##yoshi": 19196,
  "newspaper": 3780,
  "telenovela": 25754,
  "chariot": 23507,
  "limestone": 9771,
  "##ils": 12146,
  "rr": 25269,
  "reminiscent": 14563,
  "spanned": 18212,
  "volta": 26089,
  "\u2265": 1609,
  "municipalities": 7602,
  "interfere": 15115,
  "pottery": 11378,
  "fischer": 13042,
  "cartridge": 15110,
  "##ni": 3490,
  "##itan": 25451,
  "[unused966]": 971,
  "politically": 10317,
  "regan": 16964,
  "294": 28135,
  "geometry": 10988,
  "bonaparte": 20830,
  "resident": 6319,
  "playground": 14705,
  "\u03c1": 1171,
  "##mbre": 19908,
  "magnetic": 8060,
  "processor": 13151,
  "nurses": 11500,
  "exits": 16639,
  "##pts": 22798,
  "passion": 6896,
  "another": 2178,
  "##aker": 22626,
  "dude": 12043,
  "angle": 6466,
  "chimneys": 28885,
  "##kic": 29493,
  "##vik": 13309,
  "astonished": 22741,
  "rare": 4678,
  "##ption": 16790,
  "[unused726]": 731,
  "aback": 26575,
  "combat": 4337,
  "british": 2329,
  "##shaw": 17980,
  "char": 25869,
  "beef": 12486,
  "adoptive": 24787,
  "wasn": 2347,
  "transcript": 24051,
  "remake": 12661,
  "pain": 3255,
  "team": 2136,
  "riot": 11421,
  "[unused26]": 27,
  "certified": 7378,
  "##nally": 26827,
  "1817": 12529,
  "structurally": 29060,
  "##lika": 25421,
  "communication": 4807,
  "adjusted": 10426,
  "##iana": 11410,
  "paced": 13823,
  "evidenced": 21328,
  "lawsuits": 20543,
  "koln": 28306,
  "fa": 6904,
  "affected": 5360,
  "pea": 26034,
  "lang": 11374,
  "np": 27937,
  "precautions": 29361,
  "disclosed": 21362,
  "##hett": 28499,
  "[unused433]": 438,
  "##witz": 15362,
  "firearm": 23646,
  "chants": 29534,
  "dull": 10634,
  "##zuki": 24015,
  "magnolia": 24659,
  "[SEP]": 102,
  "dumping": 23642,
  "lyman": 27587,
  "dei": 14866,
  "violet": 8766,
  "superb": 21688,
  "bodies": 4230,
  "lime": 14123,
  "hill": 2940,
  "covenant": 16077,
  "crows": 21623,
  "##zle": 29247,
  "london": 2414,
  "##ost": 14122,
  "abused": 16999,
  "promised": 5763,
  "austrian": 6161,
  "[unused255]": 260,
  "emerging": 8361,
  "##sack": 25607,
  "delivery": 6959,
  "fuck": 6616,
  "mike": 3505,
  "kinda": 17704,
  "\u3072": 1673,
  "ipad": 25249,
  "drama": 3689,
  "##shan": 9688,
  "620": 23612,
  "\u1110": 1467,
  "1689": 22685,
  "observers": 14009,
  "tended": 11121,
  "bangladesh": 7269,
  "applicants": 17362,
  "##icon": 28524,
  "##hdi": 22960,
  "ipa": 24531,
  "gravely": 28070,
  "proficiency": 26293,
  "protocols": 16744,
  "encompassing": 19129,
  "##elli": 13348,
  "repeated": 5567,
  "##osh": 17369,
  "requirements": 5918,
  "locke": 18343,
  "meets": 6010,
  "brasil": 21133,
  "dying": 5996,
  "vital": 8995,
  "##bahn": 16052,
  "[unused337]": 342,
  "witchcraft": 21599,
  "[unused622]": 627,
  "##uis": 27020,
  "noir": 15587,
  "he": 2002,
  "##bbing": 23200,
  "saxon": 10038,
  "bastards": 21123,
  "yates": 20356,
  "tierney": 26198,
  "alto": 10766,
  "valves": 17355,
  "filmmakers": 16587,
  "java": 9262,
  "berlin": 4068,
  "kali": 19924,
  "assumes": 15980,
  "orson": 25026,
  "liberty": 7044,
  "baden": 12189,
  "celebrates": 21566,
  "donated": 6955,
  "sincerely": 25664,
  "##ej": 20518,
  "144": 14748,
  "florida": 3516,
  "restart": 23818,
  "incentive": 20438,
  "##kind": 18824,
  "##oe": 8913,
  "#": 1001,
  "taluk": 23140,
  "wives": 10403,
  "[unused518]": 523,
  "can": 2064,
  "fledgling": 25954,
  "##85": 27531,
  "controlling": 9756,
  "peoples": 7243,
  "cicero": 23080,
  "younger": 3920,
  "##isk": 20573,
  "quarterly": 12174,
  "willem": 18811,
  "josiah": 24461,
  "armory": 24139,
  "##inal": 13290,
  "locus": 25206,
  "##piration": 16781,
  "che": 18178,
  "##dad": 14697,
  "sensible": 21082,
  "##&": 29617,
  "##rito": 28414,
  "mccoy": 16075,
  "nepal": 8222,
  "bridgeport": 27986,
  "obedience": 22645,
  "mention": 5254,
  "bromwich": 27888,
  "badges": 23433,
  "entrances": 18084,
  "ends": 4515,
  "##tute": 24518,
  "hyderabad": 13624,
  "romanized": 7651,
  "##\u20a4": 30100,
  "widespread": 6923,
  "area": 2181,
  "vein": 12818,
  "1861": 6863,
  "\u540c": 1794,
  "1665": 27676,
  "##usions": 22016,
  "burns": 7641,
  "\u2084": 1551,
  "reluctance": 21662,
  "ba": 8670,
  "aboriginal": 9757,
  "\u5dff": 1837,
  "76": 6146,
  "amir": 18904,
  "columbian": 25882,
  "##nikov": 22576,
  "211": 19235,
  "comedic": 21699,
  "civilizations": 24784,
  "bestseller": 24304,
  "airlift": 20019,
  "computational": 15078,
  "guardian": 6697,
  "##\u1d52": 30039,
  "##\u0436": 29743,
  "cantor": 26519,
  "counters": 24094,
  "classes": 4280,
  "dressing": 11225,
  "terri": 26568,
  "retire": 11036,
  "anarchist": 18448,
  "[unused975]": 980,
  "heroin": 19690,
  "diversion": 20150,
  "exploit": 18077,
  "[unused203]": 208,
  "ferrer": 28390,
  "##fy": 12031,
  "13": 2410,
  "method": 4118,
  "pretoria": 25366,
  "oxygen": 7722,
  "directed": 2856,
  "##osis": 12650,
  "lynch": 11404,
  "##\u8279": 30465,
  "tossing": 15021,
  "enforce": 16306,
  "listener": 19373,
  "scrambled": 13501,
  "nerve": 9113,
  "drowned": 12805,
  "teaser": 27071,
  "nonprofit": 14495,
  "confronted": 12892,
  "howling": 22298,
  "hasty": 27151,
  "##\u1106": 29995,
  "##zza": 20715,
  "deprivation": 29516,
  "cypress": 22183,
  "uae": 17641,
  "fallen": 5357,
  "overwhelmed": 13394,
  "este": 28517,
  "tell": 2425,
  "gasp": 12008,
  "##\u4f0a": 30288,
  "leah": 14188,
  "quest": 8795,
  "##ution": 13700,
  "[unused29]": 30,
  "##rangle": 21476,
  "##\u570b": 30326,
  "##ide": 5178,
  "##kk": 19658,
  "terminals": 17703,
  "##kson": 26579,
  "##lance": 23078,
  "##ental": 21050,
  "superseded": 19886,
  "centrally": 25497,
  "latvian": 14698,
  "##f": 2546,
  "##dus": 17619,
  "clarke": 8359,
  "generating": 11717,
  "##ech": 15937,
  "aleksandr": 24020,
  "##dos": 12269,
  "stanis\u0142aw": 26133,
  "every": 2296,
  "##physical": 23302,
  "naia": 29511,
  "privately": 9139,
  "aeronautics": 27459,
  "schneider": 15159,
  "withdraw": 10632,
  "portrayed": 6791,
  "##\u044f": 17432,
  "\u10dd": 1450,
  "##mori": 24610,
  "stuck": 5881,
  "bulge": 23708,
  "[unused288]": 293,
  "j": 1046,
  "yoga": 13272,
  "##nda": 8943,
  "samoa": 15075,
  "stupid": 5236,
  "bonfire": 28698,
  "mt": 11047,
  "maya": 9815,
  "angular": 16108,
  "##51": 22203,
  "[unused506]": 511,
  "examining": 12843,
  "irrelevant": 22537,
  "\u301c": 1645,
  "[unused286]": 291,
  "##ado": 9365,
  "des": 4078,
  "agile": 29003,
  "evaluating": 23208,
  "##ien": 9013,
  "organs": 11595,
  "oceanic": 18955,
  "##\u201c": 30058,
  "##\u0448": 29753,
  "cream": 6949,
  "joining": 5241,
  "stunt": 15412,
  "wig": 24405,
  "landings": 16805,
  "dawned": 27702,
  "contractor": 13666,
  "##one": 5643,
  "zenith": 28672,
  "ahmed": 10208,
  "##etto": 20082,
  "suppressed": 13712,
  "reid": 9027,
  "honeymoon": 19227,
  "lester": 14131,
  "thai": 7273,
  "periphery": 23275,
  "conducting": 9283,
  "pakistani": 9889,
  "luton": 17807,
  "provincial": 4992,
  "172": 18253,
  "basque": 13915,
  "##mana": 24805,
  "allmusic": 10477,
  "##yna": 18279,
  "stall": 13498,
  "parapet": 27372,
  "##hia": 12995,
  "anand": 18887,
  "explicitly": 12045,
  "26": 2656,
  "anchorage": 21086,
  "flashing": 12659,
  "##tsky": 26824,
  "##eaux": 25639,
  "cylindrical": 18797,
  "studying": 5702,
  "crimean": 20516,
  "201": 16345,
  "implemented": 7528,
  "blooded": 26064,
  "congregation": 7769,
  "[unused83]": 84,
  "euro": 9944,
  "cinema": 5988,
  "constituent": 13794,
  "trunk": 8260,
  "##view": 8584,
  "illustrious": 26150,
  "modification": 14080,
  "nell": 20970,
  "twigs": 27964,
  "swamp": 11963,
  "##irs": 18894,
  "levin": 20206,
  "canucks": 26177,
  "[unused699]": 704,
  "##drome": 29171,
  "refusal": 13948,
  "\u5b50": 1816,
  "entrance": 4211,
  "sixties": 22651,
  "indifferent": 24436,
  "roche": 20162,
  "overland": 21400,
  "tickets": 9735,
  "\u1d2e": 1491,
  "cavalry": 5945,
  "rahman": 14364,
  "lindsay": 12110,
  "##placed": 22829,
  "worry": 4737,
  "hurry": 9241,
  "flows": 6223,
  "asphalt": 16295,
  "lounge": 11549,
  "flopped": 24723,
  "condom": 20910,
  "baton": 15302,
  "intervene": 18793,
  "lawn": 10168,
  "trustees": 9360,
  "reporter": 6398,
  "##lett": 20897,
  "emergencies": 26360,
  "theater": 4258,
  "##cens": 19023,
  "defected": 26330,
  "compilation": 6268,
  "betting": 19244,
  "kettle": 22421,
  "rowland": 20539,
  "ascension": 18071,
  "applies": 12033,
  "paisley": 23321,
  "spokane": 21878,
  "##fk": 24316,
  "ono": 21058,
  "moffat": 28528,
  "pioneers": 13200,
  "\u72ac": 1908,
  "johnston": 10773,
  "suspicion": 10928,
  "exile": 8340,
  "endeavor": 23855,
  "observations": 9420,
  "lax": 27327,
  "bowed": 11489,
  "receipt": 24306,
  "song": 2299,
  "remained": 2815,
  "accordion": 19060,
  "recording": 3405,
  "witch": 6965,
  "##oni": 10698,
  "flowing": 8577,
  "bishop": 3387,
  "##ami": 10631,
  "weren": 4694,
  "[unused362]": 367,
  "pigment": 28815,
  "##pac": 19498,
  "variants": 10176,
  "inheritance": 12839,
  "##het": 27065,
  "debated": 15268,
  "[unused438]": 443,
  "c2": 29248,
  "cairo": 11096,
  "jesuit": 13840,
  "enrichment": 27226,
  "julie": 7628,
  "##pg": 26952,
  "pak": 22190,
  "leigh": 11797,
  "palma": 23985,
  "exchanges": 15800,
  "daddy": 8600,
  "##nched": 19282,
  "turbines": 17396,
  "replication": 21647,
  "##dic": 14808,
  "idol": 10282,
  "shattering": 21797,
  "\u30ec": 1734,
  "##rift": 16338,
  "pulsed": 24107,
  "detected": 11156,
  "comparatively": 20172,
  "logistics": 12708,
  "competitors": 10159,
  "cabin": 6644,
  "myth": 10661,
  "##brand": 23544,
  "booming": 24716,
  "optimism": 27451,
  "attractive": 8702,
  "ambassador": 6059,
  "soy": 25176,
  "fi": 10882,
  "struggled": 6915,
  "packed": 8966,
  "hearth": 22885,
  "gunnar": 26138,
  "avant": 14815,
  "kristina": 28802,
  "fine": 2986,
  "hope": 3246,
  "pots": 18911,
  "options": 7047,
  "walden": 24834,
  "##ads": 19303,
  "artists": 3324,
  "[unused813]": 818,
  "camp": 3409,
  "periodic": 15861,
  "\u1162": 1471,
  "bicycle": 10165,
  "cerambycidae": 13168,
  "simeon": 24371,
  "stephenson": 19789,
  "##ando": 28574,
  "30th": 13293,
  "shares": 6661,
  "punching": 19477,
  "exhibit": 8327,
  "##31": 21486,
  "temperate": 16868,
  "##games": 26393,
  "1800": 9807,
  "benign": 28378,
  "##\u09a6": 29900,
  "manufactured": 7609,
  "spherical": 18970,
  "vegetable": 15415,
  "editing": 9260,
  "bottoms": 24196,
  "unsuitable": 25622,
  "constraints": 14679,
  "##v": 2615,
  "suspended": 6731,
  "\u3044": 1647,
  "##tness": 27401,
  "##\u0563": 29768,
  "cod": 19429,
  "##rson": 17753,
  "1949": 4085,
  "newfound": 27608,
  "ware": 16283,
  "grotesque": 27707,
  "lacrosse": 13488,
  "peanuts": 27613,
  "latham": 28737,
  "population": 2313,
  "needed": 2734,
  "m\u00b3": 14241,
  "##oids": 17086,
  "sussex": 9503,
  "bowl": 4605,
  "quaker": 18844,
  "react": 10509,
  "biking": 28899,
  "patrols": 14703,
  "eighth": 5964,
  "gasoline": 13753,
  "shelters": 17177,
  "##lone": 27165,
  "moment": 2617,
  "\u05da": 1251,
  "\u0dbb": 1405,
  "ferrara": 28635,
  "boca": 22765,
  "hiring": 14763,
  "##top": 14399,
  "horizon": 9154,
  "##ton": 2669,
  "mortimer": 17416,
  "denying": 16039,
  "chancel": 16482,
  "perez": 10730,
  "swaying": 21826,
  "tau": 19982,
  "##hri": 26378,
  "ness": 23384,
  "italians": 16773,
  "visibility": 16476,
  "##\u0982": 29882,
  "intervals": 14025,
  "##hawk": 17998,
  "brandy": 17951,
  "[unused326]": 331,
  "someday": 13834,
  "1735": 26063,
  "haryana": 23261,
  "follow": 3582,
  "glasses": 7877,
  "baldwin": 10970,
  "horribly": 27762,
  "secretaries": 23660,
  "cried": 6639,
  "abundance": 14531,
  "ivanov": 26333,
  "##erly": 12561,
  "artifacts": 10471,
  "typical": 5171,
  "beamed": 22587,
  "defeat": 4154,
  "commissions": 13239,
  "blaze": 15347,
  "bitterness": 22364,
  "##rov": 12298,
  "alex": 4074,
  "tampa": 9925,
  "##arth": 22425,
  "nicky": 20158,
  "pin": 9231,
  "##udes": 22087,
  "orphaned": 27093,
  "1774": 17593,
  "hinted": 21795,
  "[unused953]": 958,
  "executives": 12706,
  "##lini": 22153,
  "gunther": 19384,
  "heck": 17752,
  "wake": 5256,
  "\u4e8b": 1751,
  "##wives": 23744,
  "bowled": 19831,
  "glances": 13021,
  "##go": 3995,
  "[unused836]": 841,
  "##dote": 23681,
  "enzyme": 9007,
  "legitimacy": 22568,
  "##polis": 17699,
  "nothin": 24218,
  "minorities": 14302,
  "thrusting": 21468,
  "##tted": 16190,
  "##lent": 16136,
  "latest": 6745,
  "##nies": 15580,
  "croatia": 8097,
  "stefan": 8852,
  "##mament": 28119,
  "flanked": 15874,
  "piers": 16067,
  "frustrated": 10206,
  "shrewsbury": 18174,
  "computation": 22334,
  "venus": 11691,
  "##ais": 15593,
  "friction": 15012,
  "##\u6b63": 30414,
  "monastery": 6408,
  "lucie": 28831,
  "applications": 5097,
  "##mad": 25666,
  "##ades": 18673,
  "##\u00a9": 29652,
  "robbers": 28019,
  "shrubs": 18812,
  "victorian": 6652,
  "threads": 16457,
  "armies": 8749,
  "sofia": 8755,
  "gasping": 17054,
  "inherent": 16112,
  "bazaar": 22774,
  "lb": 6053,
  "premiership": 11264,
  "\u30aa": 1699,
  "##feng": 24383,
  "\u2295": 1612,
  "grabbing": 9775,
  "##\u0baf": 29926,
  "sweetie": 22872,
  "agencies": 6736,
  "judo": 19083,
  "satin": 19412,
  "greet": 17021,
  "emotion": 7603,
  "distinguishing": 20852,
  "##\u0127": 29672,
  "clifford": 13894,
  "##adan": 26335,
  "indicated": 5393,
  "##enburg": 12059,
  "sloane": 17558,
  "recalling": 21195,
  "ethel": 19180,
  "osman": 28609,
  "##using": 18161,
  "eh": 15501,
  "andes": 18096,
  "amusing": 19142,
  "1720": 23535,
  "##xide": 19491,
  "##tation": 12516,
  "basketball": 3455,
  "##amina": 27651,
  "clade": 21697,
  "oils": 20631,
  "[unused97]": 98,
  "consortium": 12360,
  "prussian": 10734,
  "soil": 5800,
  "healthcare": 9871,
  "aaa": 13360,
  "\u02b3": 1142,
  "friendship": 6860,
  "predicted": 10173,
  "##point": 8400,
  "promotional": 10319,
  "capita": 8353,
  "immortality": 20107,
  "predictable": 21425,
  "destroying": 9846,
  "##\u00b7": 29661,
  "875": 27658,
  "##graphs": 27341,
  "captured": 4110,
  "##\u98a8": 30503,
  "##ocating": 27483,
  "bassett": 28303,
  "candi": 27467,
  "versailles": 18346,
  "crawford": 10554,
  "provide": 3073,
  "whitehall": 28361,
  "deutsche": 11605,
  "wurttemberg": 16346,
  "1991": 2889,
  "wild": 3748,
  "##phs": 18757,
  "##\u0431": 29740,
  "leaving": 2975,
  "holding": 3173,
  "[unused52]": 53,
  "##moor": 17622,
  "425": 23285,
  "##shin": 17426,
  "grimaced": 19014,
  "strategic": 6143,
  "jimenez": 22790,
  "dc": 5887,
  "cal": 10250,
  "river": 2314,
  "22": 2570,
  "suarez": 22551,
  "revolt": 10073,
  "lawyers": 9559,
  "\u2014": 1517,
  "likes": 7777,
  "carnival": 11485,
  "creations": 20677,
  "##min": 10020,
  "griffin": 9258,
  "insufficient": 13990,
  "signing": 6608,
  "structural": 8332,
  "119": 13285,
  "saunders": 15247,
  "extreme": 6034,
  "##mit": 22930,
  "ithaca": 27939,
  "ud": 20904,
  "\u266d": 1627,
  "mushroom": 18565,
  "likewise": 10655,
  "transfer": 4651,
  "temporal": 15850,
  "sudan": 10411,
  "##\u308b": 30213,
  "##\u3009": 30164,
  "delegate": 11849,
  "arrogance": 24416,
  "tariff": 23234,
  "guarding": 17019,
  "wishing": 10261,
  "automobile": 9935,
  "undertaker": 27568,
  "vaccine": 17404,
  "percussion": 6333,
  "[unused153]": 158,
  "misty": 15167,
  "retreat": 7822,
  "defeats": 14222,
  "jasmine": 14032,
  "aegean": 27198,
  "##holding": 23410,
  "com": 4012,
  "benefactor": 27398,
  "iran": 4238,
  "clues": 15774,
  "[unused720]": 725,
  "237": 23297,
  "verbal": 12064,
  "##naut": 24619,
  "##born": 10280,
  "consult": 23363,
  "fifteen": 5417,
  "[unused194]": 199,
  "##nare": 26148,
  "explorers": 19264,
  "texas": 3146,
  "\u03b3": 1157,
  "convicts": 24948,
  "##ane": 7231,
  "xvi": 16855,
  "ingram": 23231,
  "haired": 10681,
  "pulpit": 23134,
  "embroidery": 29507,
  "caused": 3303,
  "cruel": 10311,
  "##gs": 5620,
  "anticipation": 11162,
  "froze": 10619,
  "gabby": 27183,
  "paths": 10425,
  "##nka": 25804,
  "##anor": 27869,
  "lew": 24992,
  "[unused634]": 639,
  "wnba": 25554,
  "junction": 5098,
  "sideways": 12579,
  "stamp": 11359,
  "afford": 8984,
  "ch": 10381,
  "performance": 2836,
  "colors": 6087,
  "selling": 4855,
  "##eves": 23047,
  "crash": 5823,
  "sufficiently": 12949,
  "geek": 29294,
  "customary": 16120,
  "transformation": 8651,
  "1785": 17262,
  "rail": 4334,
  "basin": 6403,
  "functioning": 12285,
  "[unused377]": 382,
  "bridge": 2958,
  "cheekbones": 27181,
  "##rio": 9488,
  "see": 2156,
  "http": 8299,
  "chairs": 8397,
  "nearly": 3053,
  "##cke": 19869,
  "cereal": 20943,
  "subdivisions": 22095,
  "habitat": 6552,
  "reduced": 4359,
  "smiling": 5629,
  "defendant": 13474,
  "##ano": 6761,
  "programs": 3454,
  "bad": 2919,
  "mediation": 26435,
  "plastic": 6081,
  "attracts": 17771,
  "analyzed": 16578,
  "locomotive": 8098,
  "bundesliga": 14250,
  "coldly": 24745,
  "darlington": 19667,
  "##oit": 28100,
  "catherine": 6615,
  "sacked": 14159,
  "##kle": 19099,
  "fenton": 27096,
  "hermes": 24127,
  "##cton": 28312,
  "ked": 16135,
  "cite": 21893,
  "ejected": 22607,
  "cornish": 17797,
  "impairment": 25172,
  "[unused521]": 526,
  "aquatics": 26649,
  "##henko": 19767,
  "\u5973": 1815,
  "##\u4e4b": 30275,
  "mechanized": 23387,
  "beverly": 12218,
  "##pire": 20781,
  "retiring": 9150,
  "##rea": 16416,
  "##sler": 20590,
  "##sberg": 11711,
  "chong": 24008,
  "gentle": 7132,
  "symphonic": 18957,
  "paralyzed": 22348,
  "arrival": 5508,
  "##ulate": 9869,
  "##os": 2891,
  "bobby": 6173,
  "shed": 8328,
  "counsel": 9517,
  "840": 28122,
  "##\u2080": 17110,
  "\u00fe": 1101,
  "##cy": 5666,
  "rent": 9278,
  "bed": 2793,
  "shielding": 25553,
  "consul": 11801,
  "seems": 3849,
  "\u10e2": 1453,
  "nasa": 9274,
  "moaning": 22653,
  "1950s": 4856,
  "kai": 11928,
  "tehsil": 20751,
  "combine": 11506,
  "stairwell": 22109,
  "bas": 19021,
  "albuquerque": 19334,
  "temperature": 4860,
  "[unused366]": 371,
  "composer": 4543,
  "[unused988]": 993,
  "ink": 10710,
  "presence": 3739,
  "##lidae": 21595,
  "culinary": 20560,
  "curves": 10543,
  "traveled": 6158,
  "##leg": 23115,
  "executed": 6472,
  "##\u044e": 29757,
  "~": 1066,
  "hiatus": 14221,
  "ahmad": 10781,
  "##dication": 25027,
  "##hall": 9892,
  "##we": 8545,
  "potsdam": 26554,
  "classical": 4556,
  "##sw": 26760,
  "commenced": 8420,
  "provides": 3640,
  "yellowish": 17804,
  "tracked": 12808,
  "bud": 13007,
  "sulawesi": 29078,
  "refit": 27070,
  "monaco": 14497,
  "pile": 8632,
  "monthly": 7058,
  "[unused164]": 169,
  "rome": 4199,
  "##ake": 13808,
  "##bow": 18912,
  "\u667a": 1869,
  "mysteriously": 29239,
  "##isan": 29196,
  "regeneration": 20045,
  "##\u0142a": 22972,
  "##ilised": 21758,
  "considering": 6195,
  "qc": 25196,
  "jace": 10352,
  "1663": 29016,
  "price": 3976,
  "slap": 14308,
  "##12": 12521,
  "flights": 7599,
  "guatemala": 11779,
  "nonfiction": 25753,
  "al": 2632,
  "sins": 15516,
  "austin": 5899,
  "[unused246]": 251,
  "##sies": 14625,
  "\u0433": 1183,
  "iraq": 5712,
  "##not": 17048,
  "@": 1030,
  "mandates": 25979,
  "##mans": 15154,
  "daryl": 22514,
  "virginia": 3448,
  "desert": 5532,
  "treaties": 16013,
  "bee": 10506,
  "flash": 5956,
  "denounced": 17787,
  "zagreb": 12974,
  "[unused134]": 139,
  "cookie": 17387,
  "##\u76f8": 30445,
  "##genic": 16505,
  "##uth": 14317,
  "##ura": 4648,
  "tribal": 8807,
  "minus": 15718,
  "ambassadors": 20986,
  "camilla": 26902,
  "dismiss": 19776,
  "##encia": 27742,
  "instruction": 7899,
  "kill": 3102,
  "renewable": 13918,
  "outgoing": 22011,
  "##hiro": 18334,
  "sabha": 11200,
  "[unused422]": 427,
  "##gu": 12193,
  "##tray": 28473,
  "\u0b9f": 1384,
  "violins": 25877,
  "jade": 12323,
  "candy": 9485,
  "modernist": 19770,
  "trombone": 13914,
  "lori": 18669,
  "substance": 9415,
  "##zzle": 17644,
  "\u7248": 1907,
  "tanner": 12780,
  "##55": 24087,
  "\u671d": 1874,
  "##masters": 27751,
  "coming": 2746,
  "##mple": 23344,
  "##\u1112": 30005,
  "##list": 9863,
  "antibiotics": 24479,
  "##grant": 18980,
  "makeup": 5789,
  "prestige": 14653,
  "##rne": 12119,
  "\u5f35": 1844,
  "residential": 5647,
  "cut": 3013,
  "[unused494]": 499,
  "##\u5b89": 30346,
  "starters": 29400,
  "skins": 21049,
  "dancers": 10487,
  "fbi": 8495,
  "psyche": 25774,
  "tunnel": 5234,
  "detonated": 28110,
  "jorge": 10853,
  "tsunami": 19267,
  "ks": 29535,
  "safer": 13726,
  "generate": 9699,
  "ways": 3971,
  "showcase": 13398,
  "managerial": 24465,
  "##plication": 21557,
  "vfl": 13480,
  "gleam": 24693,
  "##\u091f": 29856,
  "262": 21950,
  "##iferous": 23930,
  "sustaining": 22663,
  "reagan": 11531,
  "velocity": 10146,
  "##\u0ca8": 29936,
  "configurations": 22354,
  "dissolution": 12275,
  "elder": 6422,
  "amazingly": 29350,
  "corrections": 20983,
  "camped": 27077,
  "##rong": 17583,
  "dose": 13004,
  "authorship": 26324,
  "rallied": 24356,
  "strategically": 23972,
  "bahia": 22474,
  "failure": 4945,
  "geneva": 9810,
  "[unused447]": 452,
  "[unused947]": 952,
  "phases": 12335,
  "##wr": 13088,
  "purely": 11850,
  "##\u044a": 29755,
  "woken": 22795,
  "##se": 3366,
  "unusual": 5866,
  "bjp": 24954,
  "jenna": 13504,
  "rotating": 13618,
  "condemned": 10033,
  "bordered": 11356,
  "\u1d35": 1493,
  "lindsey": 17518,
  "nominated": 4222,
  "dec": 11703,
  "delaware": 8452,
  "\u00b0f": 8157,
  "linked": 5799,
  "##\u2261": 30134,
  "whilst": 5819,
  "procedure": 7709,
  "revolutionaries": 24517,
  "##bol": 14956,
  "lame": 20342,
  "##ggle": 24679,
  "999": 25897,
  "countdown": 18144,
  "stuff": 4933,
  "appearances": 3922,
  "[unused678]": 683,
  "gag": 18201,
  "##\u516c": 30298,
  "802": 23908,
  "bruise": 24851,
  "klaus": 16536,
  "##unt": 16671,
  "nova": 6846,
  "plaintiff": 20579,
  "##ghi": 28891,
  "dorsal": 12759,
  "memo": 24443,
  "\u98a8": 1977,
  "pristine": 27375,
  "smelled": 9557,
  "hayes": 10192,
  "\u0937": 1337,
  "stuffed": 11812,
  "reminding": 15906,
  "3rd": 3822,
  "initiation": 17890,
  "\u4f0a": 1762,
  "sequential": 25582,
  "smug": 20673,
  "gig": 15453,
  "sermon": 18408,
  "crawling": 15927,
  "forsyth": 29434,
  "##urus": 20089,
  "scream": 6978,
  "crashed": 8007,
  "1753": 23810,
  "saddle": 12279,
  "negatively": 19762,
  "poured": 8542,
  "decisions": 6567,
  "hull": 6738,
  "usl": 22448,
  "aragon": 16146,
  "snarled": 15022,
  "##ain": 8113,
  "[unused475]": 480,
  "synonymous": 22594,
  "discus": 26047,
  "senior": 3026,
  "\u5e78": 1841,
  "momentary": 29089,
  "\u533a": 1782,
  "reactor": 13308,
  "##ike": 17339,
  "worn": 6247,
  "##\uff0d": 30516,
  "innocence": 12660,
  "darcy": 17685,
  "marrow": 24960,
  "land": 2455,
  "richards": 9712,
  "postmaster": 20707,
  "ditch": 14033,
  "##\u11b7": 30023,
  "tempo": 13657,
  "indonesian": 9003,
  "settlers": 7322,
  "enlist": 28845,
  "supporters": 6793,
  "heavenly": 16581,
  "shy": 11004,
  "knelt": 12804,
  "tribute": 7050,
  "burger": 15890,
  "per": 2566,
  "stomped": 21918,
  "downwards": 28457,
  "[unused724]": 729,
  "future": 2925,
  "rappers": 28257,
  "##\u0433": 29741,
  "melodic": 17187,
  "preserving": 15224,
  "presumably": 10712,
  "dome": 8514,
  "flap": 20916,
  "\u27e8": 1629,
  "##aint": 22325,
  "ranks": 6938,
  "socks": 14829,
  "flashback": 21907,
  "seasonal": 12348,
  "##ter": 3334,
  "metals": 11970,
  "slam": 9555,
  "1996": 2727,
  "thousand": 4595,
  "380": 17014,
  "aidan": 12643,
  "millimetres": 13388,
  "leto": 24543,
  "zodiac": 28501,
  "crouch": 21676,
  "precursor": 14988,
  "parts": 3033,
  "##ph": 8458,
  "enacted": 11955,
  "average": 2779,
  "synthesized": 23572,
  "sean": 5977,
  "plotting": 20699,
  "gestapo": 26446,
  "vo": 29536,
  "##\u03b2": 29720,
  "boy": 2879,
  "traditions": 7443,
  "[unused71]": 72,
  "guitarist": 5990,
  "##hos": 15006,
  "192": 17613,
  "qualification": 8263,
  "pausing": 20490,
  "troopers": 26246,
  "relativity": 20805,
  "confined": 12302,
  "auditor": 20964,
  "##pheus": 22809,
  "vols": 18709,
  "swamps": 22722,
  "1806": 12518,
  "##enay": 27727,
  "##mith": 19864,
  "##fia": 22749,
  "sprawling": 24199,
  "##ht": 11039,
  "\u5b87": 1819,
  "animator": 25132,
  "##pw": 28400,
  "felipe": 17095,
  "harassment": 16011,
  "##\u738b": 30435,
  "##reus": 23446,
  "\u00bb": 1090,
  "##shore": 19208,
  "mandarin": 15831,
  "kidnapped": 11364,
  "austen": 24177,
  "jump": 5376,
  "sep": 19802,
  "##ly": 2135,
  "##oh": 11631,
  "styling": 20724,
  "alexei": 21219,
  "positive": 3893,
  "##ise": 5562,
  "thayer": 25563,
  "##fo": 14876,
  "underground": 5230,
  "shot": 2915,
  "terrible": 6659,
  "atm": 27218,
  "ministers": 7767,
  "roast": 25043,
  "##eus": 10600,
  "##cave": 27454,
  "marines": 9622,
  "bent": 6260,
  "maynard": 22130,
  "karlsruhe": 26660,
  "##gned": 19225,
  "dug": 8655,
  "perimeter": 13443,
  "involve": 9125,
  "amendments": 16051,
  "airing": 10499,
  "flip": 11238,
  "##bell": 17327,
  "barrels": 13826,
  "\u0916": 1316,
  "linux": 11603,
  "\u09aa": 1367,
  "unreasonable": 29205,
  "adventist": 25696,
  "migrate": 22806,
  "talked": 5720,
  "noon": 11501,
  "set": 2275,
  "911": 19989,
  "[unused856]": 861,
  "171": 18225,
  "retro": 22307,
  "mutually": 20271,
  "facilitated": 19601,
  "winners": 4791,
  "parasitic": 26045,
  "##uni": 19496,
  "\u11a8": 1484,
  "hardship": 26479,
  "simpson": 9304,
  "rescues": 26001,
  "revolution": 4329,
  "logo": 8154,
  "##ipes": 28108,
  "##pressive": 27484,
  "spreads": 20861,
  "textual": 25304,
  "eastenders": 28936,
  "search": 3945,
  "moves": 5829,
  "##\u2217": 30125,
  "creature": 6492,
  "privacy": 9394,
  "v6": 25275,
  "piccolo": 29368,
  "him": 2032,
  "1878": 7261,
  "lucy": 7004,
  "smacked": 19203,
  "extent": 6698,
  "##oped": 24174,
  "[unused763]": 768,
  "bruises": 18438,
  "##nad": 25389,
  "phillies": 15711,
  "gunter": 27834,
  "newbury": 29457,
  "designated": 4351,
  "hercules": 15067,
  "##jack": 17364,
  "##tc": 13535,
  "biceps": 27947,
  "gazing": 16448,
  "##anies": 28064,
  "werewolves": 18306,
  "dl": 21469,
  "##christ": 26654,
  "stalin": 13125,
  "chevy": 29009,
  "625": 22810,
  "deliberately": 9969,
  "turns": 4332,
  "##kos": 15710,
  "[unused181]": 186,
  "\u305d": 1660,
  "##lism": 28235,
  "wta": 21925,
  "1638": 27497,
  "\u0bbe": 1395,
  "transgender": 16824,
  "slip": 7540,
  "peking": 27057,
  "judgments": 26186,
  "mice": 12328,
  "1846": 9244,
  "perch": 21836,
  "experimenting": 23781,
  "##\u6cd5": 30427,
  "investigated": 10847,
  "fond": 13545,
  "nk": 25930,
  "orioles": 18893,
  "tangled": 14170,
  "##isha": 24032,
  "explore": 8849,
  "hopkins": 10239,
  "labourers": 24043,
  "gage": 10012,
  "wells": 7051,
  "texans": 23246,
  "fascinating": 17160,
  "##tance": 26897,
  "cursed": 10678,
  "antibodies": 22931,
  "export": 9167,
  "##uel": 16284,
  "311": 23532,
  "reducing": 8161,
  "pia": 24624,
  "##yya": 19903,
  "grins": 20237,
  "ravaged": 25537,
  "omega": 14827,
  "universal": 5415,
  "[unused452]": 457,
  "lock": 5843,
  "##rval": 26585,
  "taps": 25316,
  "allows": 4473,
  "penny": 10647,
  "discount": 19575,
  "wealthy": 7272,
  "##pd": 17299,
  "privy": 14452,
  "usc": 15529,
  "##ssing": 18965,
  "##\u306a": 30193,
  "##\u4e0a": 30268,
  "sunlight": 9325,
  "nikolay": 28494,
  "boeing": 10321,
  "wes": 14008,
  "emitted": 22627,
  "hereford": 21136,
  "there": 2045,
  "trolley": 20820,
  "cape": 4880,
  "comune": 21130,
  "fetch": 18584,
  "mobilization": 25580,
  "behavior": 5248,
  "##eed": 13089,
  "##\u00a5": 29648,
  "symbolism": 22050,
  "banana": 15212,
  "diego": 5277,
  "90": 3938,
  "ethnicity": 18240,
  "gases": 15865,
  "##nail": 25464,
  "told": 2409,
  "##\u0ba4": 29921,
  "shadowed": 25843,
  "hazardous": 17760,
  "vinci": 23765,
  "##\u099f": 29895,
  "##thermal": 23367,
  "teased": 13074,
  "salamanca": 29608,
  "humane": 23369,
  "cornerstone": 23354,
  "summon": 18654,
  "engined": 21235,
  "supervision": 10429,
  "career": 2476,
  "bright": 4408,
  "titled": 4159,
  "syllable": 16353,
  "steep": 9561,
  "unexpectedly": 14153,
  "ethernet": 26110,
  "reconciliation": 16088,
  "##mmel": 29033,
  "oslo": 9977,
  "persuaded": 11766,
  "mushrooms": 23827,
  "celebrations": 12035,
  "wise": 7968,
  "constituency": 5540,
  "incline": 27461,
  "workshops": 9656,
  "##\u30bf": 30235,
  "sponsorship": 12026,
  "thriving": 20319,
  "dark": 2601,
  "\u5143": 1769,
  "54": 5139,
  "##morphic": 18078,
  "nunez": 28454,
  "advances": 9849,
  "additionally": 5678,
  "[unused229]": 234,
  "##coll": 26895,
  "waters": 5380,
  "##mite": 23419,
  "\u300f": 1644,
  "dalai": 28511,
  "122": 13092,
  "\u1d64": 1509,
  "screen": 3898,
  "##yal": 21095,
  "documenting": 23138,
  "1": 1015,
  "##\u8ecd": 30481,
  "mont": 18318,
  "terrain": 9291,
  "austro": 16951,
  "annually": 6604,
  "living": 2542,
  "##rgeon": 28242,
  "bite": 6805,
  "electro": 16175,
  "advertisement": 15147,
  "stacked": 16934,
  "##cho": 9905,
  "guilty": 5905,
  "surgical": 11707,
  "administratively": 23710,
  "[unused660]": 665,
  "##yo": 7677,
  "leland": 27134,
  "83": 6640,
  "inclined": 13050,
  "hopefully": 11504,
  "\u0574": 1229,
  "dent": 21418,
  "ruined": 9868,
  "##\u5cf6": 30359,
  "postage": 22981,
  "rockwell": 25235,
  "[unused464]": 469,
  "##rber": 20473,
  "fed": 7349,
  "containers": 16143,
  "demonstrates": 16691,
  "alec": 9752,
  "##fusion": 20523,
  "##\u83ef": 30468,
  "offenses": 25173,
  "rashid": 22080,
  "\u05e3": 1260,
  "chords": 18495,
  "shreveport": 23740,
  "me": 2033,
  "boxes": 8378,
  "figures": 4481,
  "ms": 5796,
  "barbie": 22635,
  "\u653f": 1860,
  "os": 9808,
  "\u767d": 1915,
  "penalties": 12408,
  "red": 2417,
  "yep": 15624,
  "abbas": 17532,
  "##pee": 28084,
  "radiation": 8249,
  "eliminate": 11027,
  "182": 17691,
  "singular": 13048,
  "brewer": 18710,
  "[unused954]": 959,
  "##\u51fa": 30300,
  "##ntino": 25318,
  "1734": 27367,
  "mcmahon": 17741,
  "emphasis": 7902,
  "##be": 4783,
  "misunderstanding": 24216,
  "bags": 8641,
  "gills": 29468,
  "settlements": 7617,
  "##\u201a": 30057,
  "from": 2013,
  "vegas": 7136,
  "mortally": 26495,
  "wealthiest": 27809,
  "motif": 16226,
  "##nberger": 28825,
  "\u00df": 1096,
  "acquaintance": 18363,
  "disgust": 12721,
  "##zee": 23940,
  "emery": 24294,
  "leftist": 24247,
  "arte": 16185,
  "biennale": 21140,
  "[unused815]": 820,
  "pushes": 13956,
  "insights": 20062,
  "oriental": 11481,
  "[unused129]": 134,
  "undeveloped": 29341,
  "##low": 8261,
  "baltimore": 6222,
  "323": 25392,
  "misleading": 22369,
  "\u2082": 1549,
  "specialised": 17009,
  "\u548c": 1796,
  "clashed": 22600,
  "shared": 4207,
  "noticing": 15103,
  "redskins": 17461,
  "exited": 15284,
  "##mada": 23574,
  "resin": 24604,
  "carver": 20163,
  "assessing": 20077,
  "nikki": 14470,
  "collector": 10018,
  "childbirth": 27162,
  "candidates": 5347,
  "peters": 12420,
  "##\u0584": 29786,
  "findings": 9556,
  "athletic": 5188,
  "declined": 6430,
  "1709": 28955,
  "clara": 10254,
  "juno": 20788,
  "##emy": 26662,
  "buses": 7793,
  "sweden": 4701,
  "dung": 29328,
  "relocated": 7448,
  "##dra": 7265,
  "whorls": 25637,
  "##mation": 28649,
  "1867": 7517,
  "inflation": 14200,
  "credentials": 22496,
  "tex": 16060,
  "401": 22649,
  "growing": 3652,
  "powerhouse": 24006,
  "elaine": 15263,
  "##baldi": 28807,
  "wavy": 23098,
  "##nt": 3372,
  "falsely": 23123,
  "[unused883]": 888,
  "##bry": 25731,
  "##oli": 10893,
  "gotham": 22814,
  "possessive": 22105,
  "headed": 3753,
  "targeting": 14126,
  "kyle": 7648,
  "cycle": 5402,
  "##sis": 6190,
  "created": 2580,
  "##lium": 21816,
  "renovation": 10525,
  "bumped": 19030,
  "bosch": 25936,
  "##gart": 27378,
  "destined": 16036,
  "##mia": 10092,
  "franchise": 6329,
  "tenor": 9534,
  "sinn": 26403,
  "##\u8c9d": 30478,
  "\u05d7": 1248,
  "balfour": 27560,
  "##rno": 19139,
  "tribe": 5917,
  "andhra": 14065,
  "ecology": 13517,
  "defiance": 19674,
  "[unused681]": 686,
  "mughal": 17877,
  "stepfather": 21481,
  "skier": 21294,
  "lodges": 26767,
  "hunger": 9012,
  "\u300c": 1641,
  "administering": 28965,
  "noun": 15156,
  "##\u9053": 30483,
  "\u03c3": 1173,
  "abduction": 23415,
  "##ern": 11795,
  "perfection": 15401,
  "neighboring": 8581,
  "rolls": 9372,
  "##dot": 27364,
  "dungeons": 20264,
  "gulp": 26546,
  "##ime": 14428,
  "##ente": 15781,
  "nails": 10063,
  "domestic": 4968,
  "gabriel": 6127,
  "##tree": 13334,
  "complement": 13711,
  "dynasties": 23014,
  "##orough": 26388,
  "##rock": 16901,
  "960": 26637,
  "175": 12862,
  "##ocene": 25793,
  "molly": 9618,
  "##nsky": 25655,
  "startup": 22752,
  "##ntal": 15758,
  "z": 1062,
  "coven": 25248,
  "##\u30a4": 30221,
  "upstream": 13909,
  "\u10d1": 1439,
  "##oked": 23461,
  "weapons": 4255,
  "nobel": 10501,
  "malicious": 24391,
  "##\u043d": 18947,
  "\u2090": 1560,
  "partisan": 14254,
  "enzymes": 16285,
  "mollusk": 13269,
  "correction": 18140,
  "yd": 21076,
  "lexie": 24123,
  "caden": 23600,
  "modular": 19160,
  "##h": 2232,
  "shepard": 22189,
  "162": 17832,
  "governmental": 10605,
  "##rius": 13245,
  "islam": 7025,
  "environment": 4044,
  "[unused777]": 782,
  "enough": 2438,
  "weaving": 15360,
  "infected": 10372,
  "denominations": 17384,
  "##\u5b9a": 30348,
  "\u0430": 1180,
  "syllables": 20732,
  "coliseum": 18338,
  "lie": 4682,
  "##iti": 25090,
  "parent": 6687,
  "tame": 24763,
  "juan": 5348,
  "tres": 24403,
  "arcs": 29137,
  "browne": 15005,
  "ussr": 10331,
  "unacceptable": 21873,
  "appointed": 2805,
  "nominally": 24207,
  "theft": 11933,
  "##\u05dc": 29799,
  "lease": 10084,
  "capsule": 18269,
  "##\u0dcf": 29944,
  "##ford": 3877,
  "rower": 21984,
  "##ating": 5844,
  "persons": 5381,
  "baghdad": 13952,
  "restrictions": 9259,
  "sundays": 14803,
  "squad": 4686,
  "iberian": 21988,
  "bahn": 17392,
  "tavi": 24283,
  "bedroom": 5010,
  "argent": 23157,
  "reconnaissance": 8967,
  "1983": 3172,
  "correlated": 23900,
  "concurrently": 15442,
  "1936": 4266,
  "variables": 10857,
  "reiterated": 28960,
  "##utz": 20267,
  "believing": 8929,
  "partition": 13571,
  "substituted": 17316,
  "compton": 18592,
  "governors": 11141,
  "520": 19611,
  "seduce": 23199,
  "graphics": 8389,
  "##ova": 7103,
  "##heater": 27847,
  "\u4e2d": 1746,
  "poorer": 27196,
  "minors": 18464,
  "assured": 8916,
  "##mounted": 27632,
  "[unused933]": 938,
  "reckless": 18555,
  "##\u026f": 29688,
  "recordings": 5633,
  "possessions": 13689,
  "ministries": 16410,
  "##mond": 11442,
  "toxicity": 22423,
  "\u221a": 1600,
  "appeared": 2596,
  "electron": 10496,
  "5": 1019,
  "registrar": 24580,
  "##up": 6279,
  "unesco": 12239,
  "arya": 26140,
  "<": 1026,
  "lear": 26511,
  "##80": 17914,
  "hooves": 28399,
  "34": 4090,
  "pathway": 12732,
  "tennis": 5093,
  "estonia": 10692,
  "forcefully": 23097,
  "\u2026": 1529,
  "##\u0644": 23673,
  "\u043a": 1189,
  "met": 2777,
  "kayla": 26491,
  "elgin": 23792,
  "crisp": 15594,
  "monte": 10125,
  "flour": 13724,
  "arc": 8115,
  "estimates": 10035,
  "scientists": 6529,
  "incurred": 22667,
  "outfit": 11018,
  "##post": 19894,
  "oldies": 26826,
  "formally": 6246,
  "essendon": 25149,
  "##kit": 23615,
  "barlow": 17803,
  "decorations": 14529,
  "coughed": 19055,
  "medicare": 27615,
  "##thy": 16921,
  "kilograms": 18857,
  "pembroke": 21457,
  "##zam": 20722,
  "volunteered": 14382,
  "reindeer": 29495,
  "##taro": 28160,
  "martha": 9246,
  "slight": 7263,
  "horse": 3586,
  "alba": 18255,
  "\u0f0d": 1425,
  "encounter": 8087,
  "sexuality": 13798,
  "density": 4304,
  "segments": 9214,
  "obstacles": 15314,
  "maintain": 5441,
  "missing": 4394,
  "firms": 9786,
  "watershed": 12547,
  "ramp": 13276,
  "##lau": 17298,
  "##user": 20330,
  "payment": 7909,
  "competed": 3879,
  "nouveau": 25272,
  "classification": 5579,
  "##\u5409": 30319,
  "peptide": 25117,
  "jacobs": 12988,
  "##ff": 4246,
  "##fa": 7011,
  "colonies": 8355,
  "researches": 27338,
  "diagnosis": 11616,
  "##nesian": 20281,
  "understood": 5319,
  "deficit": 15074,
  "[unused45]": 46,
  "burnley": 23028,
  "vito": 25550,
  "viewing": 10523,
  "johansson": 26447,
  "\u7687": 1917,
  "eerie": 18823,
  "##mons": 16563,
  "aspects": 5919,
  "supernatural": 11189,
  "##acio": 21361,
  "residues": 22644,
  "prop": 17678,
  "##yler": 20853,
  "regression": 26237,
  "follower": 22399,
  "attention": 3086,
  "disability": 11980,
  "cortes": 22242,
  "##relli": 22948,
  "opportunities": 6695,
  "##\u0279": 29691,
  "sac": 17266,
  "\u1169": 1475,
  "heads": 4641,
  "springs": 6076,
  "intuitive": 29202,
  "sometimes": 2823,
  "ferocious": 27863,
  "playoff": 7808,
  "novella": 20674,
  "ebook": 26885,
  "\u0452": 1211,
  "290": 17222,
  "state": 2110,
  "retrospective": 15354,
  "modernism": 27254,
  "hardly": 6684,
  "xavier": 10062,
  "internationally": 7587,
  "shivers": 28464,
  "helene": 20149,
  "mute": 20101,
  "clifton": 16271,
  "restricting": 26996,
  "##sin": 11493,
  "reserved": 9235,
  "owes": 24381,
  "schooner": 21567,
  "##mous": 27711,
  "##by": 3762,
  "\u099a": 1356,
  "neat": 15708,
  "potential": 4022,
  "fairfield": 18986,
  "##je": 6460,
  "daughter": 2684,
  "features": 2838,
  "decisive": 13079,
  "abbot": 11428,
  "bella": 12101,
  "laptop": 12191,
  "##\u53e4": 30315,
  "enables": 12939,
  "##fb": 26337,
  "##gren": 13565,
  "tune": 8694,
  "daphne": 16847,
  "meadow": 13244,
  "bolivian": 26075,
  "[unused411]": 416,
  "layered": 21323,
  "boring": 11771,
  "##8": 2620,
  "entering": 5738,
  "flop": 28583,
  "##lion": 18964,
  "[unused510]": 515,
  "##oki": 23212,
  "farmer": 7500,
  "meaning": 3574,
  "danielle": 18490,
  "moisture": 14098,
  "crore": 21665,
  "ordered": 3641,
  "burnett": 13829,
  "flourished": 17893,
  "marta": 18950,
  "roland": 8262,
  "hip": 5099,
  "toulon": 27160,
  "steppe": 29096,
  "##oi": 10448,
  "twenties": 18946,
  "bore": 8501,
  "kay": 10905,
  "seize": 15126,
  "permit": 9146,
  "##og": 8649,
  "arrangement": 6512,
  "blogs": 23012,
  "emotional": 6832,
  "occurs": 5158,
  "swayed": 20122,
  "##anga": 18222,
  "voting": 6830,
  "assassinate": 25683,
  "trafficking": 11626,
  "malmo": 23643,
  "nora": 12306,
  "saigon": 24001,
  "overcoming": 27363,
  "polo": 11037,
  "ammunition": 9290,
  "ventured": 20510,
  "citations": 22921,
  "herds": 28822,
  "timmy": 27217,
  "##lam": 10278,
  "commit": 10797,
  "accessory": 25339,
  "everett": 15160,
  "arson": 24912,
  "grave": 6542,
  "indicates": 7127,
  "causes": 5320,
  "hurdles": 18608,
  "volume": 3872,
  "##fall": 13976,
  "boomed": 28908,
  "\u25a0": 1617,
  "reelection": 17648,
  "##ient": 11638,
  "avery": 12140,
  "sinatra": 19643,
  "870": 28864,
  "geographical": 10056,
  "draws": 9891,
  "ignited": 22395,
  "mit": 10210,
  "rest": 2717,
  "seater": 23392,
  "duel": 14216,
  "given": 2445,
  "ismail": 19214,
  "soto": 22768,
  "\u099c": 1358,
  "additional": 3176,
  "##thesis": 25078,
  "elliptical": 27213,
  "tricks": 12225,
  "anarchy": 26395,
  "##yr": 12541,
  "raced": 8255,
  "automatic": 6882,
  "eun": 26070,
  "slabs": 28761,
  "##cera": 19357,
  "letterman": 26593,
  "bonnie": 12220,
  "ex": 4654,
  "officials": 4584,
  "indira": 28232,
  "handing": 13041,
  "dir": 16101,
  "##ux": 5602,
  "canadians": 16485,
  "varied": 9426,
  "##\u4f8d": 30291,
  "##chfield": 22693,
  "tigers": 7600,
  "1948": 3882,
  "cleansing": 26799,
  "185": 15376,
  "entertain": 20432,
  "maharashtra": 12434,
  "furry": 28662,
  "##ifice": 23664,
  "[unused823]": 828,
  "thing": 2518,
  "configured": 26928,
  "buffet": 28305,
  "intending": 16533,
  "boredom": 29556,
  "countess": 11716,
  "seats": 4272,
  "destructive": 15615,
  "##age": 4270,
  "bluff": 14441,
  "relation": 7189,
  "sugar": 5699,
  "micah": 17665,
  "whipping": 23016,
  "copied": 15826,
  "##eum": 14820,
  "##\u092e": 29867,
  "[unused829]": 834,
  "revoked": 22837,
  "institute": 2820,
  "trajectory": 22793,
  "scoffed": 26326,
  "appellate": 23240,
  "\u207f": 1546,
  "since": 2144,
  "flood": 7186,
  "sofa": 10682,
  "##\u00b4s": 21932,
  "##drum": 21884,
  "themed": 11773,
  "##\u03c6": 29736,
  "##bread": 27035,
  "others": 2500,
  "##raph": 24342,
  "collects": 17427,
  "palette": 27396,
  "334": 29562,
  "hodge": 23148,
  "##\u5357": 30311,
  "1a": 20720,
  "cleopatra": 22003,
  "alexis": 13573,
  "official": 2880,
  "avenues": 20859,
  "biography": 8308,
  "singer": 3220,
  "vittorio": 25914,
  "##ays": 22916,
  "mystical": 17529,
  "puzzles": 19672,
  "diamond": 6323,
  "##\u1da0": 30047,
  "document": 6254,
  "subunit": 24312,
  "##tsa": 27110,
  "coach": 2873,
  "provisional": 10864,
  "foods": 9440,
  "##\u09b7": 29911,
  "##iidae": 15648,
  "vc": 18315,
  "dominated": 6817,
  "mansions": 26842,
  "\u0635": 1284,
  "bottles": 11015,
  "lo": 8840,
  "torpedo": 9862,
  "consist": 8676,
  "##tiv": 29068,
  "##pore": 26691,
  "\u0e19": 1413,
  "reddy": 18998,
  "bomb": 5968,
  "expedition": 5590,
  "mentions": 9704,
  "mercury": 8714,
  "unprecedented": 15741,
  "##uk": 6968,
  "##16": 16048,
  "selections": 16310,
  "[unused72]": 73,
  "[unused538]": 543,
  "goalkeeper": 9653,
  "##bund": 27265,
  "carved": 7844,
  "grew": 3473,
  "##iere": 21253,
  "##eis": 17580,
  "##\u0b9f": 29920,
  "28th": 15538,
  "engagements": 20583,
  "added": 2794,
  "243": 22884,
  "opposing": 10078,
  "##lated": 13776,
  "##sto": 16033,
  "levi": 11902,
  "adjustment": 19037,
  "carolyn": 15611,
  "fabrication": 25884,
  "1838": 9931,
  "explosions": 18217,
  "barbarians": 28056,
  "sim": 21934,
  "az": 17207,
  "dea": 26709,
  "undone": 25757,
  "gray": 3897,
  "##\u8a01": 30475,
  "finch": 16133,
  "##cating": 18252,
  "fled": 6783,
  "ctv": 28720,
  "townspeople": 27938,
  "glover": 20012,
  "[unused9]": 10,
  "alexandre": 16971,
  "revive": 17995,
  "treated": 5845,
  "\u8857": 1946,
  "outskirts": 12730,
  "diver": 17856,
  "russia": 3607,
  "palazzo": 18482,
  "kissing": 7618,
  "pe": 21877,
  "aloud": 12575,
  "luc": 12776,
  "nathaniel": 13961,
  "informs": 15670,
  "flair": 22012,
  "stretch": 7683,
  "profound": 13769,
  "drastic": 23956,
  "meritorious": 22053,
  "\u304a": 1650,
  "transformed": 8590,
  "aria": 9342,
  "1830": 9500,
  "blow": 6271,
  "someone": 2619,
  "##\u05da": 29797,
  "\u03b7": 1161,
  "[unused893]": 898,
  "umpire": 20887,
  "imply": 19515,
  "standardized": 16367,
  "zimmerman": 27946,
  "stranded": 15577,
  "penned": 17430,
  "yerevan": 23383,
  "[unused176]": 181,
  "merger": 7660,
  "portsmouth": 10913,
  "203": 18540,
  "conservatives": 11992,
  "##aking": 15495,
  "areas": 2752,
  "embarrassing": 16436,
  "nanjing": 21455,
  "alternately": 23554,
  "[unused82]": 83,
  "xander": 29019,
  "vp": 21210,
  "galilee": 28928,
  "delightful": 26380,
  "payton": 28666,
  "kochi": 27603,
  "infection": 8985,
  "euclidean": 25826,
  "defensive": 5600,
  "republics": 24822,
  "placed": 2872,
  "organizer": 19012,
  "rehab": 24497,
  "##tucket": 29315,
  "laws": 4277,
  "discovers": 9418,
  "[unused312]": 317,
  "programmer": 20273,
  "dime": 27211,
  "our": 2256,
  "populous": 20151,
  "kidnapping": 15071,
  "##kshi": 27488,
  "##bin": 8428,
  "pip": 28315,
  "[unused479]": 484,
  "little": 2210,
  "mediated": 19872,
  "visionary": 28036,
  "signaled": 22319,
  "psychology": 6825,
  "waist": 5808,
  "outset": 26674,
  "financial": 3361,
  "realms": 18814,
  "poles": 10567,
  "##gold": 21270,
  "pandora": 19066,
  "relief": 4335,
  "amateur": 5515,
  "ec": 14925,
  "##tow": 18790,
  "##ignment": 24838,
  "shredded": 29022,
  "##\u03bf\u03c2": 15297,
  "medication": 14667,
  "filled": 3561,
  "nonstop": 25493,
  "ceramic": 14692,
  "##\u1d57": 30041,
  "prospective": 17464,
  "[unused37]": 38,
  "[unused978]": 983,
  "grind": 23088,
  ";": 1025,
  "unite": 15908,
  "\u11ab": 1485,
  "tide": 10401,
  "##cise": 18380,
  "isolated": 7275,
  "cry": 5390,
  "twinkle": 29038,
  "[unused155]": 160,
  "1715": 22606,
  "courses": 5352,
  "stretching": 10917,
  "##vinsky": 27704,
  "click": 11562,
  "##unes": 26639,
  "##chang": 22305,
  "decision": 3247,
  "lakes": 6597,
  "bats": 12236,
  "renowned": 8228,
  "mediterranean": 7095,
  "##ress": 8303,
  "certificate": 8196,
  "mc": 11338,
  "##jah": 18878,
  "[unused791]": 796,
  "##6th": 25994,
  "[unused638]": 643,
  "assembled": 9240,
  "\u7684": 1916,
  "##aq": 20784,
  "disorder": 8761,
  "##ifiers": 28295,
  "pride": 6620,
  "anthem": 11971,
  "\u30f3": 1737,
  "hawk": 9881,
  "circumstances": 6214,
  "253": 23254,
  "hamid": 24811,
  "entrusted": 18011,
  "jewels": 15565,
  "\u3081": 1680,
  "draining": 19689,
  "gia": 27699,
  "riders": 8195,
  "##\u53f2": 30316,
  "competitions": 6479,
  "schools": 2816,
  "uhf": 20131,
  "ho": 7570,
  "valiant": 24329,
  "tyre": 21904,
  "brewers": 20007,
  "cot": 26046,
  "##oto": 11439,
  "still": 2145,
  "eater": 28496,
  "napkin": 20619,
  "separately": 10329,
  "##\u1d30": 30028,
  "cumulative": 23260,
  "unsuccessfully": 11551,
  "##nza": 16786,
  "ashby": 28729,
  "##ear": 14644,
  "lung": 11192,
  "##cope": 16186,
  "nt": 23961,
  "intelligence": 4454,
  "cowan": 25752,
  "hormones": 20752,
  "offerings": 14927,
  "olaf": 20514,
  "barren": 20225,
  "sensed": 10596,
  "##sts": 12837,
  "ellie": 10707,
  "jenny": 8437,
  "consumed": 10202,
  "division": 2407,
  "ravens": 17272,
  "[unused841]": 846,
  "irritated": 15560,
  "competitive": 6975,
  "brew": 24702,
  "flaming": 19091,
  "recession": 19396,
  "[unused193]": 198,
  "peck": 18082,
  "language": 2653,
  "salazar": 25315,
  "##kov": 7724,
  "dread": 14436,
  "qu": 24209,
  "##around": 24490,
  "##izations": 22318,
  "##ulates": 18969,
  "cid": 28744,
  "\u057f": 1236,
  "psychiatry": 18420,
  "confinement": 21551,
  "souza": 26598,
  "compassion": 15398,
  "[unused677]": 682,
  "##vat": 22879,
  "##23": 21926,
  "tent": 9311,
  "##gur": 27390,
  "##dant": 28210,
  "ems": 29031,
  "italy": 3304,
  "##sters": 15608,
  "thorough": 16030,
  "patrick": 4754,
  "##lla": 4571,
  "lancashire": 9638,
  "##\u795e": 30451,
  "sleeve": 10353,
  "##vira": 24093,
  "thou": 15223,
  "##ott": 14517,
  "galway": 14370,
  "ibm": 9980,
  "earnest": 17300,
  "walked": 2939,
  "stains": 27094,
  "tending": 25069,
  "##owing": 14138,
  "widen": 21255,
  "##ast": 14083,
  "[unused47]": 48,
  "mildly": 19499,
  "##ticus": 29587,
  "transforms": 21743,
  "##lip": 15000,
  "ebony": 27680,
  "muttered": 6250,
  "natives": 12493,
  "argentina": 5619,
  "skilled": 10571,
  "dots": 14981,
  "jointly": 10776,
  "northward": 17192,
  "2": 1016,
  "quantity": 11712,
  "##\u0280": 29693,
  "selma": 28112,
  "[unused139]": 144,
  "##dget": 24291,
  "##\u0646": 15915,
  "councillors": 13189,
  "congregations": 16850,
  "fabrics": 25123,
  "jakob": 19108,
  "visits": 7879,
  "##cer": 17119,
  "lea": 12203,
  "mortar": 14335,
  "dollar": 7922,
  "alexander": 3656,
  "gonzalez": 10121,
  "scientific": 4045,
  "symmetry": 14991,
  "##tori": 29469,
  "choking": 18329,
  "##movable": 25661,
  "##essed": 23656,
  "##coming": 18935,
  "\u9053": 1957,
  "##icides": 22698,
  "##loaded": 17468,
  "residual": 21961,
  "inhibit": 26402,
  "rotten": 11083,
  "cop": 8872,
  "##athing": 22314,
  "spiders": 14160,
  "at": 2012,
  "canon": 9330,
  "##cured": 19405,
  "##grin": 24860,
  "idols": 24438,
  "shelby": 15294,
  "af": 21358,
  "election": 2602,
  "novak": 19580,
  "ongoing": 7552,
  "racer": 14878,
  "menu": 12183,
  "haunt": 24542,
  "averages": 20185,
  "sarajevo": 18354,
  "discuss": 6848,
  "knotted": 27039,
  "bihar": 16178,
  "medications": 20992,
  "bubba": 19606,
  "##dian": 11692,
  "[unused375]": 380,
  "magazine": 2932,
  "drive": 3298,
  "##mler": 18602,
  "seeming": 16064,
  "teeth": 4091,
  "incorrectly": 19721,
  "pornographic": 26932,
  "##\u00ae": 29656,
  "##ded": 5732,
  "effectiveness": 12353,
  "yarn": 27158,
  "youth": 3360,
  "canoe": 14347,
  "constructing": 15696,
  "mortgage": 14344,
  "carpenter": 10533,
  "lithuanian": 10333,
  "colliery": 19462,
  "detectives": 18145,
  "sabres": 26969,
  "insistent": 29204,
  "[unused264]": 269,
  "lille": 22479,
  "##lase": 25002,
  "shaken": 16697,
  "[unused871]": 876,
  "logging": 15899,
  "\u0432": 1182,
  "bain": 28477,
  "rendered": 10155,
  "welsh": 6124,
  "tiled": 26510,
  "sustainability": 15169,
  "til": 18681,
  "lovers": 10205,
  "900": 7706,
  "cringed": 23952,
  "nickelodeon": 20814,
  "translated": 5421,
  "##peed": 25599,
  "copying": 24731,
  "4a": 26424,
  "rave": 23289,
  "##roids": 29514,
  "logs": 15664,
  "cinderella": 21686,
  "##quitable": 28298,
  "beverages": 21705,
  "gunnery": 27919,
  "sunglasses": 17072,
  "##eg": 13910,
  "##nal": 12032,
  "maids": 29229,
  "strides": 22215,
  "coaches": 7850,
  "jamaica": 9156,
  "acknowledged": 8969,
  "translate": 17637,
  "thirds": 12263,
  "stars": 3340,
  "[unused132]": 137,
  "##\u110e": 30001,
  "syed": 19740,
  "steven": 7112,
  "fiddle": 15888,
  "hangul": 19051,
  "include": 2421,
  "resolved": 10395,
  "punjabi": 17498,
  "introducing": 10449,
  "olympus": 26742,
  "##65": 26187,
  "##\u6a4b": 30411,
  "recommended": 6749,
  "##rce": 19170,
  "contested": 7259,
  "cassidy": 13737,
  "keyboardist": 20173,
  "cryptic": 26483,
  "##\u1d65": 30045,
  "canons": 21975,
  "defence": 4721,
  "malice": 28238,
  "aryan": 26030,
  "\u0642": 1292,
  "dil": 29454,
  "persisted": 19035,
  "westminster": 9434,
  "elsa": 23452,
  "##test": 22199,
  "meyrick": 15228,
  "trainers": 21992,
  "##at": 4017,
  "critical": 4187,
  "pratt": 13208,
  "1894": 6539,
  "anna": 4698,
  "mahmoud": 27278,
  "joked": 19700,
  "illinois": 4307,
  "mountainous": 14897,
  "ruiz": 18773,
  "heaven": 6014,
  "##\u5f35": 30370,
  "microphone": 15545,
  "seminars": 17239,
  "maryland": 5374,
  "champs": 29008,
  "rockefeller": 16696,
  "264": 21611,
  "interfering": 24324,
  "berkshire": 15570,
  "shirt": 3797,
  "puff": 23893,
  "hectare": 20406,
  "acting": 3772,
  "cowboy": 11762,
  "##entes": 26933,
  "[unused679]": 684,
  "nothing": 2498,
  "##par": 19362,
  "intact": 10109,
  "messiah": 22112,
  "pierce": 9267,
  "223": 20802,
  "horne": 24084,
  "agricultural": 4910,
  "talent": 5848,
  "##sil": 27572,
  "[unused266]": 271,
  "vernon": 11447,
  "serge": 21747,
  "louisville": 11577,
  "ala": 21862,
  "##iel": 9257,
  "[unused295]": 300,
  "afterward": 9707,
  "location": 3295,
  "##id": 3593,
  "palace": 4186,
  "apparently": 4593,
  "dame": 8214,
  "\u3057": 1657,
  "holster": 29447,
  "rivals": 9169,
  "hoop": 27669,
  "##ika": 7556,
  "quotes": 16614,
  "refrigerator": 18097,
  "boulevard": 8459,
  "stylized": 19551,
  "meant": 3214,
  "influenced": 5105,
  "germanic": 15139,
  "sauce": 12901,
  "nowhere": 7880,
  "coupe": 15130,
  "heath": 9895,
  "henry": 2888,
  "shift": 5670,
  "##\u10d1": 29975,
  "##iously": 19426,
  "newsweek": 26948,
  "##bir": 17706,
  "\u0e17": 1412,
  "serpent": 16517,
  "iceland": 10399,
  "reacher": 22970,
  "cooper": 6201,
  "built": 2328,
  "cannabis": 17985,
  "\u2282": 1610,
  "distant": 6802,
  "object": 4874,
  "critics": 4401,
  "discussed": 6936,
  "##tlement": 24007,
  "appreciate": 9120,
  "##cm": 27487,
  "festivities": 21206,
  "margot": 29210,
  "daisy": 10409,
  "##\u4e94": 30279,
  "preferences": 18394,
  "lacy": 19959,
  "##nstein": 15493,
  "starr": 14330,
  "snails": 13482,
  "##bella": 21700,
  "##ikh": 28209,
  "exploitation": 14427,
  "heightened": 21106,
  "sacred": 6730,
  "alleging": 23294,
  "neurons": 15698,
  "##overs": 24302,
  "knew": 2354,
  "tackle": 11147,
  "##fight": 20450,
  "aristotle": 17484,
  "amherst": 19850,
  "lure": 17256,
  "wagons": 14525,
  "##eson": 21421,
  "scheme": 5679,
  "decline": 6689,
  "##uven": 27346,
  "##pal": 12952,
  "obviously": 5525,
  "paradise": 9097,
  "##walker": 26965,
  "alumni": 9441,
  "##\u5e73": 30365,
  "bought": 4149,
  "jun": 12022,
  "discrete": 16246,
  "graph": 10629,
  "murders": 9916,
  "[unused924]": 929,
  "##ron": 4948,
  "sears": 18493,
  "standing": 3061,
  "disappears": 17144,
  "##tries": 21011,
  "##ble": 3468,
  "##jo": 5558,
  "mcintosh": 29052,
  "##horse": 23024,
  "deserts": 28858,
  "rs": 12667,
  "weather": 4633,
  "##ayton": 29319,
  "climbs": 18881,
  "cessna": 27664,
  "##\u305b": 30185,
  "subsided": 26588,
  "##iso": 19565,
  "[unused353]": 358,
  "[unused872]": 877,
  "silesia": 21872,
  "extends": 8908,
  "pedersen": 27409,
  "collectively": 13643,
  "anime": 8750,
  "##gman": 25494,
  "stuttgart": 13022,
  "jain": 17136,
  "vidal": 29259,
  "marked": 4417,
  "rochester": 10541,
  "[unused603]": 608,
  "tripped": 21129,
  "strasbourg": 18104,
  "raf": 7148,
  "industrialist": 21691,
  "lawful": 26410,
  "informally": 21858,
  "##\u02b0": 29706,
  "##vier": 14356,
  "vargas": 20556,
  "ramsey": 15092,
  "##\u4e3b": 30273,
  "battles": 7465,
  "dhabi": 23153,
  "wwe": 11700,
  "protestants": 19592,
  "inaugurated": 11070,
  "thinkers": 24762,
  "##\u56db": 30324,
  "priests": 8656,
  "wasted": 13842,
  "activation": 13791,
  "2002": 2526,
  "fade": 12985,
  "cocktail": 18901,
  "ronin": 29249,
  "degree": 3014,
  "immortal": 12147,
  "omar": 13192,
  "doo": 20160,
  "mongol": 17450,
  "clearer": 24509,
  "halves": 23672,
  "##tituted": 29139,
  "##cology": 19824,
  "pink": 5061,
  "anywhere": 5973,
  "##ite": 4221,
  "dramas": 16547,
  "##ice": 6610,
  "##uze": 20395,
  "##uit": 14663,
  "##sy": 6508,
  "##port": 6442,
  "definite": 15298,
  "##cloth": 23095,
  "##bana": 19445,
  "##tom": 20389,
  "maddy": 20789,
  "uniform": 6375,
  "somebody": 8307,
  "lillian": 19344,
  "decades": 5109,
  "germans": 7074,
  "tequila": 26791,
  "antigua": 26023,
  "##avio": 28471,
  "producers": 6443,
  "##cko": 19665,
  "faye": 19243,
  "investigation": 4812,
  "garnered": 13056,
  "1634": 28502,
  "hudson": 6842,
  "du": 4241,
  "##\u05d4": 29128,
  "169": 18582,
  "hauled": 13161,
  "randy": 9744,
  "lazy": 13971,
  "invitational": 20129,
  "##trust": 24669,
  "stages": 5711,
  "##sius": 24721,
  "computers": 7588,
  "325": 19652,
  "asleep": 6680,
  "subdued": 20442,
  "##lls": 12718,
  "\u5b66": 1817,
  "describes": 5577,
  "125": 8732,
  "##main": 24238,
  "##ati": 10450,
  "##gling": 18483,
  "bangs": 28490,
  "controversial": 6801,
  "because": 2138,
  "1852": 8784,
  "sham": 25850,
  "let": 2292,
  "cleaning": 9344,
  "##ps": 4523,
  "[unused708]": 713,
  "cooler": 14976,
  "horseback": 19926,
  "vanishing": 24866,
  "brady": 10184,
  "comeback": 12845,
  "gown": 11739,
  "##bour": 25127,
  "spark": 12125,
  "lineman": 24062,
  "1830s": 20400,
  "[unused674]": 679,
  "[unused943]": 948,
  "venezuela": 8326,
  "raceway": 23018,
  "266": 25162,
  "after": 2044,
  "fitting": 11414,
  "##umi": 12717,
  "thunder": 8505,
  "kobe": 24113,
  "tease": 18381,
  "##sr": 21338,
  "transcribed": 26223,
  "canterbury": 9976,
  "##\u062b": 29818,
  "commemoration": 22377,
  "crewe": 22188,
  "similar": 2714,
  "seo": 27457,
  "goodman": 14514,
  "sal": 16183,
  "profitable": 15282,
  "##growth": 26982,
  "genoa": 15771,
  "##usa": 10383,
  "##filtration": 28674,
  "muriel": 27616,
  "tracing": 16907,
  "disposition": 22137,
  "\u85e4": 1944,
  "sar": 18906,
  "##led": 3709,
  "##\u05d7": 29794,
  "histoire": 20088,
  "[unused170]": 175,
  "unopposed": 17123,
  "gaelic": 11196,
  "cecil": 11978,
  "demon": 5698,
  "##zing": 6774,
  "##anu": 24076,
  "handy": 18801,
  "kolkata": 13522,
  "##rain": 21166,
  "borrowing": 23733,
  "goin": 17249,
  "fashion": 4827,
  "##ny": 4890,
  "2016": 2355,
  "prior": 3188,
  "[unused345]": 350,
  "durga": 28746,
  "valley": 3028,
  "spectra": 29237,
  "spray": 12509,
  "\u044f": 1210,
  "recognized": 3858,
  "##gun": 12734,
  "playback": 18245,
  "ban": 7221,
  "ounce": 19471,
  "asher": 17243,
  "percentage": 7017,
  "commander": 3474,
  "using": 2478,
  "discoveries": 15636,
  "henan": 27837,
  "platform": 4132,
  "alice": 5650,
  "brackets": 19719,
  "##oration": 21223,
  "kickoff": 25233,
  "school": 2082,
  "[unused920]": 925,
  "clerk": 7805,
  "##miento": 28883,
  "inspect": 22459,
  "antennas": 26315,
  "psycho": 18224,
  "guise": 21980,
  "regulated": 12222,
  "disciplinary": 17972,
  "[unused570]": 575,
  "softly": 5238,
  "milos": 26038,
  "[unused206]": 211,
  "gustav": 13430,
  "confronting": 26964,
  "center": 2415,
  "ariel": 16126,
  "raj": 11948,
  "uber": 19169,
  "industries": 6088,
  "emphasizes": 20618,
  "\u66f8": 1871,
  "multicultural": 27135,
  "##ayo": 28852,
  "##\u304f": 30179,
  "pastor": 9220,
  "##ttal": 28200,
  "[unused301]": 306,
  "partnerships": 13797,
  "monterrey": 26843,
  "##rina": 11796,
  "castle": 3317,
  "headmaster": 16296,
  "raining": 24057,
  "spun": 7455,
  "cost": 3465,
  "phase": 4403,
  "##ester": 20367,
  "steered": 23424,
  "vocalist": 8032,
  "##fire": 10273,
  "withdrew": 6780,
  "##dridge": 21482,
  "##lich": 18337,
  "coats": 15695,
  "resorts": 16511,
  "[unused130]": 135,
  "##verted": 26686,
  "\u0923": 1322,
  "arthritis": 27641,
  "concessions": 20638,
  "both": 2119,
  "blouse": 18149,
  "cane": 11942,
  "##7th": 27506,
  "\u5fb7": 1848,
  "satisfying": 17087,
  "shall": 4618,
  "laboratories": 12030,
  "##geny": 17487,
  "baskets": 25946,
  "wow": 10166,
  "[unused885]": 890,
  "manufacturers": 8712,
  "leaned": 4016,
  "bird": 4743,
  "lowering": 13845,
  "##lette": 27901,
  "[unused2]": 3,
  "tacoma": 22954,
  "equipment": 3941,
  "hose": 21290,
  "\u5ba3": 1823,
  "shelves": 15475,
  "cowboys": 11666,
  "coup": 8648,
  "hindi": 9269,
  "eritrea": 26040,
  "##ische": 13719,
  "initiating": 26616,
  "manufacturer": 7751,
  "[unused561]": 566,
  "grande": 9026,
  "slamming": 15209,
  "valentin": 24632,
  "plumbing": 27902,
  "shining": 9716,
  "kentucky": 5612,
  "superhero": 16251,
  "dorchester": 27252,
  "fur": 6519,
  "false": 6270,
  "mob": 11240,
  "penang": 21812,
  "shook": 3184,
  "blanket": 8768,
  "sven": 21313,
  "##eb": 15878,
  "find": 2424,
  "medieval": 5781,
  "encounters": 11340,
  "couldn": 2481,
  "storey": 11676,
  "columnist": 13317,
  "##minster": 24431,
  "macdonald": 10406,
  "630": 23609,
  "nottingham": 11331,
  "\u2297": 1613,
  "chickens": 21868,
  "stephanie": 11496,
  "becomes": 4150,
  "alberta": 7649,
  "canine": 28735,
  "swan": 10677,
  "disguised": 17330,
  "##lch": 29358,
  "ali": 4862,
  "##eld": 14273,
  "gregg": 18281,
  "enhancement": 22415,
  "octopus": 24318,
  "tully": 25724,
  "championed": 28683,
  "instinctively": 16607,
  "##s\u0142aw": 23305,
  "vested": 26003,
  "eireann": 29157,
  "midfield": 23071,
  "examinations": 14912,
  "ur": 24471,
  "##dating": 16616,
  "conscription": 26329,
  "institutions": 4896,
  "##vez": 26132,
  "grinned": 6973,
  "1803": 12651,
  "1998": 2687,
  "stellar": 17227,
  "closely": 4876,
  "1955": 3982,
  "steel": 3886,
  "##34": 22022,
  "[unused888]": 893,
  "stab": 17079,
  "##mar": 7849,
  "chamberlain": 13904,
  "[unused106]": 111,
  "##scribe": 29234,
  "##encies": 15266,
  "[unused294]": 299,
  "[unused617]": 622,
  "[unused798]": 803,
  "stung": 19280,
  "pillar": 14809,
  "tugged": 10621,
  "likely": 3497,
  "dukes": 16606,
  "slogan": 14558,
  "redevelopment": 15582,
  "451": 28161,
  "substitution": 20885,
  "##belle": 25766,
  "glared": 9400,
  "##iness": 9961,
  "##onis": 27296,
  "abstracts": 29474,
  "props": 24387,
  "giggled": 15889,
  "sword": 4690,
  "sucked": 8631,
  "19": 2539,
  "unused": 15171,
  "##erty": 15010,
  "sexual": 4424,
  "sous": 27411,
  "fit": 4906,
  "hillside": 18573,
  "blamed": 11248,
  "polgara": 27041,
  "##ovich": 12303,
  "helps": 7126,
  "utilities": 16548,
  "##dium": 12811,
  "##ations": 10708,
  "creditors": 23112,
  "talbot": 14838,
  "transform": 10938,
  "cyclist": 14199,
  "sebastien": 28328,
  "healthy": 7965,
  "innings": 7202,
  "villain": 12700,
  "exercises": 11110,
  "gripped": 9672,
  "characterization": 23191,
  "separated": 5459,
  "intimidating": 24439,
  "bowie": 14598,
  "hugged": 10308,
  "enhance": 11598,
  "pedestal": 24496,
  "directions": 7826,
  "departing": 15971,
  "tabitha": 21581,
  "pharmaceutical": 13859,
  "ze": 27838,
  "link": 4957,
  "shouldered": 29383,
  "\u4e94": 1753,
  "basis": 3978,
  "##wt": 26677,
  "flora": 10088,
  "##ffey": 24513,
  "miscellaneous": 25408,
  "[unused243]": 248,
  "staring": 4582,
  "##\u0294": 29705,
  "vermont": 8839,
  "miles": 2661,
  "ag": 12943,
  "cute": 10140,
  "thanks": 4283,
  "consistent": 8335,
  "allotted": 23932,
  "hague": 14575,
  "ideals": 15084,
  "fearless": 22518,
  "##llo": 7174,
  "##\u5c1a": 30356,
  "##\u898b": 30474,
  "block": 3796,
  "##eurs": 26744,
  "routine": 9410,
  "administrations": 27722,
  "##sf": 22747,
  "neil": 6606,
  "[unused977]": 982,
  "##ington": 7853,
  "sheets": 8697,
  "##tlan": 28922,
  "##lass": 27102,
  "limo": 23338,
  "wilfred": 26026,
  "yiddish": 20112,
  "bison": 22285,
  "aged": 4793,
  "\u516b": 1771,
  "##iec": 23783,
  "##\u0632": 29823,
  "masovian": 23703,
  "[unused616]": 621,
  "##idium": 28742,
  "##gler": 17420,
  "fished": 26281,
  "notwithstanding": 26206,
  "##ah": 4430,
  "weeping": 19750,
  "pays": 12778,
  "kilometre": 13214,
  "north": 2167,
  "##\u028e": 29701,
  "\u68ee": 1882,
  "driven": 5533,
  "happy": 3407,
  "sexes": 21024,
  "ineffective": 20694,
  "delivered": 5359,
  "attain": 18759,
  "##gues": 22967,
  "apples": 18108,
  "##vet": 19510,
  "reviewed": 8182,
  "loft": 19459,
  "bowman": 19298,
  "series": 2186,
  "bk": 23923,
  "crossroads": 16760,
  "245": 21005,
  "provost": 18523,
  "immensely": 24256,
  "earrings": 27212,
  "servants": 8858,
  "harrington": 19760,
  "hs": 26236,
  "blackout": 26717,
  "lantern": 12856,
  "foxes": 24623,
  "interrogation": 16871,
  "vodka": 21092,
  "admiring": 24588,
  "##\u65e5": 30390,
  "contrary": 10043,
  "technologies": 6786,
  "forthcoming": 16875,
  "##rva": 19146,
  "annoyance": 17466,
  "thorpe": 20249,
  "##lines": 12735,
  "relaxing": 19613,
  "[unused446]": 451,
  "lately": 9906,
  "gear": 6718,
  "vicar": 12340,
  "##eke": 23941,
  "real": 2613,
  "species": 2427,
  "terrific": 27547,
  "crosses": 7821,
  "prep": 17463,
  "nominee": 9773,
  "spawned": 18379,
  "benoit": 21721,
  "animal": 4111,
  "lake": 2697,
  "persona": 16115,
  "balance": 5703,
  "##\u2093": 30092,
  "##zzo": 12036,
  "visitation": 28877,
  "1654": 27445,
  "inline": 23881,
  "parade": 7700,
  "cs": 20116,
  "##eding": 17819,
  "consequence": 9509,
  "\u201d": 1524,
  "##alia": 22786,
  "accuracy": 10640,
  "occurrence": 14404,
  "##moral": 22049,
  "worked": 2499,
  "walkover": 17495,
  "79": 6535,
  "##use": 8557,
  "otter": 22279,
  "1950": 3925,
  "gender": 5907,
  "460": 17267,
  "chalmers": 29069,
  "killing": 4288,
  "[unused928]": 933,
  "paperwork": 17397,
  "pry": 29198,
  "department": 2533,
  "\u09a1": 1360,
  "ole": 15589,
  "[unused169]": 174,
  "##eles": 26741,
  "##drop": 25711,
  "reassigned": 18026,
  "[unused600]": 605,
  "##\u0bc1": 29933,
  "condor": 29260,
  "monsters": 9219,
  "collaborations": 17437,
  "1990": 2901,
  "ferns": 25715,
  "holidays": 11938,
  "undertaking": 18457,
  "sabah": 22515,
  "[unused776]": 781,
  "##itic": 18291,
  "deacon": 14845,
  "explodes": 27583,
  "patterson": 12424,
  "shielded": 25474,
  "g": 1043,
  "pause": 8724,
  "hazel": 14015,
  "vol": 5285,
  "249": 23628,
  "pointless": 23100,
  "solutions": 7300,
  "telecommunication": 25958,
  "##uman": 19042,
  "tooth": 11868,
  "lyle": 21971,
  "sap": 20066,
  "deposed": 18298,
  "excursion": 26144,
  "loosely": 11853,
  "stationary": 17337,
  "frontman": 21597,
  "versions": 4617,
  "edwin": 10049,
  "brace": 17180,
  "amplitude": 22261,
  "\u20ac": 1574,
  "[unused32]": 33,
  "##eth": 11031,
  "kingdom": 2983,
  "express": 4671,
  "nos": 16839,
  "paper": 3259,
  "##mund": 25574,
  "libby": 19533,
  "1841": 9840,
  "zombies": 14106,
  "##cit": 26243,
  "##cate": 16280,
  "pontiac": 24538,
  "caps": 9700,
  "sheet": 7123,
  "deviation": 24353,
  "keepers": 24018,
  "token": 19204,
  "folder": 19622,
  "barrister": 19805,
  "##nivorous": 29193,
  "[unused542]": 547,
  "uruguayan": 23464,
  "hellenistic": 27464,
  "incidence": 18949,
  "##\u694a": 30409,
  "##itude": 18679,
  "##uil": 19231,
  "341": 28358,
  "bestowed": 17398,
  "##\u0bb0": 29927,
  "programme": 4746,
  "symbolic": 12613,
  "rodrigo": 18943,
  "47": 4700,
  "catcher": 13795,
  "207": 19843,
  "incredibly": 11757,
  "funds": 5029,
  "confuse": 28679,
  "eels": 29317,
  "pass": 3413,
  "\u0940": 1342,
  "\u7cf9": 1934,
  "quilt": 27565,
  "##crest": 25313,
  "cobalt": 25627,
  "ign": 16270,
  "intercept": 19115,
  "##et": 3388,
  "professor": 2934,
  "vista": 13005,
  "jaipur": 28355,
  "elliot": 11759,
  "acquitted": 18538,
  "sequel": 8297,
  "chose": 4900,
  "##ador": 26467,
  "floor": 2723,
  "legislator": 22964,
  "vicki": 25424,
  "skinner": 17451,
  "mora": 26821,
  "##phone": 9864,
  "coins": 7824,
  "nehru": 23556,
  "##bbling": 15343,
  "uncertain": 9662,
  "patrolling": 24248,
  "increases": 7457,
  "labeling": 28847,
  "judging": 13325,
  "##tees": 28313,
  "giant": 5016,
  "attend": 5463,
  "rotated": 20931,
  "name": 2171,
  "\u56fd": 1799,
  "feasibility": 24010,
  "[unused831]": 836,
  "routed": 19578,
  "quezon": 26564,
  "englishman": 25244,
  "brief": 4766,
  "##zone": 15975,
  "drilling": 15827,
  "api": 17928,
  "\u0986": 1348,
  "guerrero": 16938,
  "##@": 29633,
  "norwich": 12634,
  "hindus": 18221,
  "tata": 23236,
  "reasoning": 13384,
  "bliss": 13670,
  "dunne": 26553,
  "tsar": 17608,
  "dax": 27116,
  "suspension": 8636,
  "russell": 5735,
  "##imo": 16339,
  "straightening": 27508,
  "##ites": 7616,
  "instability": 18549,
  "1919": 4529,
  "sworn": 10741,
  "son": 2365,
  "\u3066": 1665,
  "sanchez": 10568,
  "holocaust": 11513,
  "nationalism": 14594,
  "shuffling": 24770,
  "descends": 23328,
  "mcc": 23680,
  "dentist": 24385,
  "miocene": 26926,
  "trek": 10313,
  "##ichi": 11319,
  "[unused597]": 602,
  "safari": 23591,
  "stumble": 21811,
  "mohamed": 14467,
  "cheyenne": 17778,
  "discussing": 10537,
  "##oes": 22504,
  "\u0686": 1303,
  "gale": 14554,
  "03": 6021,
  "hungarians": 24027,
  "nan": 16660,
  "lion": 7006,
  "chased": 13303,
  "victim": 6778,
  "##sir": 29481,
  "joshi": 26645,
  "revered": 23886,
  "preferred": 6871,
  "##rnik": 26437,
  "anxiously": 23403,
  "##orous": 25373,
  "dev": 16475,
  "sewing": 22746,
  "software": 4007,
  "##dry": 21190,
  "promo": 19430,
  "transylvania": 20816,
  "objection": 22224,
  "waterway": 23668,
  "bhutan": 18768,
  "##ons": 5644,
  "ledger": 27106,
  "\u8fb6": 1956,
  "burning": 5255,
  "nod": 7293,
  "##ns": 3619,
  "sparkle": 26831,
  "hugging": 17662,
  "position": 2597,
  "lyon": 10241,
  "marathi": 18388,
  "contracted": 11016,
  "notices": 14444,
  "##\u0905": 29847,
  "\u5f8c": 1846,
  "jealous": 9981,
  "touch": 3543,
  "sept": 17419,
  "nordic": 13649,
  "##liest": 21292,
  "booking": 21725,
  "[unused261]": 266,
  "neumann": 22860,
  "divine": 7746,
  "millie": 19561,
  "limiting": 14879,
  "hadn": 2910,
  "##\u571f": 30327,
  "radius": 12177,
  "\u0bae": 1389,
  "confirming": 19195,
  "stability": 9211,
  "villains": 16219,
  "authored": 8786,
  "authentication": 27280,
  "perennial": 14638,
  "tensions": 13136,
  "##eses": 23072,
  "rochelle": 25649,
  "##dha": 17516,
  "node": 13045,
  "fucking": 8239,
  "fails": 11896,
  "##\u02be": 29713,
  "[unused313]": 318,
  "mountains": 4020,
  "beaver": 13570,
  "covent": 29456,
  "##rang": 24388,
  "##rbin": 27366,
  "##gled": 11533,
  "realistic": 12689,
  "[unused227]": 232,
  "stimulating": 27295,
  "##\u20b9": 30104,
  "##mini": 25300,
  "stockton": 19161,
  "##lity": 18605,
  "[unused972]": 977,
  "circled": 14867,
  "##\u0250": 29676,
  "led": 2419,
  "how": 2129,
  "positions": 4460,
  "identify": 6709,
  "##color": 18717,
  "thoughts": 4301,
  "here": 2182,
  "varying": 9671,
  "##\u056f": 29774,
  "close": 2485,
  "janeiro": 11497,
  "unconventional": 23693,
  "##\u2208": 30124,
  "##ico": 11261,
  "enroll": 25612,
  "fraternity": 13577,
  "blushing": 25771,
  "begging": 12858,
  "favourites": 28271,
  "abandoning": 19816,
  "rabbis": 25602,
  "##\u0449": 29754,
  "pleasing": 24820,
  "[unused948]": 953,
  "cougars": 26317,
  "103": 9800,
  "alan": 5070,
  "breathe": 7200,
  "batsman": 13953,
  "constituencies": 13315,
  "vedic": 25824,
  "dismounted": 29580,
  "iucn": 20333,
  "##uche": 19140,
  "wheat": 10500,
  "##apple": 23804,
  "aesthetics": 20749,
  "beech": 21760,
  "twisted": 6389,
  "carriers": 11363,
  "illustrator": 13825,
  "watkins": 17055,
  "stuart": 6990,
  "resurrected": 23053,
  "kat": 10645,
  "limbs": 10726,
  "timely": 23259,
  "empowered": 26480,
  "thereof": 21739,
  "delight": 12208,
  "1643": 25534,
  "carole": 24348,
  "##ammed": 27479,
  "derelict": 28839,
  "troop": 10123,
  "decay": 13121,
  "##tonic": 25009,
  "seed": 6534,
  "relate": 14396,
  "laird": 21964,
  "franco": 9341,
  "##pace": 15327,
  "##gre": 17603,
  "##ivation": 25761,
  "\u0ba4": 1385,
  "[unused816]": 821,
  "modifications": 12719,
  "vatican": 12111,
  "##zed": 5422,
  "decreasing": 16922,
  "\u5c0f": 1829,
  "pre": 3653,
  "senses": 9456,
  "##crow": 24375,
  "provoked": 19157,
  "savoy": 16394,
  "greens": 15505,
  "katharine": 25739,
  "sharply": 9249,
  "displaying": 14962,
  "bbc": 4035,
  "returning": 4192,
  "perched": 17335,
  "mohan": 18529,
  "atkinson": 18646,
  "\u7ae0": 1932,
  "hampson": 21780,
  "##lais": 28704,
  "saga": 12312,
  "evicted": 25777,
  "elf": 17163,
  "priscilla": 25193,
  "treaty": 5036,
  "ii": 2462,
  "schwarz": 29058,
  "96": 5986,
  "##col": 25778,
  "drawers": 22497,
  "band": 2316,
  "virus": 7865,
  "[unused39]": 40,
  "ucla": 12389,
  "##cting": 11873,
  "##rat": 8609,
  "halls": 9873,
  "\u304d": 1652,
  "complied": 26946,
  "exist": 4839,
  "\u0564": 1222,
  "cohen": 9946,
  "traders": 13066,
  "fingers": 3093,
  "biomedical": 20906,
  "##\u0e2d": 29957,
  "nato": 10079,
  "clothes": 4253,
  "##nov": 16693,
  "284": 26871,
  "annual": 3296,
  "multi": 4800,
  "proper": 5372,
  "\u30b3": 1704,
  "disco": 12532,
  "former": 2280,
  "understand": 3305,
  "quincy": 16141,
  "jays": 18930,
  "exploding": 20728,
  "##la": 2721,
  "voluntary": 10758,
  "1713": 27016,
  "than": 2084,
  "cone": 13171,
  "257": 24368,
  "grasping": 20854,
  "intersect": 29261,
  "\u207b": 1545,
  "scan": 13594,
  "naive": 15743,
  "whom": 3183,
  "anglo": 7819,
  "legacy": 8027,
  "\u0142": 1105,
  "regulars": 24945,
  "bounce": 17523,
  "##rew": 15603,
  "##us": 2271,
  "ie": 29464,
  "broadcaster": 11995,
  "##uli": 15859,
  "preached": 21491,
  "##minating": 27932,
  "playful": 18378,
  "shoulder": 3244,
  "\u00bc": 1091,
  "##\u0e01": 29945,
  "\u5bb6": 1825,
  "1580": 28278,
  "rodriguez": 9172,
  "##isance": 28138,
  "kota": 23856,
  "receives": 8267,
  "program": 2565,
  "mvp": 12041,
  "housing": 3847,
  "risks": 10831,
  "sul": 21396,
  "accountable": 26771,
  "shay": 18789,
  "iconic": 14430,
  "##\u30b3": 30230,
  "moons": 23377,
  "transitional": 17459,
  "maroon": 22222,
  "##\u10da": 29983,
  "fragmentation": 28424,
  "chemotherapy": 27144,
  "kendra": 13812,
  "passages": 13768,
  "##\u1d58": 30042,
  "tracts": 22069,
  "chopper": 28057,
  "lark": 23404,
  "into": 2046,
  "breaths": 12938,
  "clutching": 14197,
  "##ngen": 25997,
  "##ister": 12911,
  "igor": 14661,
  "saint": 3002,
  "handkerchief": 23975,
  "mcbride": 18958,
  "macro": 26632,
  "test": 3231,
  "##\u25aa": 30145,
  "harlem": 14864,
  "##rba": 28483,
  "discomfort": 17964,
  "liner": 11197,
  "snapped": 5941,
  "larkin": 25570,
  "##\u2077": 30076,
  "thought": 2245,
  "stanford": 8422,
  "rattled": 19252,
  "modify": 19933,
  "tad": 18819,
  "##\u09b0": 29908,
  "oxidation": 19577,
  "##nik": 8238,
  "ashton": 13772,
  "frightened": 10363,
  "symphonies": 29355,
  "##\u1d3a": 30030,
  "fraser": 9443,
  "hanging": 5689,
  "[unused95]": 96,
  "retail": 7027,
  "routes": 5847,
  "forecast": 19939,
  "iphone": 18059,
  "dangling": 18737,
  "quick": 4248,
  "mattered": 13836,
  "southampton": 11833,
  "terminates": 28790,
  "1999": 2639,
  "improves": 24840,
  "shouted": 6626,
  "[unused877]": 882,
  "eine": 27665,
  "##\u305f": 30187,
  "lightly": 8217,
  "dock": 8946,
  "smithsonian": 15720,
  "tablets": 17596,
  "##hoot": 23416,
  "istanbul": 9960,
  "upcoming": 9046,
  "18th": 4985,
  "invest": 15697,
  "acheron": 21427,
  "bengal": 8191,
  "digger": 28661,
  "houses": 3506,
  "[unused207]": 212,
  "determination": 9128,
  "posthumously": 12770,
  "moonlight": 11986,
  "bryant": 12471,
  "give": 2507,
  "aluminum": 13061,
  "spirit": 4382,
  "citrus": 20418,
  "##imi": 27605,
  "eureka": 21142,
  "##\u3061": 30188,
  "xx": 22038,
  "##its": 12762,
  "oceans": 17401,
  "mythical": 19336,
  "radiated": 23000,
  "massive": 5294,
  "taste": 5510,
  "[unused445]": 450,
  "multiple": 3674,
  "franciscan": 19420,
  "britain": 3725,
  "##ieving": 25587,
  "assyrian": 19950,
  "remade": 26943,
  "238": 22030,
  "##systems": 29390,
  "rodeo": 18936,
  "loco": 28046,
  "molten": 23548,
  "\u2080": 1547,
  "##ony": 16585,
  "assam": 15181,
  "beverage": 19645,
  "flow": 4834,
  "christensen": 24189,
  "riddle": 21834,
  "1915": 4936,
  "##pani": 26569,
  "corinne": 26879,
  "thrash": 27042,
  "ambiguous": 20080,
  "airports": 13586,
  "armour": 12371,
  "it": 2009,
  "intrusion": 24554,
  "surf": 14175,
  "infrastructure": 6502,
  "eddie": 5752,
  "258": 24398,
  "peeled": 20956,
  "##ft": 6199,
  "mikhail": 11318,
  "stinging": 22748,
  "[unused843]": 848,
  "jasper": 14791,
  "wong": 11789,
  "wilkins": 22745,
  "[unused428]": 433,
  "demands": 7670,
  "oppression": 20489,
  "expand": 7818,
  "amateurs": 24361,
  "regulator": 21618,
  "cree": 27831,
  "shave": 27545,
  "sector": 4753,
  "straining": 21366,
  "tbilisi": 22406,
  "##lena": 20844,
  "zeta": 23870,
  "booths": 27612,
  "islanders": 16422,
  "plus": 4606,
  "swirled": 19171,
  "##nese": 14183,
  "piece": 3538,
  "\u0927": 1326,
  "sealed": 10203,
  "als": 25520,
  "outputs": 27852,
  "physicians": 11572,
  "##um": 2819,
  "##out": 5833,
  "engine": 3194,
  "##\u043a\u0430": 28598,
  "whitney": 9809,
  "gameplay": 11247,
  "##\u0647": 14157,
  "olympics": 3783,
  "gamma": 13091,
  "belief": 6772,
  "village": 2352,
  "symbol": 6454,
  "[unused735]": 740,
  "blinking": 15997,
  "khan": 4967,
  "refurbishment": 24478,
  "##\u00b9": 27904,
  "##rika": 23778,
  "colorful": 14231,
  "please": 3531,
  "mr": 2720,
  "[unused237]": 242,
  "ruining": 27853,
  "be": 2022,
  "deploy": 21296,
  "mustache": 28786,
  "accountability": 17842,
  "[unused976]": 981,
  "[unused408]": 413,
  "immune": 11311,
  "scenery": 17363,
  "accreditation": 14893,
  "##ted": 3064,
  "bacterial": 17341,
  "investor": 14316,
  "1644": 23477,
  "victoria": 3848,
  "hacking": 23707,
  "draw": 4009,
  "quintet": 18109,
  "amplifier": 22686,
  "stockport": 26284,
  "##ess": 7971,
  "attempt": 3535,
  "128": 11899,
  "downloadable": 26720,
  "causal": 28102,
  "\u30a4": 1695,
  "reproduction": 14627,
  "[unused165]": 170,
  "##bbly": 24200,
  "manuscript": 8356,
  "bernhard": 21432,
  "produced": 2550,
  "yards": 4210,
  "sho": 26822,
  "##ity": 3012,
  "anchors": 24674,
  "bunch": 9129,
  "borrowed": 11780,
  "slump": 28702,
  "flores": 17343,
  "mechanics": 9760,
  "wehrmacht": 23443,
  "##uchi": 15217,
  "\uff0e": 1991,
  "load": 7170,
  "##\u0565": 29770,
  "riding": 5559,
  "mohawk": 22338,
  "independents": 23756,
  "classroom": 9823,
  "offs": 12446,
  "pdf": 11135,
  "uninhabited": 24749,
  "column": 5930,
  "central": 2430,
  "glenn": 9465,
  "savannah": 10891,
  "accumulated": 14830,
  "1839": 10011,
  "jazz": 4166,
  "seaside": 20276,
  "southernmost": 21787,
  "##weight": 11179,
  "dunbar": 23034,
  "marched": 9847,
  "clay": 5726,
  "##tai": 15444,
  "knees": 5042,
  "##ine": 3170,
  "halifax": 10475,
  "gran": 12604,
  "##tian": 10772,
  "gnome": 25781,
  "pitches": 19299,
  "##\u5916": 30335,
  "clips": 15281,
  "##opers": 27342,
  "knitting": 26098,
  "highlights": 11637,
  "\u0261": 1116,
  "mammalian": 26524,
  "hurriedly": 23878,
  "##zh": 27922,
  "[unused116]": 121,
  "cooked": 12984,
  "serbs": 16757,
  "\u10dc": 1449,
  "praise": 8489,
  "of": 1997,
  "pagoda": 27387,
  "vary": 8137,
  "unlimited": 14668,
  "##ege": 24746,
  "monster": 6071,
  "accumulation": 20299,
  "harmed": 25596,
  "##max": 17848,
  "63": 6191,
  "aluminium": 14794,
  "knit": 22404,
  "doubted": 12979,
  "interrupted": 7153,
  "vt": 28879,
  "celebrity": 8958,
  "becca": 22140,
  "june": 2238,
  "##ods": 20620,
  "billy": 5006,
  "deserved": 10849,
  "rebecca": 9423,
  "kinetic": 20504,
  "##oya": 18232,
  "##hman": 13890,
  "##yra": 19563,
  "citadel": 15364,
  "##outs": 12166,
  "##nae": 17452,
  "bikini": 20345,
  "97": 5989,
  "##\u20a9": 30101,
  "tobias": 16858,
  "grassy": 22221,
  "garde": 14535,
  "loyalists": 26590,
  "##9th": 25660,
  "triangle": 9546,
  "graphs": 19287,
  "armistice": 19125,
  "radicals": 23618,
  "emil": 16243,
  "coughing": 21454,
  "condemning": 28525,
  "vaulted": 24616,
  "adolescent": 20274,
  "##berry": 9766,
  "stool": 14708,
  "execute": 15389,
  "brook": 9566,
  "tna": 20108,
  "wessex": 27886,
  "civilian": 6831,
  "filtered": 21839,
  "tabloid": 24173,
  "cracking": 15729,
  "embodied": 25405,
  "problematic": 18636,
  "rudy": 18254,
  "keeps": 7906,
  "boyfriend": 6898,
  "brett": 12049,
  "storyline": 9994,
  "poses": 22382,
  "[unused556]": 561,
  "greensboro": 27905,
  "reductions": 25006,
  "portion": 4664,
  "cox": 9574,
  "\u1d62": 1507,
  "warm": 4010,
  "legislation": 6094,
  "glad": 5580,
  "organizers": 18829,
  "1828": 11517,
  "drafts": 28967,
  "bizarre": 13576,
  "elena": 9060,
  "syndicate": 16229,
  "petrol": 17141,
  "[unused981]": 986,
  "expectation": 17626,
  "##lit": 15909,
  "supplemental": 27024,
  "313": 22997,
  "swirl": 28693,
  "xl": 28712,
  "##lth": 24658,
  "##rol": 13153,
  "##ru": 6820,
  "##\u05e4": 29807,
  "establish": 5323,
  "##tv": 9189,
  "escorted": 13127,
  "##region": 23784,
  "authors": 6048,
  "raymond": 7638,
  "##\u5973": 30341,
  "splinter": 27546,
  "[unused782]": 787,
  "interstate": 7553,
  "behold": 27541,
  "estimation": 24155,
  "windshield": 19521,
  "wickets": 10370,
  "##wu": 16050,
  "cummings": 20750,
  "collingwood": 20044,
  "gunshot": 22077,
  "[unused960]": 965,
  "collectors": 14256,
  "1727": 25350,
  "##\u21a6": 30116,
  "delegation": 10656,
  "\u2033": 1532,
  "gaulle": 28724,
  "pattern": 5418,
  "##less": 3238,
  "andersen": 18308,
  "contestant": 10832,
  "symmetrical": 23476,
  "wrap": 10236,
  "1805": 13126,
  "\u30ad": 1701,
  "francisco": 3799,
  "radically": 25796,
  "alligator": 28833,
  "##firmed": 23141,
  "bertie": 20743,
  "\u064a": 1300,
  "participation": 6577,
  "suffix": 16809,
  "fatal": 10611,
  "jon": 6285,
  "stokes": 18716,
  "##dia": 9032,
  "##iji": 27821,
  "null": 19701,
  "shrub": 15751,
  "plato": 18858,
  "midi": 22265,
  "opponents": 7892,
  "gambling": 12219,
  "##p": 2361,
  "rude": 12726,
  "spilled": 13439,
  "##zawa": 19708,
  "recognise": 17614,
  "##anta": 26802,
  "encircled": 25759,
  "##mt": 20492,
  "ascribed": 28025,
  "\u1da0": 1512,
  "cater": 23488,
  "##tein": 9589,
  "backbone": 21505,
  "[unused604]": 609,
  "tallinn": 21169,
  "butte": 25024,
  "##ari": 8486,
  "negotiations": 7776,
  "whimpered": 26184,
  "##nami": 28987,
  "devote": 23313,
  "cisco": 26408,
  "##sch": 11624,
  "lettering": 25782,
  "jackets": 17764,
  "judgment": 8689,
  "ratio": 6463,
  "cocaine": 16034,
  "##uising": 28580,
  "brian": 4422,
  "dialects": 11976,
  "nazi": 6394,
  "##gers": 15776,
  "##anial": 27532,
  "rushes": 18545,
  "[unused615]": 620,
  "statutes": 18574,
  "sprinted": 25156,
  "##ium": 5007,
  "thermal": 9829,
  "niagara": 15473,
  "nrl": 20686,
  "tunes": 13281,
  "accusing": 16723,
  "specially": 11974,
  "\u06a9": 1304,
  "incorporation": 16935,
  "maze": 15079,
  "foolish": 13219,
  "reflecting": 10842,
  "legal": 3423,
  "wwf": 16779,
  "rewards": 19054,
  "[unused307]": 312,
  "purdue": 19749,
  "kiev": 12100,
  "##zione": 20574,
  "harley": 13653,
  "\u0f60": 1433,
  "##sume": 23545,
  "##icide": 21752,
  "geese": 28519,
  "turmoil": 17930,
  "##rland": 18324,
  "floppy": 28491,
  "ptolemy": 23517,
  "threaten": 15686,
  "heir": 8215,
  "widened": 8723,
  "164": 17943,
  "##ba": 3676,
  "\u1112": 1469,
  "littered": 24777,
  "championship": 2528,
  "##mps": 25370,
  "heavens": 17223,
  "develop": 4503,
  "[unused254]": 259,
  "vlad": 19163,
  "formerly": 3839,
  "tongue": 4416,
  "generals": 11593,
  "20th": 3983,
  "hours": 2847,
  "bert": 14324,
  "##lynn": 27610,
  "navigable": 28538,
  "##\u8449": 30469,
  "hamburger": 24575,
  "plantations": 14979,
  "jacqueline": 17551,
  "71": 6390,
  "##iol": 20282,
  "debating": 20767,
  "wight": 20945,
  "ignorance": 18173,
  "bland": 20857,
  "[unused892]": 897,
  "incomplete": 12958,
  "bi": 12170,
  "barney": 15377,
  "sort": 4066,
  "##bbs": 17226,
  "advantage": 5056,
  "rendition": 19187,
  "##jali": 28948,
  "177": 18118,
  "##lon": 7811,
  "##gin": 11528,
  "##dition": 20562,
  "pitted": 25895,
  "huskies": 29471,
  "network": 2897,
  "##ote": 12184,
  "evan": 9340,
  "recovered": 6757,
  "inherently": 26096,
  "##owa": 21293,
  "emails": 22028,
  "yao": 23711,
  "##\u6cb3": 30425,
  "tech": 6627,
  "kurdish": 15553,
  "bennett": 8076,
  "##tained": 28055,
  "presenter": 10044,
  "diving": 9404,
  "rv": 27634,
  "gr": 24665,
  "experiments": 7885,
  "mayoral": 23578,
  "##ace": 10732,
  "##paper": 23298,
  "intersecting": 27294,
  "lawsuit": 9870,
  "defines": 11859,
  "abu": 8273,
  "crucial": 10232,
  "trondheim": 26331,
  "cafeteria": 16673,
  "##\u00b1": 29657,
  "saving": 7494,
  "unix": 19998,
  "plead": 25803,
  "fountain": 9545,
  "exiled": 14146,
  "commando": 15054,
  "lying": 4688,
  "roaring": 17197,
  "collections": 6407,
  "counselor": 17220,
  "\u0290": 1136,
  "##bla": 28522,
  "##\u30c8": 30240,
  "chun": 20979,
  "scrutiny": 17423,
  "##jas": 17386,
  "bath": 7198,
  "compiling": 21953,
  "outsiders": 22361,
  "44th": 26409,
  "flavour": 28126,
  "##stellar": 29028,
  "william": 2520,
  "##rance": 21621,
  "[unused178]": 183,
  "vu": 24728,
  "georgian": 9166,
  "representing": 5052,
  "dim": 11737,
  "capital": 3007,
  "turnpike": 17116,
  "\uff0c": 1989,
  "##cey": 25810,
  "romano": 22070,
  "teller": 21322,
  "idiots": 28781,
  "happened": 3047,
  "sofie": 26359,
  "209": 19348,
  "raiding": 23530,
  "whereabouts": 18913,
  "##li": 3669,
  "blessing": 13301,
  "unless": 4983,
  "rose": 3123,
  "##entation": 19304,
  "[unused511]": 516,
  "\u30c8": 1714,
  "1789": 13739,
  "##pis": 18136,
  "hicks": 17221,
  "##zic": 27586,
  "\u2665": 1625,
  "termination": 18287,
  "1926": 4881,
  "operated": 3498,
  "motioned": 13054,
  "practised": 20439,
  "##sas": 20939,
  "certificates": 17987,
  "##\u0580": 29784,
  "##say": 24322,
  "award": 2400,
  "forbade": 27315,
  "rises": 9466,
  "bluegrass": 21286,
  "novels": 6002,
  "##kovsky": 23829,
  "##virus": 23350,
  "splashed": 22055,
  "uniformed": 25189,
  "sen": 12411,
  "##town": 4665,
  "egypt": 5279,
  "descendants": 8481,
  "[unused352]": 357,
  "integrity": 11109,
  "transcription": 14193,
  "bald": 13852,
  "lyndon": 23037,
  "blond": 8855,
  "anti": 3424,
  "sake": 8739,
  "##gel": 12439,
  "jews": 5181,
  "[UNK]": 100,
  "##unas": 23904,
  "canton": 8770,
  "fourteen": 7426,
  "component": 6922,
  "governance": 10615,
  "mandal": 24373,
  "\u03bf": 1169,
  "declaring": 13752,
  "[unused952]": 957,
  "contemporary": 3824,
  "taliban": 16597,
  "clasp": 23465,
  "1990s": 4134,
  "admit": 6449,
  "confederates": 24627,
  "ghosts": 11277,
  "ricky": 11184,
  "scripted": 22892,
  "lurched": 21977,
  "sandy": 7525,
  "##\u03c8": 29738,
  "efficacy": 21150,
  "trillion": 23458,
  "goodwill": 22875,
  "prosecutor": 12478,
  "influences": 8092,
  "##any": 19092,
  "earning": 7414,
  "\u793a": 1923,
  "spill": 14437,
  "utility": 9710,
  "\u0621": 1269,
  "polls": 14592,
  "attracting": 15411,
  "gerard": 11063,
  "gmbh": 18289,
  "photograph": 9982,
  "enthusiastic": 14727,
  "dresses": 14464,
  "##buro": 23670,
  "tied": 5079,
  "##iting": 15402,
  "protective": 9474,
  "naughty": 20355,
  "deemed": 8357,
  "##hor": 16368,
  "ambition": 16290,
  "cassie": 8869,
  "oversaw": 14105,
  "[unused407]": 412,
  "esteem": 19593,
  "\u30b1": 1703,
  "claudio": 19569,
  "lass": 27333,
  "montrose": 24990,
  "assuming": 10262,
  "turbo": 15386,
  "watched": 3427,
  "\u20b1": 1575,
  "##maid": 28478,
  "arrest": 6545,
  "installed": 5361,
  "##kers": 11451,
  "pianist": 9066,
  "mahal": 27913,
  "mall": 6670,
  "etudes": 25041,
  "itv": 11858,
  "qaeda": 18659,
  "livingstone": 27656,
  "monograph": 24039,
  "totally": 6135,
  "##lean": 20898,
  "summary": 12654,
  "handful": 9210,
  "##onga": 26356,
  "##uding": 24539,
  "adi": 27133,
  "sonora": 26647,
  "judged": 13224,
  "fabio": 25616,
  "##tri": 18886,
  "titans": 13785,
  "sony": 8412,
  "##rge": 20800,
  "sympathy": 11883,
  "reserve": 3914,
  "##lic": 10415,
  "##channel": 26058,
  "##an": 2319,
  "##wani": 29092,
  "##lessness": 24913,
  "advantages": 12637,
  "paramilitary": 22258,
  "tendency": 11765,
  "possess": 10295,
  "##oslav": 23085,
  "[unused808]": 813,
  "eclectic": 20551,
  "cochrane": 22329,
  "desktop": 15363,
  "cubic": 11919,
  "dennis": 6877,
  "##ne": 2638,
  "manchester": 5087,
  "barker": 12852,
  "##\u0cb0": 29937,
  "derivative": 13819,
  "objects": 5200,
  "[unused102]": 107,
  "frankenstein": 22478,
  "\u30e5": 1729,
  "presenting": 10886,
  "##ral": 7941,
  "greenville": 20967,
  "enforcing": 27455,
  "##neuve": 28104,
  "headlining": 26533,
  "universite": 22176,
  "##riation": 18769,
  "if": 2065,
  "##wear": 16689,
  "cassette": 13903,
  "\u209c": 1571,
  "expecting": 8074,
  "components": 6177,
  "barrow": 15355,
  "pier": 10356,
  "[unused156]": 161,
  "intuition": 26406,
  "sophomore": 13758,
  "handle": 5047,
  "##caster": 25490,
  "around": 2105,
  "reprint": 25364,
  "approx": 22480,
  "citizenship": 9068,
  "tentacles": 24719,
  "##genesis": 23737,
  "relaxed": 8363,
  "##marks": 27373,
  "careful": 6176,
  "annum": 28907,
  "consecutive": 5486,
  "horticultural": 26235,
  "function": 3853,
  "paddington": 26318,
  "fantasy": 5913,
  "ordnance": 14445,
  "##boarding": 21172,
  "essence": 11305,
  "##itaire": 29422,
  "mps": 12616,
  "recognize": 6807,
  "27": 2676,
  "##nius": 20447,
  "preseason": 20038,
  "neo": 9253,
  "attitudes": 13818,
  "gus": 12670,
  "crabs": 26076,
  "[unused252]": 257,
  "minds": 9273,
  "spends": 15970,
  "reborn": 24910,
  "priestess": 27677,
  "robotic": 20478,
  "maddie": 17805,
  "##ener": 24454,
  "##won": 19291,
  "##birds": 12887,
  "discovery": 5456,
  "\u062d": 1276,
  "solomon": 9168,
  "sacramento": 11932,
  "[unused55]": 56,
  "[unused938]": 943,
  "##ksha": 28132,
  "pity": 12063,
  "brendan": 15039,
  "modernized": 27140,
  "reconstructed": 14858,
  "##zhou": 9791,
  "banjo": 16698,
  "darling": 9548,
  "##folk": 29284,
  "tracks": 3162,
  "trials": 7012,
  "##\u0263": 29683,
  "keys": 6309,
  "employed": 4846,
  "b1": 29491,
  "jia": 25871,
  "graphic": 8425,
  "##ring": 4892,
  "[unused986]": 991,
  "##esh": 9953,
  "barges": 27712,
  "##sam": 21559,
  "thee": 14992,
  "arrays": 27448,
  "##kir": 23630,
  "refined": 15514,
  "##\u798f": 30452,
  "##istan": 23137,
  "inflated": 29561,
  "##cci": 14693,
  "[unused585]": 590,
  "##iard": 14619,
  "##rag": 29181,
  "##mo": 5302,
  "##lino": 25226,
  "syrup": 23353,
  "periodical": 21802,
  "lick": 15385,
  "[unused912]": 917,
  "[unused514]": 519,
  "suck": 11891,
  "thrown": 6908,
  "phosphorus": 25473,
  "montevideo": 22460,
  "##imeters": 28136,
  "##\u1167": 30010,
  "holy": 4151,
  "concerning": 7175,
  "robert": 2728,
  "##anda": 13832,
  "squash": 18794,
  "fourteenth": 15276,
  "ir": 20868,
  "##ars": 11650,
  "##ath": 8988,
  "##\u201d": 30059,
  "##oro": 14604,
  "fighting": 3554,
  "\u58eb": 1807,
  "canada": 2710,
  "maybe": 2672,
  "crashes": 19119,
  "##pm": 9737,
  "reforming": 29455,
  "weaver": 14077,
  "gulf": 6084,
  "pulled": 2766,
  "lambda": 23375,
  "soyuz": 29412,
  "nord": 13926,
  "##cent": 13013,
  "poly": 26572,
  "##nat": 19833,
  "remember": 3342,
  "twinned": 25901,
  "sorbonne": 28452,
  "enjoyable": 22249,
  "squirrel": 18197,
  "marred": 24563,
  "grenades": 21914,
  "xp": 26726,
  "icon": 12696,
  "detachment": 11009,
  "provision": 9347,
  "institut": 17126,
  "##ccus": 27631,
  "wembley": 16538,
  "similarly": 6660,
  "strains": 18859,
  "bela": 20252,
  "systematically": 23087,
  "##sham": 21010,
  "marshal": 8610,
  "\u2092": 1562,
  "firearms": 13780,
  "##vine": 20534,
  "quentin": 15969,
  "blowing": 11221,
  "fruit": 5909,
  "[unused235]": 240,
  "[unused793]": 798,
  "update": 10651,
  "technological": 10660,
  "devastated": 13879,
  "##fting": 26169,
  "\u02e4": 1154,
  "loud": 5189,
  "helplessly": 24942,
  "tactic": 19717,
  "viva": 20022,
  "granny": 19794,
  "bowen": 16208,
  "trailed": 11145,
  "cuthbert": 24583,
  "abbott": 14455,
  "lace": 12922,
  "ind": 27427,
  "|": 1064,
  "##hy": 10536,
  "swiftly": 12128,
  "correspondence": 11061,
  "basal": 15191,
  "baltic": 11275,
  "audi": 20075,
  "##\u026b": 29686,
  "detective": 6317,
  "reissued": 14805,
  "godfrey": 18238,
  "doha": 26528,
  "garland": 17017,
  "resisting": 22363,
  "seamen": 28671,
  "1833": 11040,
  "eyed": 7168,
  "##\u03b5": 29723,
  "mill": 4971,
  "hello": 7592,
[...]
